{
  "version": "1.0",
  "truncation": null,
  "padding": null,
  "added_tokens": [
    {
      "id": 0,
      "content": "<unk>",
      "single_word": false,
      "lstrip": false,
      "rstrip": false,
      "normalized": false,
      "special": true
    },
    {
      "id": 1,
      "content": "<s>",
      "single_word": false,
      "lstrip": false,
      "rstrip": false,
      "normalized": false,
      "special": true
    },
    {
      "id": 2,
      "content": "</s>",
      "single_word": false,
      "lstrip": false,
      "rstrip": false,
      "normalized": false,
      "special": true
    },
    {
      "id": 3,
      "content": "<pad>",
      "single_word": false,
      "lstrip": false,
      "rstrip": false,
      "normalized": false,
      "special": true
    },
    {
      "id": 4,
      "content": "<mask>",
      "single_word": false,
      "lstrip": false,
      "rstrip": false,
      "normalized": false,
      "special": true
    }
  ],
  "normalizer": null,
  "pre_tokenizer": {
    "type": "Sequence",
    "pretokenizers": [
      {
        "type": "WhitespaceSplit"
      },
      {
        "type": "Punctuation",
        "behavior": "Isolated"
      }
    ]
  },
  "post_processor": {
    "type": "TemplateProcessing",
    "single": [
      {
        "SpecialToken": {
          "id": "<s>",
          "type_id": 0
        }
      },
      {
        "Sequence": {
          "id": "A",
          "type_id": 0
        }
      },
      {
        "SpecialToken": {
          "id": "</s>",
          "type_id": 0
        }
      }
    ],
    "pair": [
      {
        "SpecialToken": {
          "id": "<s>",
          "type_id": 0
        }
      },
      {
        "Sequence": {
          "id": "A",
          "type_id": 0
        }
      },
      {
        "SpecialToken": {
          "id": "</s>",
          "type_id": 0
        }
      },
      {
        "Sequence": {
          "id": "B",
          "type_id": 0
        }
      },
      {
        "SpecialToken": {
          "id": "</s>",
          "type_id": 0
        }
      }
    ],
    "special_tokens": {
      "</s>": {
        "id": "</s>",
        "ids": [
          2
        ],
        "tokens": [
          "</s>"
        ]
      },
      "<s>": {
        "id": "<s>",
        "ids": [
          1
        ],
        "tokens": [
          "<s>"
        ]
      }
    }
  },
  "decoder": null,
  "model": {
    "type": "BPE",
    "dropout": null,
    "unk_token": null,
    "continuing_subword_prefix": null,
    "end_of_word_suffix": null,
    "fuse_unk": false,
    "byte_fallback": false,
    "ignore_merges": false,
    "vocab": {
      "<unk>": 0,
      "<s>": 1,
      "</s>": 2,
      "<pad>": 3,
      "<mask>": 4,
      "!": 5,
      "\"": 6,
      "#": 7,
      "$": 8,
      "%": 9,
      "&": 10,
      "'": 11,
      "(": 12,
      ")": 13,
      "+": 14,
      ",": 15,
      "-": 16,
      ".": 17,
      "/": 18,
      "0": 19,
      "1": 20,
      "2": 21,
      "3": 22,
      "4": 23,
      "5": 24,
      "6": 25,
      "7": 26,
      "8": 27,
      "9": 28,
      ":": 29,
      ";": 30,
      "=": 31,
      "@": 32,
      "A": 33,
      "B": 34,
      "C": 35,
      "D": 36,
      "E": 37,
      "F": 38,
      "G": 39,
      "H": 40,
      "I": 41,
      "J": 42,
      "K": 43,
      "L": 44,
      "M": 45,
      "N": 46,
      "O": 47,
      "P": 48,
      "Q": 49,
      "R": 50,
      "S": 51,
      "T": 52,
      "U": 53,
      "V": 54,
      "W": 55,
      "X": 56,
      "Y": 57,
      "Z": 58,
      "[": 59,
      "]": 60,
      "a": 61,
      "b": 62,
      "c": 63,
      "d": 64,
      "e": 65,
      "f": 66,
      "g": 67,
      "h": 68,
      "i": 69,
      "j": 70,
      "k": 71,
      "l": 72,
      "m": 73,
      "n": 74,
      "o": 75,
      "p": 76,
      "q": 77,
      "r": 78,
      "s": 79,
      "t": 80,
      "u": 81,
      "v": 82,
      "w": 83,
      "x": 84,
      "y": 85,
      "z": 86,
      "~": 87,
      "£": 88,
      "°": 89,
      "²": 90,
      "µ": 91,
      "Ä": 92,
      "Æ": 93,
      "á": 94,
      "ä": 95,
      "å": 96,
      "é": 97,
      "í": 98,
      "ć": 99,
      "Ō": 100,
      "ō": 101,
      "Š": 102,
      "ū": 103,
      "ḏ": 104,
      "ṯ": 105,
      "–": 106,
      "—": 107,
      "‘": 108,
      "’": 109,
      "“": 110,
      "”": 111,
      "†": 112,
      "‡": 113,
      "₤": 114,
      "₹": 115,
      "い": 116,
      "う": 117,
      "か": 118,
      "が": 119,
      "き": 120,
      "く": 121,
      "し": 122,
      "た": 123,
      "つ": 124,
      "な": 125,
      "の": 126,
      "め": 127,
      "も": 128,
      "ら": 129,
      "ァ": 130,
      "ア": 131,
      "キ": 132,
      "ュ": 133,
      "リ": 134,
      "ル": 135,
      "ヴ": 136,
      "乙": 137,
      "光": 138,
      "名": 139,
      "君": 140,
      "命": 141,
      "咲": 142,
      "場": 143,
      "女": 144,
      "戦": 145,
      "灯": 146,
      "瘡": 147,
      "花": 148,
      "誓": 149,
      "誰": 150,
      "赤": 151,
      "運": 152,
      "銃": 153,
      "願": 154,
      "３": 155,
      "�": 156,
      "th": 157,
      "in": 158,
      "er": 159,
      "the": 160,
      "an": 161,
      "on": 162,
      "ed": 163,
      "or": 164,
      "at": 165,
      "es": 166,
      "en": 167,
      "ar": 168,
      "al": 169,
      "as": 170,
      "of": 171,
      "and": 172,
      "ing": 173,
      "is": 174,
      "it": 175,
      "re": 176,
      "to": 177,
      "ion": 178,
      "ic": 179,
      "ro": 180,
      "st": 181,
      "he": 182,
      "ou": 183,
      "ac": 184,
      "le": 185,
      "for": 186,
      "ly": 187,
      "de": 188,
      "ir": 189,
      "ent": 190,
      "am": 191,
      "om": 192,
      "il": 193,
      "se": 194,
      "was": 195,
      "be": 196,
      "iv": 197,
      "un": 198,
      "ch": 199,
      "The": 200,
      "ation": 201,
      "ter": 202,
      "lo": 203,
      "ad": 204,
      "od": 205,
      "ith": 206,
      "ay": 207,
      "ur": 208,
      "ig": 209,
      "ere": 210,
      "im": 211,
      "ol": 212,
      "with": 213,
      "wh": 214,
      "ts": 215,
      "tr": 216,
      "con": 217,
      "ul": 218,
      "that": 219,
      "ies": 220,
      "ce": 221,
      "um": 222,
      "us": 223,
      "ot": 224,
      "pl": 225,
      "av": 226,
      "pe": 227,
      "were": 228,
      "ers": 229,
      "em": 230,
      "com": 231,
      "ct": 232,
      "id": 233,
      "rom": 234,
      "by": 235,
      "ess": 236,
      "po": 237,
      "pr": 238,
      "ver": 239,
      "19": 240,
      "ap": 241,
      "el": 242,
      "god": 243,
      "are": 244,
      "ag": 245,
      "ain": 246,
      "all": 247,
      "if": 248,
      "sh": 249,
      "ut": 250,
      "air": 251,
      "su": 252,
      "ip": 253,
      "ab": 254,
      "af": 255,
      "per": 256,
      "ist": 257,
      "ate": 258,
      "ian": 259,
      "ow": 260,
      "ne": 261,
      "ame": 262,
      "cr": 263,
      "from": 264,
      "pt": 265,
      "ke": 266,
      "ther": 267,
      "ld": 268,
      "ie": 269,
      "est": 270,
      "igh": 271,
      "00": 272,
      "so": 273,
      "ia": 274,
      "te": 275,
      "lu": 276,
      "pro": 277,
      "ated": 278,
      "art": 279,
      "por": 280,
      "his": 281,
      "In": 282,
      "gh": 283,
      "ive": 284,
      "her": 285,
      "wor": 286,
      "gods": 287,
      "ear": 288,
      "ich": 289,
      "mo": 290,
      "ities": 291,
      "act": 292,
      "ity": 293,
      "ial": 294,
      "ant": 295,
      "oun": 296,
      "ack": 297,
      "qu": 298,
      "ine": 299,
      "end": 300,
      "ex": 301,
      "et": 302,
      "str": 303,
      "co": 304,
      "ong": 305,
      "ard": 306,
      "gy": 307,
      "man": 308,
      "one": 309,
      "not": 310,
      "und": 311,
      "which": 312,
      "ck": 313,
      "tw": 314,
      "their": 315,
      "ition": 316,
      "ord": 317,
      "low": 318,
      "ans": 319,
      "had": 320,
      "ma": 321,
      "ish": 322,
      "form": 323,
      "ment": 324,
      "up": 325,
      "ary": 326,
      "but": 327,
      "out": 328,
      "Ch": 329,
      "Egy": 330,
      "ve": 331,
      "ign": 332,
      "18": 333,
      "port": 334,
      "Egypt": 335,
      "play": 336,
      "ship": 337,
      "op": 338,
      "aft": 339,
      "ass": 340,
      "ould": 341,
      "other": 342,
      "cre": 343,
      "res": 344,
      "comm": 345,
      "ge": 346,
      "its": 347,
      "ations": 348,
      "ill": 349,
      "ally": 350,
      "Ar": 351,
      "les": 352,
      "mor": 353,
      "ous": 354,
      "ight": 355,
      "20": 356,
      "our": 357,
      "des": 358,
      "over": 359,
      "ber": 360,
      "du": 361,
      "me": 362,
      "ach": 363,
      "St": 364,
      "ph": 365,
      "ory": 366,
      "ave": 367,
      "gr": 368,
      "ide": 369,
      "att": 370,
      "pos": 371,
      "ome": 372,
      "fir": 373,
      "rit": 374,
      "off": 375,
      "deities": 376,
      "old": 377,
      "Egyptian": 378,
      "ser": 379,
      "who": 380,
      "He": 381,
      "iz": 382,
      "ast": 383,
      "ough": 384,
      "part": 385,
      "int": 386,
      "tim": 387,
      "game": 388,
      "ied": 389,
      "ild": 390,
      "craft": 391,
      "ib": 392,
      "ll": 393,
      "GA": 394,
      "also": 395,
      "ak": 396,
      "au": 397,
      "she": 398,
      "Th": 399,
      "aw": 400,
      "ings": 401,
      "ound": 402,
      "pre": 403,
      "inc": 404,
      "has": 405,
      "spe": 406,
      "year": 407,
      "cl": 408,
      "ark": 409,
      "ions": 410,
      "ason": 411,
      "cont": 412,
      "own": 413,
      "first": 414,
      "bo": 415,
      "have": 416,
      "ire": 417,
      "oc": 418,
      "ted": 419,
      "reg": 420,
      "pres": 421,
      "aircraft": 422,
      "ty": 423,
      "ved": 424,
      "rel": 425,
      "two": 426,
      "ten": 427,
      "this": 428,
      "div": 429,
      "main": 430,
      "ile": 431,
      "It": 432,
      "fr": 433,
      "ky": 434,
      "uring": 435,
      "work": 436,
      "ev": 437,
      "fe": 438,
      "ning": 439,
      "ure": 440,
      "ames": 441,
      "Ro": 442,
      "dis": 443,
      "gro": 444,
      "ace": 445,
      "bu": 446,
      "cord": 447,
      "ious": 448,
      "them": 449,
      "more": 450,
      "201": 451,
      "fer": 452,
      "no": 453,
      "ust": 454,
      "ance": 455,
      "Un": 456,
      "they": 457,
      "ree": 458,
      "ull": 459,
      "II": 460,
      "char": 461,
      "team": 462,
      "time": 463,
      "present": 464,
      "lar": 465,
      "ok": 466,
      "ater": 467,
      "itt": 468,
      "ational": 469,
      "fin": 470,
      "oper": 471,
      "ence": 472,
      "able": 473,
      "An": 474,
      "cent": 475,
      "though": 476,
      "als": 477,
      "age": 478,
      "after": 479,
      "br": 480,
      "ced": 481,
      "cess": 482,
      "ob": 483,
      "sp": 484,
      "She": 485,
      "li": 486,
      "tur": 487,
      "ple": 488,
      "ub": 489,
      "ular": 490,
      "lay": 491,
      "mon": 492,
      "ron": 493,
      "into": 494,
      "inter": 495,
      "ern": 496,
      "ents": 497,
      "ult": 498,
      "most": 499,
      "Re": 500,
      "wer": 501,
      "200": 502,
      "Val": 503,
      "car": 504,
      "iation": 505,
      "ugh": 506,
      "thro": 507,
      "fore": 508,
      "could": 509,
      "lic": 510,
      "iss": 511,
      "ick": 512,
      "inclu": 513,
      "ittle": 514,
      "some": 515,
      "way": 516,
      "than": 517,
      "eng": 518,
      "ited": 519,
      "umb": 520,
      "my": 521,
      "sen": 522,
      "ind": 523,
      "season": 524,
      "spec": 525,
      "can": 526,
      "only": 527,
      "ased": 528,
      "been": 529,
      "ters": 530,
      "ction": 531,
      "Valky": 532,
      "gl": 533,
      "go": 534,
      "lack": 535,
      "ue": 536,
      "these": 537,
      "ical": 538,
      "ung": 539,
      "cons": 540,
      "Col": 541,
      "four": 542,
      "red": 543,
      "cted": 544,
      "ell": 545,
      "new": 546,
      "Valkyr": 547,
      "sing": 548,
      "ors": 549,
      "ific": 550,
      "Ne": 551,
      "ade": 552,
      "dr": 553,
      "ann": 554,
      "ite": 555,
      "during": 556,
      "hum": 557,
      "ix": 558,
      "Valkyria": 559,
      "Little": 560,
      "bum": 561,
      "cal": 562,
      "ener": 563,
      "album": 564,
      "being": 565,
      "serv": 566,
      "aer": 567,
      "cor": 568,
      "een": 569,
      "tain": 570,
      "ates": 571,
      "outh": 572,
      "when": 573,
      "charac": 574,
      "through": 575,
      "ped": 576,
      "par": 577,
      "used": 578,
      "many": 579,
      "under": 580,
      "divine": 581,
      "Rock": 582,
      "Am": 583,
      "At": 584,
      "came": 585,
      "light": 586,
      "sy": 587,
      "ton": 588,
      "would": 589,
      "ise": 590,
      "bel": 591,
      "such": 592,
      "As": 593,
      "Blu": 594,
      "ces": 595,
      "clo": 596,
      "ever": 597,
      "min": 598,
      "ran": 599,
      "ating": 600,
      "arker": 601,
      "Jac": 602,
      "Wh": 603,
      "oh": 604,
      "cond": 605,
      "199": 606,
      "soc": 607,
      "ta": 608,
      "record": 609,
      "represent": 610,
      "ice": 611,
      "ict": 612,
      "sel": 613,
      "15": 614,
      "Cull": 615,
      "HL": 616,
      "ez": 617,
      "any": 618,
      "ase": 619,
      "trans": 620,
      "kets": 621,
      "like": 622,
      "Cullen": 623,
      "Barker": 624,
      "King": 625,
      "fly": 626,
      "pers": 627,
      "sm": 628,
      "sis": 629,
      "ins": 630,
      "appe": 631,
      "made": 632,
      "ished": 633,
      "turn": 634,
      "Se": 635,
      "call": 636,
      "gan": 637,
      "gun": 638,
      "je": 639,
      "betw": 640,
      "ards": 641,
      "velo": 642,
      "Columb": 643,
      "Blue": 644,
      "between": 645,
      "aid": 646,
      "bro": 647,
      "ily": 648,
      "ered": 649,
      "ask": 650,
      "icles": 651,
      "dep": 652,
      "odrom": 653,
      "world": 654,
      "design": 655,
      "ilding": 656,
      "senal": 657,
      "Jackets": 658,
      "CA": 659,
      "Fern": 660,
      "UK": 661,
      "cial": 662,
      "dom": 663,
      "dif": 664,
      "him": 665,
      "national": 666,
      "sign": 667,
      "tem": 668,
      "we": 669,
      "war": 670,
      "andez": 671,
      "round": 672,
      "ollow": 673,
      "while": 674,
      "stru": 675,
      "ized": 676,
      "includ": 677,
      "belie": 678,
      "Fernandez": 679,
      "giv": 680,
      "iel": 681,
      "ms": 682,
      "ren": 683,
      "ss": 684,
      "there": 685,
      "develo": 686,
      "before": 687,
      "about": 688,
      "000": 689,
      "De": 690,
      "ah": 691,
      "gold": 692,
      "ho": 693,
      "pil": 694,
      "sur": 695,
      "well": 696,
      "reat": 697,
      "where": 698,
      "sup": 699,
      "186": 700,
      "relig": 701,
      "day": 702,
      "oth": 703,
      "uit": 704,
      "use": 705,
      "uary": 706,
      "three": 707,
      "orig": 708,
      "remain": 709,
      "again": 710,
      "istic": 711,
      "Chron": 712,
      "ships": 713,
      "small": 714,
      "appear": 715,
      "Columbus": 716,
      "Chronicles": 717,
      "back": 718,
      "games": 719,
      "mil": 720,
      "ov": 721,
      "ons": 722,
      "ised": 723,
      "iew": 724,
      "played": 725,
      "both": 726,
      "layer": 727,
      "Au": 728,
      "Be": 729,
      "NHL": 730,
      "cer": 731,
      "do": 732,
      "long": 733,
      "ese": 734,
      "ived": 735,
      "cept": 736,
      "ember": 737,
      "partic": 738,
      "class": 739,
      "operations": 740,
      "aerodrom": 741,
      "character": 742,
      "origin": 743,
      "Black": 744,
      "col": 745,
      "kn": 746,
      "land": 747,
      "ud": 748,
      "ang": 749,
      "omen": 750,
      "trad": 751,
      "avy": 752,
      "aph": 753,
      "produ": 754,
      "human": 755,
      "All": 756,
      "This": 757,
      "dol": 758,
      "follow": 759,
      "high": 760,
      "led": 761,
      "num": 762,
      "same": 763,
      "rele": 764,
      "ilt": 765,
      "activ": 766,
      "Ark": 767,
      "contin": 768,
      "called": 769,
      "dollar": 770,
      "Brit": 771,
      "Joh": 772,
      "Ma": 773,
      "coun": 774,
      "med": 775,
      "ots": 776,
      "pub": 777,
      "writ": 778,
      "thor": 779,
      "inv": 780,
      "inch": 781,
      "ort": 782,
      "lev": 783,
      "second": 784,
      "iver": 785,
      "ples": 786,
      "ctor": 787,
      "192": 788,
      "order": 789,
      "descr": 790,
      "There": 791,
      "Le": 792,
      "ail": 793,
      "bod": 794,
      "ative": 795,
      "atory": 796,
      "stand": 797,
      "start": 798,
      "cho": 799,
      "power": 800,
      "198": 801,
      "ife": 802,
      "Kingdom": 803,
      "person": 804,
      "Slayer": 805,
      "fl": 806,
      "fic": 807,
      "io": 808,
      "song": 809,
      "said": 810,
      "view": 811,
      "roy": 812,
      "sub": 813,
      "offic": 814,
      "ield": 815,
      "Blackie": 816,
      "number": 817,
      "10": 818,
      "cur": 819,
      "each": 820,
      "field": 821,
      "gener": 822,
      "hist": 823,
      "og": 824,
      "ry": 825,
      "ray": 826,
      "ercial": 827,
      "atur": 828,
      "ens": 829,
      "ism": 830,
      "ision": 831,
      "reak": 832,
      "deity": 833,
      "became": 834,
      "They": 835,
      "import": 836,
      "contr": 837,
      "peri": 838,
      "lower": 839,
      "overn": 840,
      "built": 841,
      "12": 842,
      "Con": 843,
      "Fair": 844,
      "South": 845,
      "Wor": 846,
      "War": 847,
      "batt": 848,
      "cts": 849,
      "down": 850,
      "king": 851,
      "line": 852,
      "later": 853,
      "pur": 854,
      "ri": 855,
      "ints": 856,
      "atic": 857,
      "although": 858,
      "ash": 859,
      "rece": 860,
      "ivil": 861,
      "add": 862,
      "place": 863,
      "crit": 864,
      "iety": 865,
      "prov": 866,
      "early": 867,
      "ended": 868,
      "ments": 869,
      "self": 870,
      "against": 871,
      "Arkans": 872,
      "John": 873,
      "Air": 874,
      "ble": 875,
      "ef": 876,
      "less": 877,
      "lished": 878,
      "miss": 879,
      "pat": 880,
      "ually": 881,
      "ator": 882,
      "ature": 883,
      "along": 884,
      "often": 885,
      "lock": 886,
      "try": 887,
      "aven": 888,
      "suc": 889,
      "Egyptians": 890,
      "prev": 891,
      "years": 892,
      "New": 893,
      "including": 894,
      "British": 895,
      "Arkansas": 896,
      "13": 897,
      "17": 898,
      "Al": 899,
      "On": 900,
      "bon": 901,
      "ep": 902,
      "found": 903,
      "jor": 904,
      "lant": 905,
      "ny": 906,
      "ost": 907,
      "scor": 908,
      "issu": 909,
      "requ": 910,
      "ired": 911,
      "sever": 912,
      "tern": 913,
      "track": 914,
      "plan": 915,
      "plac": 916,
      "points": 917,
      "ified": 918,
      "ports": 919,
      "contro": 920,
      "myth": 921,
      "glid": 922,
      "Atlant": 923,
      "flying": 924,
      "develop": 925,
      "Af": 926,
      "Hung": 927,
      "den": 928,
      "did": 929,
      "dess": 930,
      "just": 931,
      "os": 932,
      "ven": 933,
      "ined": 934,
      "arian": 935,
      "lead": 936,
      "ivate": 937,
      "ctive": 938,
      "goddess": 939,
      "aged": 940,
      "ower": 941,
      "owever": 942,
      "lub": 943,
      "regul": 944,
      "particular": 945,
      "Com": 946,
      "En": 947,
      "Hor": 948,
      "Ra": 949,
      "ather": 950,
      "dre": 951,
      "fam": 952,
      "ful": 953,
      "hip": 954,
      "oot": 955,
      "tro": 956,
      "win": 957,
      "then": 958,
      "around": 959,
      "itary": 960,
      "amp": 961,
      "set": 962,
      "becom": 963,
      "log": 964,
      "comple": 965,
      "key": 966,
      "ights": 967,
      "commercial": 968,
      "graph": 969,
      "United": 970,
      "single": 971,
      "differ": 972,
      "following": 973,
      "describ": 974,
      "success": 975,
      "several": 976,
      "Atlanta": 977,
      "After": 978,
      "Nov": 979,
      "Tower": 980,
      "Zr": 981,
      "ath": 982,
      "cau": 983,
      "der": 984,
      "lim": 985,
      "may": 986,
      "mem": 987,
      "prom": 988,
      "uch": 989,
      "ince": 990,
      "incre": 991,
      "ank": 992,
      "eder": 993,
      "real": 994,
      "tower": 995,
      "state": 996,
      "amb": 997,
      "usic": 998,
      "pop": 999,
      "isted": 1000,
      "itions": 1001,
      "formed": 1002,
      "Chr": 1003,
      "ible": 1004,
      "These": 1005,
      "grow": 1006,
      "building": 1007,
      "important": 1008,
      "Bu": 1009,
      "Fe": 1010,
      "Navy": 1011,
      "ball": 1012,
      "ci": 1013,
      "care": 1014,
      "don": 1015,
      "ele": 1016,
      "ft": 1017,
      "fle": 1018,
      "flu": 1019,
      "life": 1020,
      "name": 1021,
      "women": 1022,
      "íny": 1023,
      "iness": 1024,
      "role": 1025,
      "began": 1026,
      "child": 1027,
      "within": 1028,
      "train": 1029,
      "conne": 1030,
      "ages": 1031,
      "ople": 1032,
      "resp": 1033,
      "posed": 1034,
      "Ital": 1035,
      "even": 1036,
      "III": 1037,
      "observ": 1038,
      "pilots": 1039,
      "aerodromes": 1040,
      "continu": 1041,
      "previous": 1042,
      "development": 1043,
      "Hungarian": 1044,
      "Zríny": 1045,
      "Zrínyi": 1046,
      "Aust": 1047,
      "Flower": 1048,
      "May": 1049,
      "cy": 1050,
      "ier": 1051,
      "ibut": 1052,
      "la": 1053,
      "nam": 1054,
      "ose": 1055,
      "sk": 1056,
      "ves": 1057,
      "wo": 1058,
      "inst": 1059,
      "orth": 1060,
      "arr": 1061,
      "arch": 1062,
      "ional": 1063,
      "stem": 1064,
      "ility": 1065,
      "aviation": 1066,
      "pet": 1067,
      "comb": 1068,
      "194": 1069,
      "isting": 1070,
      "open": 1071,
      "Arsenal": 1072,
      "Heaven": 1073,
      "ways": 1074,
      "sociation": 1075,
      "transport": 1076,
      "CAA": 1077,
      "given": 1078,
      "support": 1079,
      "military": 1080,
      "history": 1081,
      "received": 1082,
      "described": 1083,
      "November": 1084,
      "Austro": 1085,
      "For": 1086,
      "Ge": 1087,
      "Sh": 1088,
      "bur": 1089,
      "dire": 1090,
      "equ": 1091,
      "fung": 1092,
      "gu": 1093,
      "gre": 1094,
      "ior": 1095,
      "live": 1096,
      "last": 1097,
      "son": 1098,
      "ual": 1099,
      "uals": 1100,
      "ines": 1101,
      "anim": 1102,
      "aria": 1103,
      "allow": 1104,
      "return": 1105,
      "took": 1106,
      "hel": 1107,
      "ouse": 1108,
      "ford": 1109,
      "iron": 1110,
      "press": 1111,
      "command": 1112,
      "series": 1113,
      "ize": 1114,
      "2011": 1115,
      "species": 1116,
      "goal": 1117,
      "consid": 1118,
      "guns": 1119,
      "believed": 1120,
      "original": 1121,
      "critic": 1122,
      "Christ": 1123,
      "50": 1124,
      "Er": 1125,
      "fil": 1126,
      "foot": 1127,
      "feder": 1128,
      "gg": 1129,
      "mask": 1130,
      "now": 1131,
      "pan": 1132,
      "zher": 1133,
      "zog": 1134,
      "erg": 1135,
      "anch": 1136,
      "another": 1137,
      "ale": 1138,
      "head": 1139,
      "oman": 1140,
      "local": 1141,
      "olved": 1142,
      "tra": 1143,
      "ement": 1144,
      "point": 1145,
      "193": 1146,
      "estab": 1147,
      "tex": 1148,
      "major": 1149,
      "player": 1150,
      "away": 1151,
      "cording": 1152,
      "Amun": 1153,
      "system": 1154,
      "temples": 1155,
      "known": 1156,
      "level": 1157,
      "Fairies": 1158,
      "family": 1159,
      "cause": 1160,
      "career": 1161,
      "Erzher": 1162,
      "Erzherzog": 1163,
      "Ed": 1164,
      "Gamb": 1165,
      "Some": 1166,
      "cap": 1167,
      "cup": 1168,
      "fire": 1169,
      "ger": 1170,
      "jo": 1171,
      "ks": 1172,
      "mm": 1173,
      "men": 1174,
      "mun": 1175,
      "pair": 1176,
      "sed": 1177,
      "var": 1178,
      "ying": 1179,
      "influ": 1180,
      "eric": 1181,
      "orn": 1182,
      "arsenal": 1183,
      "top": 1184,
      "tow": 1185,
      "deal": 1186,
      "ird": 1187,
      "ives": 1188,
      "imes": 1189,
      "ague": 1190,
      "abor": 1191,
      "near": 1192,
      "action": 1193,
      "exp": 1194,
      "cover": 1195,
      "ops": 1196,
      "due": 1197,
      "position": 1198,
      "ground": 1199,
      "group": 1200,
      "large": 1201,
      "bruary": 1202,
      "space": 1203,
      "Americ": 1204,
      "religion": 1205,
      "religious": 1206,
      "activities": 1207,
      "bodies": 1208,
      "period": 1209,
      "different": 1210,
      "February": 1211,
      "11": 1212,
      "24": 1213,
      "Ad": 1214,
      "Av": 1215,
      "But": 1216,
      "Light": 1217,
      "Pr": 1218,
      "SA": 1219,
      "az": 1220,
      "aised": 1221,
      "band": 1222,
      "bers": 1223,
      "based": 1224,
      "break": 1225,
      "ca": 1226,
      "cus": 1227,
      "civil": 1228,
      "dest": 1229,
      "fun": 1230,
      "fel": 1231,
      "govern": 1232,
      "much": 1233,
      "pass": 1234,
      "side": 1235,
      "til": 1236,
      "tend": 1237,
      "third": 1238,
      "ination": 1239,
      "ars": 1240,
      "ices": 1241,
      "ross": 1242,
      "stat": 1243,
      "stated": 1244,
      "outs": 1245,
      "ently": 1246,
      "une": 1247,
      "loc": 1248,
      "trade": 1249,
      "umm": 1250,
      "using": 1251,
      "ided": 1252,
      "ute": 1253,
      "Ind": 1254,
      "make": 1255,
      "forms": 1256,
      "author": 1257,
      "carbon": 1258,
      "While": 1259,
      "tradition": 1260,
      "Max": 1261,
      "public": 1262,
      "official": 1263,
      "World": 1264,
      "members": 1265,
      "Italian": 1266,
      "Gambia": 1267,
      "16": 1268,
      "Bo": 1269,
      "Br": 1270,
      "Co": 1271,
      "Can": 1272,
      "Car": 1273,
      "Cal": 1274,
      "Her": 1275,
      "Sen": 1276,
      "foc": 1277,
      "hal": 1278,
      "hand": 1279,
      "hold": 1280,
      "labor": 1281,
      "names": 1282,
      "six": 1283,
      "those": 1284,
      "ink": 1285,
      "ont": 1286,
      "icro": 1287,
      "stud": 1288,
      "omb": 1289,
      "until": 1290,
      "chan": 1291,
      "ched": 1292,
      "ither": 1293,
      "ury": 1294,
      "tribut": 1295,
      "empt": 1296,
      "common": 1297,
      "phy": 1298,
      "events": 1299,
      "Union": 1300,
      "humans": 1301,
      "take": 1302,
      "Austr": 1303,
      "contract": 1304,
      "Building": 1305,
      "training": 1306,
      "maskray": 1307,
      "carbonaria": 1308,
      "22": 1309,
      "88": 1310,
      "During": 1311,
      "Eu": 1312,
      "Fer": 1313,
      "Jan": 1314,
      "James": 1315,
      "MS": 1316,
      "Pe": 1317,
      "Tr": 1318,
      "We": 1319,
      "cul": 1320,
      "din": 1321,
      "fac": 1322,
      "flo": 1323,
      "full": 1324,
      "hy": 1325,
      "hour": 1326,
      "mb": 1327,
      "ner": 1328,
      "pen": 1329,
      "pound": 1330,
      "ried": 1331,
      "sit": 1332,
      "sent": 1333,
      "atter": 1334,
      "armor": 1335,
      "review": 1336,
      "row": 1337,
      "del": 1338,
      "beh": 1339,
      "cha": 1340,
      "ctions": 1341,
      "prof": 1342,
      "need": 1343,
      "worship": 1344,
      "mother": 1345,
      "quad": 1346,
      "ached": 1347,
      "States": 1348,
      "lled": 1349,
      "ockey": 1350,
      "fruit": 1351,
      "include": 1352,
      "represented": 1353,
      "sister": 1354,
      "designed": 1355,
      "belief": 1356,
      "appeared": 1357,
      "released": 1358,
      "chool": 1359,
      "placed": 1360,
      "Horus": 1361,
      "troops": 1362,
      "limited": 1363,
      "popular": 1364,
      "continued": 1365,
      "named": 1366,
      "considered": 1367,
      "film": 1368,
      "Aviation": 1369,
      "Euro": 1370,
      "Ferdin": 1371,
      "Ferdinand": 1372,
      "0s": 1373,
      "23": 1374,
      "Des": 1375,
      "Per": 1376,
      "SMS": 1377,
      "US": 1378,
      "block": 1379,
      "cas": 1380,
      "fact": 1381,
      "km": 1382,
      "met": 1383,
      "mark": 1384,
      "mult": 1385,
      "music": 1386,
      "nature": 1387,
      "som": 1388,
      "sun": 1389,
      "since": 1390,
      "tit": 1391,
      "vers": 1392,
      "ward": 1393,
      "theme": 1394,
      "ore": 1395,
      "ense": 1396,
      "ara": 1397,
      "ales": 1398,
      "ists": 1399,
      "fort": 1400,
      "force": 1401,
      "def": 1402,
      "death": 1403,
      "sequ": 1404,
      "people": 1405,
      "comp": 1406,
      "compet": 1407,
      "ident": 1408,
      "post": 1409,
      "private": 1410,
      "appro": 1411,
      "sugg": 1412,
      "estim": 1413,
      "prote": 1414,
      "qual": 1415,
      "etimes": 1416,
      "coin": 1417,
      "maat": 1418,
      "184": 1419,
      "creation": 1420,
      "gress": 1421,
      "attempt": 1422,
      "franch": 1423,
      "month": 1424,
      "ission": 1425,
      "specific": 1426,
      "draft": 1427,
      "Association": 1428,
      "diffic": 1429,
      "others": 1430,
      "addition": 1431,
      "fungus": 1432,
      "texts": 1433,
      "American": 1434,
      "ombard": 1435,
      "franchise": 1436,
      "14": 1437,
      "Care": 1438,
      "Gener": 1439,
      "Ha": 1440,
      "However": 1441,
      "Isis": 1442,
      "June": 1443,
      "Most": 1444,
      "National": 1445,
      "Po": 1446,
      "Ser": 1447,
      "With": 1448,
      "bas": 1449,
      "bus": 1450,
      "best": 1451,
      "city": 1452,
      "cult": 1453,
      "dist": 1454,
      "fur": 1455,
      "five": 1456,
      "free": 1457,
      "great": 1458,
      "home": 1459,
      "lit": 1460,
      "late": 1461,
      "mit": 1462,
      "mod": 1463,
      "mill": 1464,
      "ns": 1465,
      "oto": 1466,
      "pite": 1467,
      "rif": 1468,
      "sim": 1469,
      "sold": 1470,
      "ting": 1471,
      "tak": 1472,
      "vis": 1473,
      "instr": 1474,
      "ances": 1475,
      "arl": 1476,
      "ister": 1477,
      "road": 1478,
      "ste": 1479,
      "story": 1480,
      "leg": 1481,
      "beg": 1482,
      "loy": 1483,
      "logy": 1484,
      "loss": 1485,
      "aving": 1486,
      "cting": 1487,
      "pred": 1488,
      "196": 1489,
      "shot": 1490,
      "airspace": 1491,
      "ipt": 1492,
      "ately": 1493,
      "cru": 1494,
      "mov": 1495,
      "moved": 1496,
      "cret": 1497,
      "dustr": 1498,
      "ideo": 1499,
      "rituals": 1500,
      "ought": 1501,
      "intro": 1502,
      "times": 1503,
      "feet": 1504,
      "featur": 1505,
      "2012": 1506,
      "carried": 1507,
      "ixed": 1508,
      "characters": 1509,
      "throughout": 1510,
      "When": 1511,
      "signed": 1512,
      "signific": 1513,
      "useum": 1514,
      "remained": 1515,
      "produced": 1516,
      "battle": 1517,
      "Although": 1518,
      "required": 1519,
      "leading": 1520,
      "cient": 1521,
      "respon": 1522,
      "football": 1523,
      "established": 1524,
      "outside": 1525,
      "half": 1526,
      "General": 1527,
      "instrum": 1528,
      "Croy": 1529,
      "Club": 1530,
      "Ex": 1531,
      "FA": 1532,
      "Gall": 1533,
      "Nash": 1534,
      "Os": 1535,
      "Play": 1536,
      "Rich": 1537,
      "River": 1538,
      "Roman": 1539,
      "Su": 1540,
      "Sav": 1541,
      "Way": 1542,
      "cm": 1543,
      "flight": 1544,
      "father": 1545,
      "hap": 1546,
      "ik": 1547,
      "ken": 1548,
      "micro": 1549,
      "ned": 1550,
      "nav": 1551,
      "nance": 1552,
      "ove": 1553,
      "pain": 1554,
      "south": 1555,
      "uins": 1556,
      "xt": 1557,
      "thing": 1558,
      "inj": 1559,
      "init": 1560,
      "ones": 1561,
      "arm": 1562,
      "itive": 1563,
      "roles": 1564,
      "still": 1565,
      "held": 1566,
      "let": 1567,
      "dec": 1568,
      "ential": 1569,
      "sector": 1570,
      "term": 1571,
      "condu": 1572,
      "emp": 1573,
      "prim": 1574,
      "airfield": 1575,
      "airports": 1576,
      "suf": 1577,
      "never": 1578,
      "next": 1579,
      "lustr": 1580,
      "arded": 1581,
      "restr": 1582,
      "result": 1583,
      "commun": 1584,
      "commission": 1585,
      "leship": 1586,
      "offer": 1587,
      "noise": 1588,
      "final": 1589,
      "close": 1590,
      "recorded": 1591,
      "CAT": 1592,
      "weap": 1593,
      "struck": 1594,
      "giving": 1595,
      "pilot": 1596,
      "surround": 1597,
      "istics": 1598,
      "release": 1599,
      "written": 1600,
      "involved": 1601,
      "Confeder": 1602,
      "control": 1603,
      "drew": 1604,
      "growth": 1605,
      "elements": 1606,
      "returned": 1607,
      "Christian": 1608,
      "felt": 1609,
      "India": 1610,
      "Book": 1611,
      "January": 1612,
      "Europe": 1613,
      "suggest": 1614,
      "Carey": 1615,
      "dustry": 1616,
      "Croydon": 1617,
      "conducted": 1618,
      "ASA": 1619,
      "Dr": 1620,
      "EASA": 1621,
      "Got": 1622,
      "Kh": 1623,
      "Mc": 1624,
      "Mint": 1625,
      "Nam": 1626,
      "North": 1627,
      "Peng": 1628,
      "San": 1629,
      "To": 1630,
      "ai": 1631,
      "ben": 1632,
      "bill": 1633,
      "cir": 1634,
      "cour": 1635,
      "club": 1636,
      "di": 1637,
      "ded": 1638,
      "get": 1639,
      "gust": 1640,
      "mar": 1641,
      "ply": 1642,
      "put": 1643,
      "pick": 1644,
      "say": 1645,
      "smo": 1646,
      "sky": 1647,
      "industry": 1648,
      "organ": 1649,
      "atters": 1650,
      "refer": 1651,
      "ics": 1652,
      "ically": 1653,
      "across": 1654,
      "ley": 1655,
      "forman": 1656,
      "dev": 1657,
      "defin": 1658,
      "demon": 1659,
      "ilar": 1660,
      "ilver": 1661,
      "ilities": 1662,
      "illustr": 1663,
      "chang": 1664,
      "adv": 1665,
      "images": 1666,
      "plain": 1667,
      "avail": 1668,
      "come": 1669,
      "praised": 1670,
      "eless": 1671,
      "area": 1672,
      "iple": 1673,
      "performan": 1674,
      "ending": 1675,
      "ext": 1676,
      "exam": 1677,
      "strong": 1678,
      "cope": 1679,
      "former": 1680,
      "Char": 1681,
      "Child": 1682,
      "players": 1683,
      "works": 1684,
      "2013": 1685,
      "operation": 1686,
      "umbers": 1687,
      "indic": 1688,
      "goals": 1689,
      "range": 1690,
      "temple": 1691,
      "included": 1692,
      "developed": 1693,
      "August": 1694,
      "certain": 1695,
      "aerodrome": 1696,
      "country": 1697,
      "published": 1698,
      "inches": 1699,
      "started": 1700,
      "general": 1701,
      "battleship": 1702,
      "increas": 1703,
      "help": 1704,
      "Lightning": 1705,
      "sometimes": 1706,
      "business": 1707,
      "introdu": 1708,
      "significant": 1709,
      "21": 1710,
      "Ac": 1711,
      "Aer": 1712,
      "Batt": 1713,
      "Mac": 1714,
      "Of": 1715,
      "Or": 1716,
      "Pil": 1717,
      "Sc": 1718,
      "Soc": 1719,
      "Yor": 1720,
      "black": 1721,
      "cing": 1722,
      "che": 1723,
      "clu": 1724,
      "dam": 1725,
      "either": 1726,
      "fem": 1727,
      "hab": 1728,
      "however": 1729,
      "kh": 1730,
      "kings": 1731,
      "list": 1732,
      "nor": 1733,
      "numbers": 1734,
      "pol": 1735,
      "run": 1736,
      "rest": 1737,
      "sion": 1738,
      "school": 1739,
      "wide": 1740,
      "youn": 1741,
      "once": 1742,
      "aspe": 1743,
      "ingal": 1744,
      "ingly": 1745,
      "tom": 1746,
      "icted": 1747,
      "according": 1748,
      "forces": 1749,
      "iris": 1750,
      "ention": 1751,
      "among": 1752,
      "seven": 1753,
      "chol": 1754,
      "terms": 1755,
      "ime": 1756,
      "without": 1757,
      "tres": 1758,
      "aver": 1759,
      "pel": 1760,
      "ides": 1761,
      "idge": 1762,
      "idence": 1763,
      "poly": 1764,
      "1920": 1765,
      "ained": 1766,
      "ifest": 1767,
      "ips": 1768,
      "aff": 1769,
      "performed": 1770,
      "ney": 1771,
      "Inter": 1772,
      "actions": 1773,
      "ends": 1774,
      "opy": 1775,
      "creator": 1776,
      "phara": 1777,
      "attack": 1778,
      "poss": 1779,
      "served": 1780,
      "relation": 1781,
      "maintain": 1782,
      "build": 1783,
      "2010": 1784,
      "larger": 1785,
      "obje": 1786,
      "spir": 1787,
      "Reg": 1788,
      "2006": 1789,
      "draw": 1790,
      "annah": 1791,
      "syn": 1792,
      "closed": 1793,
      "selves": 1794,
      "host": 1795,
      "originally": 1796,
      "know": 1797,
      "personal": 1798,
      "flights": 1799,
      "purch": 1800,
      "scoring": 1801,
      "issue": 1802,
      "planning": 1803,
      "Engl": 1804,
      "fully": 1805,
      "become": 1806,
      "fleet": 1807,
      "children": 1808,
      "observatory": 1809,
      "wood": 1810,
      "allowed": 1811,
      "located": 1812,
      "focus": 1813,
      "change": 1814,
      "behind": 1815,
      "further": 1816,
      "begin": 1817,
      "Osiris": 1818,
      "Savannah": 1819,
      "airfields": 1820,
      "suffer": 1821,
      "Nameless": 1822,
      "Penguins": 1823,
      "performance": 1824,
      "Society": 1825,
      "York": 1826,
      "young": 1827,
      "100": 1828,
      "25": 1829,
      "28": 1830,
      "Aten": 1831,
      "BC": 1832,
      "By": 1833,
      "Civil": 1834,
      "Fingal": 1835,
      "Govern": 1836,
      "Hist": 1837,
      "Hockey": 1838,
      "Jap": 1839,
      "Long": 1840,
      "Lank": 1841,
      "Par": 1842,
      "Sri": 1843,
      "Two": 1844,
      "aim": 1845,
      "ake": 1846,
      "cle": 1847,
      "fal": 1848,
      "gen": 1849,
      "haw": 1850,
      "iers": 1851,
      "lives": 1852,
      "mand": 1853,
      "mid": 1854,
      "ness": 1855,
      "pes": 1856,
      "ru": 1857,
      "rend": 1858,
      "sc": 1859,
      "slow": 1860,
      "size": 1861,
      "tal": 1862,
      "wing": 1863,
      "thr": 1864,
      "thur": 1865,
      "things": 1866,
      "inations": 1867,
      "thet": 1868,
      "aning": 1869,
      "onom": 1870,
      "ats": 1871,
      "atch": 1872,
      "enced": 1873,
      "ences": 1874,
      "arms": 1875,
      "itors": 1876,
      "rev": 1877,
      "repair": 1878,
      "ster": 1879,
      "streak": 1880,
      "access": 1881,
      "accept": 1882,
      "enter": 1883,
      "sele": 1884,
      "ivers": 1885,
      "adn": 1886,
      "urch": 1887,
      "cona": 1888,
      "ulted": 1889,
      "ush": 1890,
      "pring": 1891,
      "pract": 1892,
      "195": 1893,
      "apt": 1894,
      "above": 1895,
      "cred": 1896,
      "ief": 1897,
      "tee": 1898,
      "process": 1899,
      "ively": 1900,
      "model": 1901,
      "anted": 1902,
      "que": 1903,
      "making": 1904,
      "playoff": 1905,
      "crew": 1906,
      "Arthur": 1907,
      "despite": 1908,
      "metres": 1909,
      "Station": 1910,
      "State": 1911,
      "poses": 1912,
      "shell": 1913,
      "pread": 1914,
      "speed": 1915,
      "clad": 1916,
      "book": 1917,
      "few": 1918,
      "themselves": 1919,
      "aterial": 1920,
      "Ancona": 1921,
      "thought": 1922,
      "international": 1923,
      "foreign": 1924,
      "ification": 1925,
      "symb": 1926,
      "clock": 1927,
      "every": 1928,
      "society": 1929,
      "ject": 1930,
      "1862": 1931,
      "uitar": 1932,
      "ception": 1933,
      "colle": 1934,
      "ledge": 1935,
      "iverse": 1936,
      "body": 1937,
      "standards": 1938,
      "songs": 1939,
      "purposes": 1940,
      "controlled": 1941,
      "ctively": 1942,
      "goddesses": 1943,
      "dreadn": 1944,
      "complex": 1945,
      "connected": 1946,
      "Geor": 1947,
      "various": 1948,
      "influence": 1949,
      "Private": 1950,
      "cussion": 1951,
      "destroy": 1952,
      "traditional": 1953,
      "hours": 1954,
      "difficult": 1955,
      "Sanford": 1956,
      "Japan": 1957,
      "symbol": 1958,
      "500": 1959,
      "Apr": 1960,
      "Blo": 1961,
      "Cro": 1962,
      "Cup": 1963,
      "Div": 1964,
      "FI": 1965,
      "Fred": 1966,
      "Fran": 1967,
      "Gre": 1968,
      "Greg": 1969,
      "How": 1970,
      "Is": 1971,
      "Its": 1972,
      "Lic": 1973,
      "Me": 1974,
      "Mason": 1975,
      "March": 1976,
      "Museum": 1977,
      "Pro": 1978,
      "Patters": 1979,
      "Sim": 1980,
      "Vatic": 1981,
      "ae": 1982,
      "ba": 1983,
      "da": 1984,
      "dle": 1985,
      "econ": 1986,
      "fav": 1987,
      "gn": 1988,
      "how": 1989,
      "house": 1990,
      "iate": 1991,
      "iated": 1992,
      "iber": 1993,
      "lph": 1994,
      "lights": 1995,
      "mag": 1996,
      "material": 1997,
      "nast": 1998,
      "oil": 1999,
      "rul": 2000,
      "rum": 2001,
      "rare": 2002,
      "saf": 2003,
      "squad": 2004,
      "voc": 2005,
      "video": 2006,
      "wa": 2007,
      "wall": 2008,
      "water": 2009,
      "xis": 2010,
      "xim": 2011,
      "yle": 2012,
      "theistic": 2013,
      "ories": 2014,
      "env": 2015,
      "allo": 2016,
      "always": 2017,
      "ret": 2018,
      "reason": 2019,
      "reached": 2020,
      "star": 2021,
      "staff": 2022,
      "acc": 2023,
      "debut": 2024,
      "decl": 2025,
      "irl": 2026,
      "seen": 2027,
      "separ": 2028,
      "urt": 2029,
      "tress": 2030,
      "ulation": 2031,
      "uses": 2032,
      "usually": 2033,
      "ote": 2034,
      "ements": 2035,
      "emerg": 2036,
      "197": 2037,
      "1918": 2038,
      "els": 2039,
      "show": 2040,
      "short": 2041,
      "ability": 2042,
      "pted": 2043,
      "move": 2044,
      "ially": 2045,
      "manifest": 2046,
      "noted": 2047,
      "ordnance": 2048,
      "189": 2049,
      "playing": 2050,
      "created": 2051,
      "creational": 2052,
      "overall": 2053,
      "Star": 2054,
      "positive": 2055,
      "gameplay": 2056,
      "augh": 2057,
      "types": 2058,
      "event": 2059,
      "disc": 2060,
      "distribut": 2061,
      "finally": 2062,
      "Andrew": 2063,
      "monitors": 2064,
      "Reign": 2065,
      "engine": 2066,
      "consisted": 2067,
      "adelph": 2068,
      "minor": 2069,
      "1998": 2070,
      "tail": 2071,
      "ictions": 2072,
      "transfer": 2073,
      "particip": 2074,
      "activity": 2075,
      "1923": 2076,
      "generally": 2077,
      "provided": 2078,
      "scored": 2079,
      "gliders": 2080,
      "particularly": 2081,
      "ampion": 2082,
      "graphy": 2083,
      "combined": 2084,
      "opening": 2085,
      "Geopy": 2086,
      "greater": 2087,
      "ironclad": 2088,
      "tender": 2089,
      "Carter": 2090,
      "profess": 2091,
      "competition": 2092,
      "estimated": 2093,
      "Pope": 2094,
      "million": 2095,
      "cruis": 2096,
      "naval": 2097,
      "commissioned": 2098,
      "surrounding": 2099,
      "Confederate": 2100,
      "available": 2101,
      "Battle": 2102,
      "cholars": 2103,
      "pharaoh": 2104,
      "April": 2105,
      "FIFA": 2106,
      "Patterson": 2107,
      "Vatican": 2108,
      "econom": 2109,
      "adelphia": 2110,
      "Geopyxis": 2111,
      "30": 2112,
      "45": 2113,
      "Bul": 2114,
      "Cap": 2115,
      "Each": 2116,
      "Gl": 2117,
      "Go": 2118,
      "His": 2119,
      "Im": 2120,
      "Kings": 2121,
      "Karl": 2122,
      "Med": 2123,
      "Miss": 2124,
      "Music": 2125,
      "Old": 2126,
      "Ph": 2127,
      "Pol": 2128,
      "Pres": 2129,
      "Sp": 2130,
      "Sy": 2131,
      "Tro": 2132,
      "Tot": 2133,
      "bes": 2134,
      "base": 2135,
      "bombard": 2136,
      "cards": 2137,
      "eas": 2138,
      "flow": 2139,
      "fans": 2140,
      "fixed": 2141,
      "ga": 2142,
      "ged": 2143,
      "gia": 2144,
      "hor": 2145,
      "kg": 2146,
      "little": 2147,
      "mer": 2148,
      "map": 2149,
      "nation": 2150,
      "olog": 2151,
      "ral": 2152,
      "ring": 2153,
      "sac": 2154,
      "scr": 2155,
      "silver": 2156,
      "tter": 2157,
      "uk": 2158,
      "uck": 2159,
      "ving": 2160,
      "won": 2161,
      "wro": 2162,
      "wife": 2163,
      "ynast": 2164,
      "threat": 2165,
      "indiv": 2166,
      "ery": 2167,
      "erick": 2168,
      "anced": 2169,
      "orian": 2170,
      "orpor": 2171,
      "ency": 2172,
      "armed": 2173,
      "aled": 2174,
      "asse": 2175,
      "read": 2176,
      "recreational": 2177,
      "too": 2178,
      "ica": 2179,
      "stant": 2180,
      "helic": 2181,
      "heavy": 2182,
      "acre": 2183,
      "acqu": 2184,
      "acles": 2185,
      "left": 2186,
      "deter": 2187,
      "uni": 2188,
      "cht": 2189,
      "load": 2190,
      "losing": 2191,
      "ured": 2192,
      "what": 2193,
      "constru": 2194,
      "iest": 2195,
      "ott": 2196,
      "eman": 2197,
      "essential": 2198,
      "poor": 2199,
      "prior": 2200,
      "vert": 2201,
      "aper": 2202,
      "shif": 2203,
      "abs": 2204,
      "ably": 2205,
      "necess": 2206,
      "ptember": 2207,
      "ket": 2208,
      "proposed": 2209,
      "word": 2210,
      "worth": 2211,
      "earth": 2212,
      "acting": 2213,
      "exist": 2214,
      "ety": 2215,
      "coal": 2216,
      "coach": 2217,
      "upon": 2218,
      "assign": 2219,
      "ills": 2220,
      "Art": 2221,
      "Army": 2222,
      "means": 2223,
      "meaning": 2224,
      "phic": 2225,
      "ibr": 2226,
      "incorpor": 2227,
      "claim": 2228,
      "occur": 2229,
      "region": 2230,
      "register": 2231,
      "fri": 2232,
      "worked": 2233,
      "themed": 2234,
      "lier": 2235,
      "turning": 2236,
      "mostly": 2237,
      "2007": 2238,
      "2008": 2239,
      "2009": 2240,
      "licens": 2241,
      "engaged": 2242,
      "special": 2243,
      "newly": 2244,
      "caliber": 2245,
      "services": 2246,
      "1990": 2247,
      "September": 2248,
      "depend": 2249,
      "himself": 2250,
      "appearance": 2251,
      "cert": 2252,
      "color": 2253,
      "continue": 2254,
      "League": 2255,
      "ailed": 2256,
      "officers": 2257,
      "Aircraft": 2258,
      "mission": 2259,
      "missions": 2260,
      "patron": 2261,
      "pattern": 2262,
      "myths": 2263,
      "glider": 2264,
      "gliding": 2265,
      "regulation": 2266,
      "respons": 2267,
      "equip": 2268,
      "goaltender": 2269,
      "nearly": 2270,
      "situ": 2271,
      "fruitbodies": 2272,
      "blockade": 2273,
      "company": 2274,
      "rifles": 2275,
      "similar": 2276,
      "PlayStation": 2277,
      "offerings": 2278,
      "weapons": 2279,
      "European": 2280,
      "Draft": 2281,
      "example": 2282,
      "battleships": 2283,
      "MacArthur": 2284,
      "Pilot": 2285,
      "beginning": 2286,
      "Longacre": 2287,
      "Blood": 2288,
      "Frederick": 2289,
      "favor": 2290,
      "rumors": 2291,
      "professional": 2292,
      "wrote": 2293,
      "individ": 2294,
      "helicop": 2295,
      "26": 2296,
      "38": 2297,
      "71": 2298,
      "80": 2299,
      "Bro": 2300,
      "Cl": 2301,
      "Du": 2302,
      "Dor": 2303,
      "Dun": 2304,
      "Ear": 2305,
      "Fr": 2306,
      "Fly": 2307,
      "God": 2308,
      "House": 2309,
      "Kay": 2310,
      "Man": 2311,
      "Mary": 2312,
      "Oc": 2313,
      "One": 2314,
      "Pl": 2315,
      "Pit": 2316,
      "Red": 2317,
      "Rick": 2318,
      "Sur": 2319,
      "Set": 2320,
      "Spring": 2321,
      "Te": 2322,
      "Tor": 2323,
      "Wal": 2324,
      "ael": 2325,
      "bb": 2326,
      "bor": 2327,
      "bir": 2328,
      "born": 2329,
      "dro": 2330,
      "ead": 2331,
      "fif": 2332,
      "fair": 2333,
      "give": 2334,
      "gave": 2335,
      "guitar": 2336,
      "hib": 2337,
      "having": 2338,
      "ked": 2339,
      "kind": 2340,
      "ling": 2341,
      "lif": 2342,
      "lish": 2343,
      "link": 2344,
      "mp": 2345,
      "mes": 2346,
      "mus": 2347,
      "mot": 2348,
      "might": 2349,
      "must": 2350,
      "na": 2351,
      "non": 2352,
      "nall": 2353,
      "north": 2354,
      "sl": 2355,
      "sat": 2356,
      "sol": 2357,
      "sthet": 2358,
      "tor": 2359,
      "tied": 2360,
      "ues": 2361,
      "ufact": 2362,
      "vict": 2363,
      "whe": 2364,
      "will": 2365,
      "ym": 2366,
      "Æsthet": 2367,
      "thus": 2368,
      "ina": 2369,
      "ancient": 2370,
      "oric": 2371,
      "orial": 2372,
      "ata": 2373,
      "estern": 2374,
      "ened": 2375,
      "arn": 2376,
      "ital": 2377,
      "itable": 2378,
      "reed": 2379,
      "reco": 2380,
      "refle": 2381,
      "ication": 2382,
      "route": 2383,
      "stage": 2384,
      "aces": 2385,
      "acing": 2386,
      "lyr": 2387,
      "depart": 2388,
      "entire": 2389,
      "ament": 2390,
      "amate": 2391,
      "ammun": 2392,
      "omination": 2393,
      "because": 2394,
      "ival": 2395,
      "iving": 2396,
      "units": 2397,
      "chance": 2398,
      "loch": 2399,
      "ado": 2400,
      "trav": 2401,
      "conc": 2402,
      "conce": 2403,
      "plied": 2404,
      "ership": 2405,
      "iding": 2406,
      "pray": 2407,
      "very": 2408,
      "190": 2409,
      "aped": 2410,
      "eles": 2411,
      "shaped": 2412,
      "ution": 2413,
      "ateg": 2414,
      "neg": 2415,
      "net": 2416,
      "ighter": 2417,
      "proble": 2418,
      "earlier": 2419,
      "express": 2420,
      "exclu": 2421,
      "coins": 2422,
      "manufact": 2423,
      "formal": 2424,
      "formation": 2425,
      "upper": 2426,
      "oppos": 2427,
      "respe": 2428,
      "resulted": 2429,
      "commit": 2430,
      "gether": 2431,
      "meet": 2432,
      "phen": 2433,
      "fired": 2434,
      "ibility": 2435,
      "That": 2436,
      "awa": 2437,
      "owned": 2438,
      "related": 2439,
      "front": 2440,
      "nington": 2441,
      "Roy": 2442,
      "2014": 2443,
      "spent": 2444,
      "Record": 2445,
      "ught": 2446,
      "throp": 2447,
      "cancer": 2448,
      "redu": 2449,
      "albums": 2450,
      "service": 2451,
      "parts": 2452,
      "turns": 2453,
      "turned": 2454,
      "Second": 2455,
      "broad": 2456,
      "brought": 2457,
      "aska": 2458,
      "depict": 2459,
      "depicted": 2460,
      "Dece": 2461,
      "1861": 2462,
      "days": 2463,
      "othy": 2464,
      "remaining": 2465,
      "miles": 2466,
      "characteristics": 2467,
      "collabor": 2468,
      "standing": 2469,
      "flint": 2470,
      "atural": 2471,
      "Fairy": 2472,
      "eff": 2473,
      "issued": 2474,
      "places": 2475,
      "completed": 2476,
      "observations": 2477,
      "instead": 2478,
      "combinations": 2479,
      "direct": 2480,
      "majority": 2481,
      "towards": 2482,
      "expand": 2483,
      "Austral": 2484,
      "People": 2485,
      "Wee": 2486,
      "facilities": 2487,
      "chaos": 2488,
      "beliefs": 2489,
      "marked": 2490,
      "multiple": 2491,
      "title": 2492,
      "defense": 2493,
      "approach": 2494,
      "attempted": 2495,
      "Hathor": 2496,
      "distin": 2497,
      "mitted": 2498,
      "modern": 2499,
      "soldiers": 2500,
      "movement": 2501,
      "featured": 2502,
      "instruments": 2503,
      "Gallian": 2504,
      "employ": 2505,
      "primary": 2506,
      "McKay": 2507,
      "says": 2508,
      "Children": 2509,
      "increasingly": 2510,
      "introduced": 2511,
      "According": 2512,
      "damaged": 2513,
      "habit": 2514,
      "aspects": 2515,
      "Atenism": 2516,
      "Green": 2517,
      "Gregorian": 2518,
      "Howson": 2519,
      "Licence": 2520,
      "rarely": 2521,
      "Bulloch": 2522,
      "Phil": 2523,
      "Totten": 2524,
      "bombardment": 2525,
      "worthiness": 2526,
      "registered": 2527,
      "licensed": 2528,
      "dependent": 2529,
      "Dorothy": 2530,
      "Dunnington": 2531,
      "Æsthetic": 2532,
      "recogn": 2533,
      "amateur": 2534,
      "ammunition": 2535,
      "opposite": 2536,
      "27": 2537,
      "89": 2538,
      "Afr": 2539,
      "Adr": 2540,
      "Dah": 2541,
      "Fil": 2542,
      "Follow": 2543,
      "Gr": 2544,
      "Gu": 2545,
      "Ger": 2546,
      "Game": 2547,
      "Great": 2548,
      "Hen": 2549,
      "Har": 2550,
      "Hit": 2551,
      "Hun": 2552,
      "High": 2553,
      "Hart": 2554,
      "Hann": 2555,
      "IHL": 2556,
      "Jeff": 2557,
      "Lou": 2558,
      "Later": 2559,
      "Lombard": 2560,
      "Mon": 2561,
      "Mas": 2562,
      "Mand": 2563,
      "Mil": 2564,
      "Mem": 2565,
      "Mid": 2566,
      "Mall": 2567,
      "M18": 2568,
      "Nor": 2569,
      "Pho": 2570,
      "Port": 2571,
      "Ste": 2572,
      "Summ": 2573,
      "Squad": 2574,
      "Tatt": 2575,
      "Van": 2576,
      "aan": 2577,
      "cut": 2578,
      "cious": 2579,
      "camp": 2580,
      "dou": 2581,
      "dition": 2582,
      "died": 2583,
      "eks": 2584,
      "far": 2585,
      "fund": 2586,
      "face": 2587,
      "ges": 2588,
      "hier": 2589,
      "ike": 2590,
      "lin": 2591,
      "latter": 2592,
      "moun": 2593,
      "mber": 2594,
      "mph": 2595,
      "mumm": 2596,
      "match": 2597,
      "night": 2598,
      "ology": 2599,
      "ping": 2600,
      "pie": 2601,
      "rent": 2602,
      "ram": 2603,
      "sou": 2604,
      "spor": 2605,
      "sched": 2606,
      "scope": 2607,
      "scholars": 2608,
      "tt": 2609,
      "uc": 2610,
      "vi": 2611,
      "val": 2612,
      "vere": 2613,
      "wn": 2614,
      "wal": 2615,
      "went": 2616,
      "west": 2617,
      "wick": 2618,
      "wind": 2619,
      "era": 2620,
      "erry": 2621,
      "onto": 2622,
      "educ": 2623,
      "ators": 2624,
      "ests": 2625,
      "espe": 2626,
      "enough": 2627,
      "ensing": 2628,
      "ality": 2629,
      "asy": 2630,
      "assoc": 2631,
      "association": 2632,
      "isf": 2633,
      "isions": 2634,
      "iter": 2635,
      "ref": 2636,
      "reve": 2637,
      "recent": 2638,
      "retain": 2639,
      "returning": 2640,
      "tober": 2641,
      "total": 2642,
      "together": 2643,
      "icide": 2644,
      "station": 2645,
      "style": 2646,
      "accoun": 2647,
      "league": 2648,
      "lywood": 2649,
      "dead": 2650,
      "enty": 2651,
      "ama": 2652,
      "sex": 2653,
      "unit": 2654,
      "ches": 2655,
      "look": 2656,
      "ading": 2657,
      "uries": 2658,
      "imp": 2659,
      "ollywood": 2660,
      "traf": 2661,
      "conv": 2662,
      "ceed": 2663,
      "umed": 2664,
      "plann": 2665,
      "comes": 2666,
      "composed": 2667,
      "cture": 2668,
      "idents": 2669,
      "pose": 2670,
      "appoint": 2671,
      "eling": 2672,
      "areas": 2673,
      "agement": 2674,
      "ifying": 2675,
      "should": 2676,
      "shown": 2677,
      "utes": 2678,
      "sure": 2679,
      "perform": 2680,
      "percussion": 2681,
      "thern": 2682,
      "iefly": 2683,
      "proved": 2684,
      "worst": 2685,
      "acted": 2686,
      "expe": 2687,
      "except": 2688,
      "coast": 2689,
      "cosmo": 2690,
      "mak": 2691,
      "iller": 2692,
      "morning": 2693,
      "meas": 2694,
      "grand": 2695,
      "gram": 2696,
      "grad": 2697,
      "ization": 2698,
      "board": 2699,
      "regular": 2700,
      "regional": 2701,
      "evidence": 2702,
      "fect": 2703,
      "reek": 2704,
      "Ang": 2705,
      "Another": 2706,
      "center": 2707,
      "century": 2708,
      "braska": 2709,
      "briefly": 2710,
      "interview": 2711,
      "something": 2712,
      "engines": 2713,
      "fourth": 2714,
      "Nebraska": 2715,
      "aerial": 2716,
      "pedo": 2717,
      "pared": 2718,
      "tons": 2719,
      "minutes": 2720,
      "1997": 2721,
      "tax": 2722,
      "sisters": 2723,
      "brother": 2724,
      "designated": 2725,
      "surrend": 2726,
      "supply": 2727,
      "remainder": 2728,
      "smaller": 2729,
      "background": 2730,
      "Because": 2731,
      "lands": 2732,
      "production": 2733,
      "Allied": 2734,
      "Major": 2735,
      "counter": 2736,
      "writing": 2737,
      "invol": 2738,
      "1986": 2739,
      "1988": 2740,
      "subject": 2741,
      "contrast": 2742,
      "Warne": 2743,
      "added": 2744,
      "critical": 2745,
      "missed": 2746,
      "epi": 2747,
      "issues": 2748,
      "winning": 2749,
      "becomes": 2750,
      "becoming": 2751,
      "promin": 2752,
      "increased": 2753,
      "realm": 2754,
      "laun": 2755,
      "opened": 2756,
      "director": 2757,
      "grew": 2758,
      "anime": 2759,
      "helped": 2760,
      "commander": 2761,
      "federal": 2762,
      "levels": 2763,
      "periods": 2764,
      "funer": 2765,
      "function": 2766,
      "government": 2767,
      "study": 2768,
      "studio": 2769,
      "sites": 2770,
      "needed": 2771,
      "casem": 2772,
      "version": 2773,
      "sequently": 2774,
      "liter": 2775,
      "taking": 2776,
      "iption": 2777,
      "features": 2778,
      "response": 2779,
      "instrument": 2780,
      "Suicide": 2781,
      "microlights": 2782,
      "paint": 2783,
      "injury": 2784,
      "initially": 2785,
      "Khan": 2786,
      "course": 2787,
      "definition": 2788,
      "demonstr": 2789,
      "changes": 2790,
      "polit": 2791,
      "schools": 2792,
      "International": 2793,
      "objects": 2794,
      "Governor": 2795,
      "History": 2796,
      "Lanka": 2797,
      "hawken": 2798,
      "thriller": 2799,
      "dreadnought": 2800,
      "Georgia": 2801,
      "vocals": 2802,
      "separate": 2803,
      "emerged": 2804,
      "eventually": 2805,
      "transferred": 2806,
      "Captain": 2807,
      "Pola": 2808,
      "Trophy": 2809,
      "sacred": 2810,
      "ynastic": 2811,
      "necessary": 2812,
      "assigned": 2813,
      "ibrary": 2814,
      "Gods": 2815,
      "October": 2816,
      "birth": 2817,
      "torpedo": 2818,
      "lyrics": 2819,
      "concern": 2820,
      "committee": 2821,
      "December": 2822,
      "collaboration": 2823,
      "flintlock": 2824,
      "Australia": 2825,
      "Weehawken": 2826,
      "Adri": 2827,
      "Following": 2828,
      "Hanneman": 2829,
      "Louis": 2830,
      "Mandatory": 2831,
      "Mallory": 2832,
      "Tattnall": 2833,
      "traffic": 2834,
      "planned": 2835,
      "29": 2836,
      "36": 2837,
      "300": 2838,
      "400": 2839,
      "800": 2840,
      "AA": 2841,
      "Ag": 2842,
      "Bah": 2843,
      "Dis": 2844,
      "Dire": 2845,
      "East": 2846,
      "Emp": 2847,
      "Hall": 2848,
      "Ju": 2849,
      "Lo": 2850,
      "My": 2851,
      "Min": 2852,
      "Mor": 2853,
      "Mar": 2854,
      "Many": 2855,
      "No": 2856,
      "Nub": 2857,
      "Other": 2858,
      "Pen": 2859,
      "Rub": 2860,
      "Sa": 2861,
      "Sl": 2862,
      "Sm": 2863,
      "Str": 2864,
      "Spe": 2865,
      "Sab": 2866,
      "Sak": 2867,
      "Sound": 2868,
      "TV": 2869,
      "Tre": 2870,
      "Tod": 2871,
      "Tem": 2872,
      "Wind": 2873,
      "Women": 2874,
      "XIII": 2875,
      "Year": 2876,
      "bl": 2877,
      "bs": 2878,
      "ban": 2879,
      "bed": 2880,
      "bot": 2881,
      "bow": 2882,
      "ballo": 2883,
      "cit": 2884,
      "done": 2885,
      "disting": 2886,
      "ey": 2887,
      "eight": 2888,
      "east": 2889,
      "ecess": 2890,
      "fu": 2891,
      "fan": 2892,
      "fest": 2893,
      "fight": 2894,
      "farm": 2895,
      "failed": 2896,
      "girl": 2897,
      "hang": 2898,
      "ii": 2899,
      "kno": 2900,
      "ler": 2901,
      "lation": 2902,
      "listed": 2903,
      "listing": 2904,
      "lighter": 2905,
      "mis": 2906,
      "mir": 2907,
      "mut": 2908,
      "mone": 2909,
      "mund": 2910,
      "mach": 2911,
      "mix": 2912,
      "mble": 2913,
      "male": 2914,
      "mixed": 2915,
      "nd": 2916,
      "nṯ": 2917,
      "nine": 2918,
      "oke": 2919,
      "ps": 2920,
      "pts": 2921,
      "pist": 2922,
      "past": 2923,
      "park": 2924,
      "page": 2925,
      "ra": 2926,
      "ris": 2927,
      "rain": 2928,
      "rail": 2929,
      "rather": 2930,
      "raised": 2931,
      "san": 2932,
      "spo": 2933,
      "sive": 2934,
      "saw": 2935,
      "spread": 2936,
      "tar": 2937,
      "tone": 2938,
      "wan": 2939,
      "wanted": 2940,
      "thin": 2941,
      "inant": 2942,
      "independent": 2943,
      "anto": 2944,
      "ond": 2945,
      "ono": 2946,
      "aries": 2947,
      "arily": 2948,
      "argu": 2949,
      "arrow": 2950,
      "alth": 2951,
      "almost": 2952,
      "astr": 2953,
      "isn": 2954,
      "ita": 2955,
      "remun": 2956,
      "icono": 2957,
      "stor": 2958,
      "stal": 2959,
      "sting": 2960,
      "states": 2961,
      "stained": 2962,
      "least": 2963,
      "forced": 2964,
      "demand": 2965,
      "see": 2966,
      "beings": 2967,
      "church": 2968,
      "champion": 2969,
      "lost": 2970,
      "love": 2971,
      "ures": 2972,
      "imin": 2973,
      "iment": 2974,
      "image": 2975,
      "improv": 2976,
      "white": 2977,
      "true": 2978,
      "conf": 2979,
      "conver": 2980,
      "ulty": 2981,
      "cell": 2982,
      "otes": 2983,
      "erson": 2984,
      "ctors": 2985,
      "pries": 2986,
      "1915": 2987,
      "1911": 2988,
      "applied": 2989,
      "eline": 2990,
      "elder": 2991,
      "shr": 2992,
      "ipp": 2993,
      "ians": 2994,
      "ested": 2995,
      "soon": 2996,
      "telev": 2997,
      "procur": 2998,
      "progress": 2999,
      "arten": 3000,
      "earch": 3001,
      "active": 3002,
      "ounced": 3003,
      "quar": 3004,
      "exper": 3005,
      "experi": 3006,
      "cop": 3007,
      "cock": 3008,
      "manent": 3009,
      "management": 3010,
      "noting": 3011,
      "undial": 3012,
      "orders": 3013,
      "maxim": 3014,
      "mented": 3015,
      "mental": 3016,
      "ported": 3017,
      "assumed": 3018,
      "creating": 3019,
      "illa": 3020,
      "ously": 3021,
      "graver": 3022,
      "serve": 3023,
      "aken": 3024,
      "awn": 3025,
      "awarded": 3026,
      "clus": 3027,
      "contact": 3028,
      "box": 3029,
      "boat": 3030,
      "regions": 3031,
      "presence": 3032,
      "tene": 3033,
      "working": 3034,
      "fected": 3035,
      "themes": 3036,
      "Univers": 3037,
      "Universe": 3038,
      "teams": 3039,
      "itting": 3040,
      "finish": 3041,
      "centuries": 3042,
      "interpre": 3043,
      "interaction": 3044,
      "cartr": 3045,
      "ength": 3046,
      "myster": 3047,
      "consisting": 3048,
      "announced": 3049,
      "pedition": 3050,
      "Atum": 3051,
      "represents": 3052,
      "representative": 3053,
      "perspe": 3054,
      "Sea": 3055,
      "broken": 3056,
      "asked": 3057,
      "deploy": 3058,
      "designs": 3059,
      "therefore": 3060,
      "Deities": 3061,
      "whereas": 3062,
      "1863": 3063,
      "does": 3064,
      "omena": 3065,
      "traded": 3066,
      "writings": 3067,
      "1925": 3068,
      "1929": 3069,
      "atively": 3070,
      "standard": 3071,
      "1985": 3072,
      "personified": 3073,
      "subsequently": 3074,
      "effort": 3075,
      "tracks": 3076,
      "denomination": 3077,
      "regulated": 3078,
      "regulatory": 3079,
      "promot": 3080,
      "ski": 3081,
      "skin": 3082,
      "skills": 3083,
      "instance": 3084,
      "burned": 3085,
      "animal": 3086,
      "ergarten": 3087,
      "traits": 3088,
      "establish": 3089,
      "Edmund": 3090,
      "joy": 3091,
      "joined": 3092,
      "dealership": 3093,
      "covered": 3094,
      "groups": 3095,
      "authority": 3096,
      "Bridge": 3097,
      "Canad": 3098,
      "phys": 3099,
      "Peter": 3100,
      "Webb": 3101,
      "cults": 3102,
      "floor": 3103,
      "armored": 3104,
      "chapel": 3105,
      "1849": 3106,
      "Serv": 3107,
      "basic": 3108,
      "steam": 3109,
      "stead": 3110,
      "legis": 3111,
      "predecess": 3112,
      "respond": 3113,
      "Expedition": 3114,
      "Richards": 3115,
      "restrictions": 3116,
      "closely": 3117,
      "circ": 3118,
      "circul": 3119,
      "smooth": 3120,
      "extended": 3121,
      "Charac": 3122,
      "indicated": 3123,
      "Aerodrom": 3124,
      "Scott": 3125,
      "khen": 3126,
      "average": 3127,
      "1920s": 3128,
      "relationship": 3129,
      "relationships": 3130,
      "syncret": 3131,
      "knowledge": 3132,
      "purchase": 3133,
      "England": 3134,
      "English": 3135,
      "suffered": 3136,
      "clear": 3137,
      "middle": 3138,
      "rule": 3139,
      "repaired": 3140,
      "accepted": 3141,
      "practices": 3142,
      "credited": 3143,
      "books": 3144,
      "Japanese": 3145,
      "Division": 3146,
      "safe": 3147,
      "environ": 3148,
      "manifestations": 3149,
      "participated": 3150,
      "economic": 3151,
      "ological": 3152,
      "determin": 3153,
      "construction": 3154,
      "existence": 3155,
      "incorporated": 3156,
      "friends": 3157,
      "equipment": 3158,
      "Duat": 3159,
      "Early": 3160,
      "fifth": 3161,
      "kindergarten": 3162,
      "whether": 3163,
      "phenomena": 3164,
      "expanded": 3165,
      "Hunwick": 3166,
      "Hartford": 3167,
      "Lombardo": 3168,
      "Montene": 3169,
      "Memorial": 3170,
      "double": 3171,
      "piece": 3172,
      "education": 3173,
      "deadline": 3174,
      "cosmos": 3175,
      "launched": 3176,
      "political": 3177,
      "July": 3178,
      "Rubin": 3179,
      "distingu": 3180,
      "money": 3181,
      "nṯr": 3182,
      "piston": 3183,
      "remuner": 3184,
      "procured": 3185,
      "maximum": 3186,
      "University": 3187,
      "Bridgeport": 3188,
      "35": 3189,
      "40": 3190,
      "47": 3191,
      "54": 3192,
      "59": 3193,
      "69": 3194,
      "77": 3195,
      "86": 3196,
      "92": 3197,
      "96": 3198,
      "Ab": 3199,
      "Az": 3200,
      "Ale": 3201,
      "Along": 3202,
      "Award": 3203,
      "Bay": 3204,
      "Bet": 3205,
      "Bill": 3206,
      "Bost": 3207,
      "Bollywood": 3208,
      "Cam": 3209,
      "Cess": 3210,
      "City": 3211,
      "Cong": 3212,
      "Center": 3213,
      "Curt": 3214,
      "El": 3215,
      "Fl": 3216,
      "Fam": 3217,
      "Flight": 3218,
      "Fort": 3219,
      "Gro": 3220,
      "Gard": 3221,
      "Gob": 3222,
      "Greek": 3223,
      "Hind": 3224,
      "Hym": 3225,
      "Jo": 3226,
      "Ka": 3227,
      "Kick": 3228,
      "Kurt": 3229,
      "Lt": 3230,
      "Los": 3231,
      "Mal": 3232,
      "Nile": 3233,
      "Nah": 3234,
      "Otr": 3235,
      "PL": 3236,
      "Pre": 3237,
      "Park": 3238,
      "Pub": 3239,
      "Pri": 3240,
      "PPL": 3241,
      "Que": 3242,
      "Rade": 3243,
      "Raph": 3244,
      "Raven": 3245,
      "Rhy": 3246,
      "Sam": 3247,
      "Such": 3248,
      "School": 3249,
      "Tur": 3250,
      "Vision": 3251,
      "Will": 3252,
      "Wisn": 3253,
      "Yet": 3254,
      "bass": 3255,
      "batter": 3256,
      "bought": 3257,
      "bably": 3258,
      "cere": 3259,
      "categ": 3260,
      "dies": 3261,
      "dut": 3262,
      "dark": 3263,
      "dwell": 3264,
      "data": 3265,
      "ec": 3266,
      "elev": 3267,
      "fig": 3268,
      "fant": 3269,
      "fold": 3270,
      "gon": 3271,
      "ging": 3272,
      "ha": 3273,
      "hit": 3274,
      "hous": 3275,
      "hockey": 3276,
      "ient": 3277,
      "iad": 3278,
      "iod": 3279,
      "ius": 3280,
      "jō": 3281,
      "jud": 3282,
      "lap": 3283,
      "mess": 3284,
      "mouth": 3285,
      "member": 3286,
      "mercial": 3287,
      "museum": 3288,
      "nel": 3289,
      "native": 3290,
      "ood": 3291,
      "oplan": 3292,
      "pto": 3293,
      "pack": 3294,
      "ress": 3295,
      "spl": 3296,
      "spr": 3297,
      "sph": 3298,
      "stop": 3299,
      "ti": 3300,
      "tre": 3301,
      "ties": 3302,
      "tide": 3303,
      "tell": 3304,
      "uto": 3305,
      "van": 3306,
      "vic": 3307,
      "wers": 3308,
      "ween": 3309,
      "woman": 3310,
      "wides": 3311,
      "you": 3312,
      "yotes": 3313,
      "ino": 3314,
      "inery": 3315,
      "err": 3316,
      "erse": 3317,
      "erve": 3318,
      "erous": 3319,
      "theon": 3320,
      "theless": 3321,
      "anal": 3322,
      "anthrop": 3323,
      "edition": 3324,
      "aten": 3325,
      "atives": 3326,
      "enem": 3327,
      "eness": 3328,
      "enix": 3329,
      "alers": 3330,
      "ases": 3331,
      "ington": 3332,
      "ison": 3333,
      "isto": 3334,
      "itself": 3335,
      "rein": 3336,
      "reet": 3337,
      "replaced": 3338,
      "recht": 3339,
      "tour": 3340,
      "icating": 3341,
      "room": 3342,
      "step": 3343,
      "street": 3344,
      "heav": 3345,
      "actress": 3346,
      "leaving": 3347,
      "defe": 3348,
      "delay": 3349,
      "decommissioned": 3350,
      "amed": 3351,
      "amity": 3352,
      "sely": 3353,
      "seem": 3354,
      "sell": 3355,
      "severe": 3356,
      "better": 3357,
      "ivals": 3358,
      "unable": 3359,
      "universe": 3360,
      "chcock": 3361,
      "imoto": 3362,
      "olina": 3363,
      "olution": 3364,
      "uled": 3365,
      "ultim": 3366,
      "otion": 3367,
      "otential": 3368,
      "plic": 3369,
      "plans": 3370,
      "avior": 3371,
      "ider": 3372,
      "idges": 3373,
      "ession": 3374,
      "princ": 3375,
      "elimin": 3376,
      "ago": 3377,
      "agency": 3378,
      "agreed": 3379,
      "shar": 3380,
      "airworthiness": 3381,
      "super": 3382,
      "superi": 3383,
      "permitted": 3384,
      "permanent": 3385,
      "istant": 3386,
      "neither": 3387,
      "kept": 3388,
      "keep": 3389,
      "teor": 3390,
      "teen": 3391,
      "propos": 3392,
      "moves": 3393,
      "acks": 3394,
      "quick": 3395,
      "queline": 3396,
      "endar": 3397,
      "existing": 3398,
      "extend": 3399,
      "exhib": 3400,
      "exclus": 3401,
      "strips": 3402,
      "cost": 3403,
      "twin": 3404,
      "Church": 3405,
      "Egypto": 3406,
      "vey": 3407,
      "1889": 3408,
      "commonly": 3409,
      "ousand": 3410,
      "bert": 3411,
      "meant": 3412,
      "photo": 3413,
      "firm": 3414,
      "whole": 3415,
      "whose": 3416,
      "oughts": 3417,
      "inted": 3418,
      "intended": 3419,
      "GASA": 3420,
      "regarded": 3421,
      "type": 3422,
      "relating": 3423,
      "mainly": 3424,
      "disorder": 3425,
      "disappoint": 3426,
      "2015": 3427,
      "fert": 3428,
      "charge": 3429,
      "oked": 3430,
      "finished": 3431,
      "central": 3432,
      "bridge": 3433,
      "obatic": 3434,
      "tures": 3435,
      "mono": 3436,
      "interse": 3437,
      "Rector": 3438,
      "2005": 3439,
      "cargo": 3440,
      "carry": 3441,
      "licensing": 3442,
      "sense": 3443,
      "news": 3444,
      "dress": 3445,
      "Ass": 3446,
      "Blues": 3447,
      "closure": 3448,
      "Jacqueline": 3449,
      "Whalers": 3450,
      "1991": 3451,
      "social": 3452,
      "recording": 3453,
      "representing": 3454,
      "icture": 3455,
      "Sega": 3456,
      "jets": 3457,
      "jects": 3458,
      "broke": 3459,
      "brown": 3460,
      "weeks": 3461,
      "rounds": 3462,
      "appearances": 3463,
      "iewski": 3464,
      "classes": 3465,
      "producing": 3466,
      "followed": 3467,
      "highly": 3468,
      "highest": 3469,
      "Arkadelphia": 3470,
      "Britain": 3471,
      "medi": 3472,
      "seconds": 3473,
      "powered": 3474,
      "ficial": 3475,
      "royal": 3476,
      "substant": 3477,
      "current": 3478,
      "historic": 3479,
      "rays": 3480,
      "importance": 3481,
      "contribut": 3482,
      "Work": 3483,
      "provide": 3484,
      "patch": 3485,
      "alongside": 3486,
      "require": 3487,
      "Command": 3488,
      "Commercial": 3489,
      "Entry": 3490,
      "successful": 3491,
      "successfully": 3492,
      "increase": 3493,
      "connection": 3494,
      "Italy": 3495,
      "previously": 3496,
      "lake": 3497,
      "label": 3498,
      "install": 3499,
      "direction": 3500,
      "equated": 3501,
      "animals": 3502,
      "consider": 3503,
      "critics": 3504,
      "nowledge": 3505,
      "pantheon": 3506,
      "trait": 3507,
      "variety": 3508,
      "largely": 3509,
      "Addition": 3510,
      "Admir": 3511,
      "azine": 3512,
      "passed": 3513,
      "statistics": 3514,
      "statues": 3515,
      "Indian": 3516,
      "Coach": 3517,
      "Coyotes": 3518,
      "Carolina": 3519,
      "Senjō": 3520,
      "hands": 3521,
      "Austria": 3522,
      "pounds": 3523,
      "reviews": 3524,
      "Descr": 3525,
      "Period": 3526,
      "cases": 3527,
      "metal": 3528,
      "multi": 3529,
      "compon": 3530,
      "estimates": 3531,
      "protect": 3532,
      "difficulty": 3533,
      "additional": 3534,
      "taken": 3535,
      "Gallia": 3536,
      "happ": 3537,
      "happen": 3538,
      "injured": 3539,
      "weapon": 3540,
      "suggested": 3541,
      "benef": 3542,
      "billion": 3543,
      "referred": 3544,
      "demons": 3545,
      "illustrated": 3546,
      "Ord": 3547,
      "female": 3548,
      "possible": 3549,
      "maintaining": 3550,
      "buildings": 3551,
      "purchased": 3552,
      "genus": 3553,
      "selected": 3554,
      "destroyed": 3555,
      "Island": 3556,
      "daily": 3557,
      "declined": 3558,
      "cruisers": 3559,
      "pharaohs": 3560,
      "flown": 3561,
      "maps": 3562,
      "uki": 3563,
      "assemb": 3564,
      "ready": 3565,
      "unique": 3566,
      "shift": 3567,
      "claimed": 3568,
      "occurred": 3569,
      "responsibility": 3570,
      "situation": 3571,
      "favorite": 3572,
      "individual": 3573,
      "helicopters": 3574,
      "Housefull": 3575,
      "Pitlake": 3576,
      "Toronto": 3577,
      "linked": 3578,
      "solar": 3579,
      "victory": 3580,
      "adopted": 3581,
      "concepts": 3582,
      "problems": 3583,
      "respectively": 3584,
      "Royal": 3585,
      "Records": 3586,
      "reduced": 3587,
      "defenseman": 3588,
      "distinct": 3589,
      "Greenaway": 3590,
      "Philadelphia": 3591,
      "German": 3592,
      "Hitchcock": 3593,
      "Highway": 3594,
      "Phoenix": 3595,
      "Squadron": 3596,
      "spores": 3597,
      "scheduled": 3598,
      "revealed": 3599,
      "recently": 3600,
      "stationed": 3601,
      "account": 3602,
      "ceeded": 3603,
      "makes": 3604,
      "measure": 3605,
      "Angeles": 3606,
      "involving": 3607,
      "prominent": 3608,
      "funerary": 3609,
      "casemate": 3610,
      "paintings": 3611,
      "Bahrain": 3612,
      "Director": 3613,
      "Empire": 3614,
      "Sabres": 3615,
      "Sakimoto": 3616,
      "Winds": 3617,
      "bottom": 3618,
      "citiz": 3619,
      "knots": 3620,
      "pageant": 3621,
      "sanct": 3622,
      "improvements": 3623,
      "priests": 3624,
      "television": 3625,
      "cartridges": 3626,
      "mysterious": 3627,
      "physical": 3628,
      "distinguished": 3629,
      "Between": 3630,
      "Boston": 3631,
      "Camden": 3632,
      "Cessna": 3633,
      "Congress": 3634,
      "Curtis": 3635,
      "Gobrecht": 3636,
      "Hindman": 3637,
      "Nahant": 3638,
      "Otranto": 3639,
      "Public": 3640,
      "Raphael": 3641,
      "Rhymes": 3642,
      "Wisniewski": 3643,
      "ceremon": 3644,
      "widespread": 3645,
      "analy": 3646,
      "eliminated": 3647,
      "Egyptolog": 3648,
      "GASAR": 3649,
      "Admiral": 3650,
      "1st": 3651,
      "31": 3652,
      "32": 3653,
      "44": 3654,
      "48": 3655,
      "49": 3656,
      "422": 3657,
      "53": 3658,
      "56": 3659,
      "60": 3660,
      "74": 3661,
      "75": 3662,
      "91": 3663,
      "AR": 3664,
      "Ak": 3665,
      "Aw": 3666,
      "Apo": 3667,
      "Abr": 3668,
      "Akhen": 3669,
      "BU": 3670,
      "Ber": 3671,
      "Bar": 3672,
      "Back": 3673,
      "Bres": 3674,
      "Barr": 3675,
      "Cer": 3676,
      "Cre": 3677,
      "Coun": 3678,
      "Crit": 3679,
      "Den": 3680,
      "Dar": 3681,
      "Dou": 3682,
      "Dav": 3683,
      "Due": 3684,
      "Darl": 3685,
      "Fu": 3686,
      "Fin": 3687,
      "Feder": 3688,
      "Gil": 3689,
      "Gold": 3690,
      "Games": 3691,
      "Ground": 3692,
      "Girl": 3693,
      "Ho": 3694,
      "Hum": 3695,
      "ICA": 3696,
      "Jam": 3697,
      "Jack": 3698,
      "JAR": 3699,
      "Kerry": 3700,
      "Knowledge": 3701,
      "Last": 3702,
      "Loc": 3703,
      "Mer": 3704,
      "Mich": 3705,
      "Mumb": 3706,
      "Micro": 3707,
      "ND": 3708,
      "Na": 3709,
      "Near": 3710,
      "Natural": 3711,
      "OS": 3712,
      "Ou": 3713,
      "Pic": 3714,
      "Part": 3715,
      "Pop": 3716,
      "Pred": 3717,
      "Pta": 3718,
      "Post": 3719,
      "Person": 3720,
      "Pius": 3721,
      "Potential": 3722,
      "Res": 3723,
      "Rel": 3724,
      "Rif": 3725,
      "Rev": 3726,
      "Rush": 3727,
      "Sal": 3728,
      "Sch": 3729,
      "Sup": 3730,
      "Since": 3731,
      "Silver": 3732,
      "Ta": 3733,
      "Tar": 3734,
      "Tri": 3735,
      "Tamp": 3736,
      "Times": 3737,
      "Up": 3738,
      "VI": 3739,
      "West": 3740,
      "Wales": 3741,
      "Wake": 3742,
      "Western": 3743,
      "You": 3744,
      "aul": 3745,
      "aples": 3746,
      "bing": 3747,
      "bad": 3748,
      "bio": 3749,
      "cro": 3750,
      "cou": 3751,
      "cow": 3752,
      "cities": 3753,
      "cend": 3754,
      "card": 3755,
      "cast": 3756,
      "cure": 3757,
      "cited": 3758,
      "csen": 3759,
      "case": 3760,
      "cross": 3761,
      "dron": 3762,
      "dney": 3763,
      "ean": 3764,
      "etr": 3765,
      "eag": 3766,
      "eigh": 3767,
      "fit": 3768,
      "fut": 3769,
      "fate": 3770,
      "fear": 3771,
      "fles": 3772,
      "fast": 3773,
      "font": 3774,
      "got": 3775,
      "gest": 3776,
      "gone": 3777,
      "gau": 3778,
      "ggl": 3779,
      "hi": 3780,
      "hon": 3781,
      "har": 3782,
      "hull": 3783,
      "iam": 3784,
      "iations": 3785,
      "jid": 3786,
      "jet": 3787,
      "jour": 3788,
      "ka": 3789,
      "kin": 3790,
      "ker": 3791,
      "kan": 3792,
      "kill": 3793,
      "ls": 3794,
      "lion": 3795,
      "lau": 3796,
      "law": 3797,
      "lived": 3798,
      "lang": 3799,
      "liest": 3800,
      "library": 3801,
      "length": 3802,
      "mi": 3803,
      "mass": 3804,
      "nung": 3805,
      "niel": 3806,
      "natural": 3807,
      "narrow": 3808,
      "osh": 3809,
      "ooto": 3810,
      "pap": 3811,
      "paper": 3812,
      "race": 3813,
      "river": 3814,
      "ses": 3815,
      "sport": 3816,
      "sung": 3817,
      "sort": 3818,
      "sales": 3819,
      "sket": 3820,
      "sundial": 3821,
      "tz": 3822,
      "tilla": 3823,
      "ug": 3824,
      "ule": 3825,
      "ude": 3826,
      "uce": 3827,
      "uable": 3828,
      "vo": 3829,
      "vent": 3830,
      "vation": 3831,
      "vul": 3832,
      "via": 3833,
      "vint": 3834,
      "vener": 3835,
      "wis": 3836,
      "wear": 3837,
      "wound": 3838,
      "wise": 3839,
      "western": 3840,
      "ya": 3841,
      "yard": 3842,
      "your": 3843,
      "za": 3844,
      "ze": 3845,
      "µm": 3846,
      "のヴ": 3847,
      "ァル": 3848,
      "キュ": 3849,
      "リア": 3850,
      "場のヴ": 3851,
      "戦場のヴ": 3852,
      "thy": 3853,
      "thod": 3854,
      "thers": 3855,
      "thoff": 3856,
      "iny": 3857,
      "infr": 3858,
      "indis": 3859,
      "instru": 3860,
      "inner": 3861,
      "inspir": 3862,
      "ervation": 3863,
      "thes": 3864,
      "thets": 3865,
      "theism": 3866,
      "theories": 3867,
      "annot": 3868,
      "anning": 3869,
      "edy": 3870,
      "eding": 3871,
      "orring": 3872,
      "oracles": 3873,
      "orbed": 3874,
      "ato": 3875,
      "atform": 3876,
      "attribut": 3877,
      "ene": 3878,
      "ening": 3879,
      "enant": 3880,
      "ari": 3881,
      "army": 3882,
      "alato": 3883,
      "aste": 3884,
      "asury": 3885,
      "ising": 3886,
      "isation": 3887,
      "ites": 3888,
      "iting": 3889,
      "itia": 3890,
      "itish": 3891,
      "rets": 3892,
      "recomm": 3893,
      "reach": 3894,
      "reje": 3895,
      "recalled": 3896,
      "repet": 3897,
      "removed": 3898,
      "reported": 3899,
      "tood": 3900,
      "toms": 3901,
      "ioned": 3902,
      "icago": 3903,
      "roll": 3904,
      "stay": 3905,
      "stone": 3906,
      "stern": 3907,
      "heard": 3908,
      "health": 3909,
      "acy": 3910,
      "acts": 3911,
      "accompany": 3912,
      "forts": 3913,
      "forward": 3914,
      "demo": 3915,
      "determ": 3916,
      "detail": 3917,
      "iring": 3918,
      "entr": 3919,
      "amoun": 3920,
      "omor": 3921,
      "oming": 3922,
      "ominant": 3923,
      "ils": 3924,
      "ilies": 3925,
      "ilers": 3926,
      "ilized": 3927,
      "secret": 3928,
      "sectors": 3929,
      "wasn": 3930,
      "beam": 3931,
      "bell": 3932,
      "unity": 3933,
      "unified": 3934,
      "univers": 3935,
      "chall": 3936,
      "Their": 3937,
      "Thebes": 3938,
      "lot": 3939,
      "lotter": 3940,
      "ades": 3941,
      "adap": 3942,
      "adapt": 3943,
      "odes": 3944,
      "aya": 3945,
      "igation": 3946,
      "iments": 3947,
      "olis": 3948,
      "withdraw": 3949,
      "whitish": 3950,
      "trum": 3951,
      "traw": 3952,
      "concept": 3953,
      "conclu": 3954,
      "constant": 3955,
      "ulace": 3956,
      "ume": 3957,
      "umes": 3958,
      "otro": 3959,
      "otive": 3960,
      "platform": 3961,
      "emble": 3962,
      "coming": 3963,
      "compe": 3964,
      "compared": 3965,
      "comedy": 3966,
      "idian": 3967,
      "essed": 3968,
      "pole": 3969,
      "pover": 3970,
      "powers": 3971,
      "pra": 3972,
      "prize": 3973,
      "1919": 3974,
      "apped": 3975,
      "appar": 3976,
      "elf": 3977,
      "ellow": 3978,
      "elite": 3979,
      "agno": 3980,
      "aground": 3981,
      "aggress": 3982,
      "iff": 3983,
      "ify": 3984,
      "shore": 3985,
      "shooto": 3986,
      "utenant": 3987,
      "airline": 3988,
      "airstrips": 3989,
      "abr": 3990,
      "affected": 3991,
      "perial": 3992,
      "perception": 3993,
      "nead": 3994,
      "ameter": 3995,
      "ption": 3996,
      "ptic": 3997,
      "ieutenant": 3998,
      "ighed": 3999,
      "sole": 4000,
      "soil": 4001,
      "soph": 4002,
      "tele": 4003,
      "prot": 4004,
      "prove": 4005,
      "probably": 4006,
      "porate": 4007,
      "ght": 4008,
      "earliest": 4009,
      "mob": 4010,
      "quate": 4011,
      "quest": 4012,
      "exten": 4013,
      "ette": 4014,
      "etta": 4015,
      "cobr": 4016,
      "mann": 4017,
      "managed": 4018,
      "notes": 4019,
      "twice": 4020,
      "twenty": 4021,
      "ishes": 4022,
      "Chief": 4023,
      "Champion": 4024,
      "Chicago": 4025,
      "veter": 4026,
      "veying": 4027,
      "180": 4028,
      "opolis": 4029,
      "create": 4030,
      "research": 4031,
      "resemble": 4032,
      "Arniel": 4033,
      "Araya": 4034,
      "mechan": 4035,
      "meteor": 4036,
      "achute": 4037,
      "Stan": 4038,
      "Stud": 4039,
      "Staples": 4040,
      "Storring": 4041,
      "gren": 4042,
      "granted": 4043,
      "idea": 4044,
      "attended": 4045,
      "attached": 4046,
      "ritual": 4047,
      "office": 4048,
      "offered": 4049,
      "older": 4050,
      "Head": 4051,
      "iza": 4052,
      "izations": 4053,
      "partment": 4054,
      "ibly": 4055,
      "aked": 4056,
      "aking": 4057,
      "aug": 4058,
      "Thus": 4059,
      "preced": 4060,
      "precious": 4061,
      "spect": 4062,
      "content": 4063,
      "contain": 4064,
      "occup": 4065,
      "divided": 4066,
      "diverse": 4067,
      "frame": 4068,
      "Room": 4069,
      "Robert": 4070,
      "disru": 4071,
      "buck": 4072,
      "Unlike": 4073,
      "Under": 4074,
      "IIFA": 4075,
      "charcoal": 4076,
      "okie": 4077,
      "operate": 4078,
      "operates": 4079,
      "And": 4080,
      "centime": 4081,
      "obtain": 4082,
      "turrets": 4083,
      "2001": 4084,
      "2002": 4085,
      "2003": 4086,
      "licences": 4087,
      "issipp": 4088,
      "engers": 4089,
      "seasons": 4090,
      "speculation": 4091,
      "glas": 4092,
      "glass": 4093,
      "going": 4094,
      "good": 4095,
      "consist": 4096,
      "adeth": 4097,
      "adequate": 4098,
      "anner": 4099,
      "annel": 4100,
      "annually": 4101,
      "cale": 4102,
      "caly": 4103,
      "serving": 4104,
      "aeroplan": 4105,
      "aerobatic": 4106,
      "correspond": 4107,
      "corporate": 4108,
      "minis": 4109,
      "minim": 4110,
      "ranked": 4111,
      "ranean": 4112,
      "Whig": 4113,
      "conditions": 4114,
      "1992": 4115,
      "records": 4116,
      "151": 4117,
      "157": 4118,
      "likely": 4119,
      "Secret": 4120,
      "gunboat": 4121,
      "cially": 4122,
      "weighed": 4123,
      "structure": 4124,
      "struggl": 4125,
      "gives": 4126,
      "rene": 4127,
      "renamed": 4128,
      "Def": 4129,
      "Department": 4130,
      "aham": 4131,
      "surface": 4132,
      "suppress": 4133,
      "1864": 4134,
      "1865": 4135,
      "isticated": 4136,
      "smallest": 4137,
      "Author": 4138,
      "Becht": 4139,
      "longer": 4140,
      "landing": 4141,
      "trading": 4142,
      "traditions": 4143,
      "Allen": 4144,
      "higher": 4145,
      "highway": 4146,
      "Maj": 4147,
      "mediate": 4148,
      "Leo": 4149,
      "Leadeth": 4150,
      "chose": 4151,
      "chosen": 4152,
      "1987": 4153,
      "personnel": 4154,
      "flag": 4155,
      "officer": 4156,
      "ogly": 4157,
      "ensive": 4158,
      "ismal": 4159,
      "purpose": 4160,
      "addon": 4161,
      "prevent": 4162,
      "epis": 4163,
      "score": 4164,
      "mythology": 4165,
      "denied": 4166,
      "venue": 4167,
      "Hornung": 4168,
      "winner": 4169,
      "caught": 4170,
      "promote": 4171,
      "populace": 4172,
      "cience": 4173,
      "flex": 4174,
      "evening": 4175,
      "continues": 4176,
      "arrived": 4177,
      "1942": 4178,
      "1943": 4179,
      "1948": 4180,
      "supported": 4181,
      "supporting": 4182,
      "burg": 4183,
      "bury": 4184,
      "burgh": 4185,
      "fungi": 4186,
      "criticized": 4187,
      "ggle": 4188,
      "1933": 4189,
      "1937": 4190,
      "1930s": 4191,
      "text": 4192,
      "capable": 4193,
      "capital": 4194,
      "join": 4195,
      "munitions": 4196,
      "influenced": 4197,
      "cape": 4198,
      "causing": 4199,
      "destination": 4200,
      "functions": 4201,
      "fellow": 4202,
      "governed": 4203,
      "passing": 4204,
      "locations": 4205,
      "ummer": 4206,
      "authorities": 4207,
      "authorized": 4208,
      "officially": 4209,
      "Brindis": 4210,
      "Canaan": 4211,
      "Calamity": 4212,
      "maskrays": 4213,
      "flood": 4214,
      "flotilla": 4215,
      "penetr": 4216,
      "deliver": 4217,
      "behavior": 4218,
      "worshipped": 4219,
      "Despite": 4220,
      "USS": 4221,
      "marks": 4222,
      "titled": 4223,
      "versions": 4224,
      "sequel": 4225,
      "postcards": 4226,
      "approxim": 4227,
      "protection": 4228,
      "qualified": 4229,
      "greatly": 4230,
      "rifle": 4231,
      "visual": 4232,
      "predominant": 4233,
      "1962": 4234,
      "shotguns": 4235,
      "battlefield": 4236,
      "cientific": 4237,
      "Richard": 4238,
      "haps": 4239,
      "microlight": 4240,
      "painted": 4241,
      "armament": 4242,
      "decisions": 4243,
      "restrict": 4244,
      "restricted": 4245,
      "resulting": 4246,
      "communication": 4247,
      "commissioning": 4248,
      "surrounded": 4249,
      "clubs": 4250,
      "diagno": 4251,
      "diameter": 4252,
      "getthoff": 4253,
      "devolved": 4254,
      "changed": 4255,
      "comeback": 4256,
      "extent": 4257,
      "introduction": 4258,
      "Organ": 4259,
      "females": 4260,
      "aspect": 4261,
      "polytheistic": 4262,
      "maintained": 4263,
      "Regular": 4264,
      "wooden": 4265,
      "suffering": 4266,
      "Government": 4267,
      "Lankan": 4268,
      "slowly": 4269,
      "onomy": 4270,
      "practice": 4271,
      "aptismal": 4272,
      "processions": 4273,
      "modeling": 4274,
      "shells": 4275,
      "dreadnoughts": 4276,
      "symbolic": 4277,
      "Similar": 4278,
      "rules": 4279,
      "safety": 4280,
      "squadron": 4281,
      "walls": 4282,
      "accidents": 4283,
      "decline": 4284,
      "aughter": 4285,
      "distributed": 4286,
      "distribution": 4287,
      "Battlefield": 4288,
      "economy": 4289,
      "Gliding": 4290,
      "Imperial": 4291,
      "Media": 4292,
      "Mediter": 4293,
      "Mississipp": 4294,
      "President": 4295,
      "Spalato": 4296,
      "Sydney": 4297,
      "threatened": 4298,
      "acquired": 4299,
      "vertical": 4300,
      "absorbed": 4301,
      "coaching": 4302,
      "responsible": 4303,
      "situations": 4304,
      "helicopter": 4305,
      "385": 4306,
      "Class": 4307,
      "Fruit": 4308,
      "Flying": 4309,
      "Tegetthoff": 4310,
      "Waldron": 4311,
      "drop": 4312,
      "satisf": 4313,
      "reflecting": 4314,
      "departed": 4315,
      "amental": 4316,
      "travel": 4317,
      "network": 4318,
      "expressed": 4319,
      "excluded": 4320,
      "manufacture": 4321,
      "depicting": 4322,
      "habitats": 4323,
      "Africa": 4324,
      "Dahau": 4325,
      "Henry": 4326,
      "Middle": 4327,
      "M1822": 4328,
      "cutive": 4329,
      "fundamental": 4330,
      "hierogly": 4331,
      "mummies": 4332,
      "window": 4333,
      "especially": 4334,
      "associated": 4335,
      "expected": 4336,
      "surrender": 4337,
      "epithets": 4338,
      "literature": 4339,
      "instrumentation": 4340,
      "demonstrated": 4341,
      "concerns": 4342,
      "Adriatic": 4343,
      "Again": 4344,
      "Nubia": 4345,
      "Sajid": 4346,
      "Treasury": 4347,
      "Todd": 4348,
      "eyes": 4349,
      "farmland": 4350,
      "machinery": 4351,
      "railroad": 4352,
      "argued": 4353,
      "stores": 4354,
      "quarters": 4355,
      "perspective": 4356,
      "Service": 4357,
      "legislation": 4358,
      "predecessors": 4359,
      "Characters": 4360,
      "Aerodrome": 4361,
      "environmental": 4362,
      "Montenegro": 4363,
      "Hymns": 4364,
      "Queen": 4365,
      "Radetz": 4366,
      "Turkey": 4367,
      "categor": 4368,
      "fantasy": 4369,
      "spruce": 4370,
      "sphere": 4371,
      "reinforce": 4372,
      "superior": 4373,
      "benefit": 4374,
      "Ordnance": 4375,
      "assembled": 4376,
      "citizens": 4377,
      "ceremonies": 4378,
      "Egyptologist": 4379,
      "Apocaly": 4380,
      "Abraham": 4381,
      "Akhenaten": 4382,
      "Background": 4383,
      "Breslau": 4384,
      "Darcsen": 4385,
      "Douglas": 4386,
      "David": 4387,
      "Darling": 4388,
      "Fuj": 4389,
      "Federal": 4390,
      "Groundsel": 4391,
      "ICAO": 4392,
      "Mumbai": 4393,
      "Pictures": 4394,
      "Ptah": 4395,
      "Tampa": 4396,
      "eagle": 4397,
      "eighth": 4398,
      "flesh": 4399,
      "honor": 4400,
      "langu": 4401,
      "vintage": 4402,
      "ァルキュ": 4403,
      "戦場のヴァルキュ": 4404,
      "determine": 4405,
      "lottery": 4406,
      "adapted": 4407,
      "poverty": 4408,
      "shootout": 4409,
      "sophisticated": 4410,
      "extensive": 4411,
      "Storrington": 4412,
      "Secretary": 4413,
      "Brindisi": 4414,
      "approximately": 4415,
      "Mediterranean": 4416,
      "Mississippi": 4417,
      "Waldrons": 4418,
      "Radetzky": 4419,
      "戦場のヴァルキュリア": 4420,
      "110": 4421,
      "2nd": 4422,
      "33": 4423,
      "3100": 4424,
      "57": 4425,
      "62": 4426,
      "64": 4427,
      "65": 4428,
      "70": 4429,
      "79": 4430,
      "700": 4431,
      "82": 4432,
      "84": 4433,
      "94": 4434,
      "900": 4435,
      "Ap": 4436,
      "Bes": 4437,
      "Bal": 4438,
      "Bur": 4439,
      "Bel": 4440,
      "Best": 4441,
      "Banner": 4442,
      "CN": 4443,
      "Cr": 4444,
      "Cent": 4445,
      "Catt": 4446,
      "Come": 4447,
      "Clay": 4448,
      "Clevel": 4449,
      "DL": 4450,
      "DV": 4451,
      "Dem": 4452,
      "Del": 4453,
      "Det": 4454,
      "Dave": 4455,
      "Dorn": 4456,
      "Dhaw": 4457,
      "Dasy": 4458,
      "EU": 4459,
      "Ev": 4460,
      "Ey": 4461,
      "Ele": 4462,
      "Fir": 4463,
      "Four": 4464,
      "Fren": 4465,
      "Foot": 4466,
      "Faul": 4467,
      "Guitar": 4468,
      "Hon": 4469,
      "Hang": 4470,
      "Habs": 4471,
      "IB": 4472,
      "Ist": 4473,
      "Jes": 4474,
      "Jen": 4475,
      "Jul": 4476,
      "Jose": 4477,
      "Ken": 4478,
      "Kim": 4479,
      "Kum": 4480,
      "Kate": 4481,
      "Lat": 4482,
      "Lar": 4483,
      "Live": 4484,
      "Let": 4485,
      "Lively": 4486,
      "Like": 4487,
      "Library": 4488,
      "LAA": 4489,
      "Lieutenant": 4490,
      "Mod": 4491,
      "Mur": 4492,
      "Map": 4493,
      "Maria": 4494,
      "M184": 4495,
      "Memp": 4496,
      "Matters": 4497,
      "Nad": 4498,
      "Not": 4499,
      "Nik": 4500,
      "Note": 4501,
      "NPPL": 4502,
      "Oz": 4503,
      "Our": 4504,
      "Ott": 4505,
      "Oilers": 4506,
      "PS": 4507,
      "Pto": 4508,
      "Pac": 4509,
      "Pez": 4510,
      "Player": 4511,
      "Pos": 4512,
      "Picture": 4513,
      "Ry": 4514,
      "Rus": 4515,
      "Race": 4516,
      "Riel": 4517,
      "So": 4518,
      "Sz": 4519,
      "Sing": 4520,
      "Sil": 4521,
      "Sun": 4522,
      "Slo": 4523,
      "Saf": 4524,
      "Song": 4525,
      "Scre": 4526,
      "Sports": 4527,
      "Scholars": 4528,
      "Strait": 4529,
      "Tom": 4530,
      "Tun": 4531,
      "Tak": 4532,
      "Tuck": 4533,
      "Terry": 4534,
      "Ven": 4535,
      "WW": 4536,
      "WY": 4537,
      "Wy": 4538,
      "Wil": 4539,
      "Wings": 4540,
      "Wood": 4541,
      "Waddon": 4542,
      "aur": 4543,
      "ape": 4544,
      "aut": 4545,
      "aign": 4546,
      "aight": 4547,
      "ault": 4548,
      "bi": 4549,
      "bar": 4550,
      "big": 4551,
      "bol": 4552,
      "border": 4553,
      "bank": 4554,
      "barr": 4555,
      "baptismal": 4556,
      "cu": 4557,
      "cis": 4558,
      "cles": 4559,
      "cular": 4560,
      "crow": 4561,
      "dig": 4562,
      "dang": 4563,
      "eper": 4564,
      "ete": 4565,
      "ease": 4566,
      "eben": 4567,
      "ff": 4568,
      "fat": 4569,
      "fers": 4570,
      "fall": 4571,
      "fres": 4572,
      "fell": 4573,
      "fix": 4574,
      "ffal": 4575,
      "gum": 4576,
      "gment": 4577,
      "gins": 4578,
      "garr": 4579,
      "gained": 4580,
      "garn": 4581,
      "hm": 4582,
      "hom": 4583,
      "hot": 4584,
      "hop": 4585,
      "hire": 4586,
      "hicles": 4587,
      "horn": 4588,
      "ien": 4589,
      "ifor": 4590,
      "ibe": 4591,
      "jan": 4592,
      "jou": 4593,
      "jun": 4594,
      "khe": 4595,
      "lind": 4596,
      "lists": 4597,
      "laces": 4598,
      "living": 4599,
      "lgren": 4600,
      "mat": 4601,
      "mal": 4602,
      "mas": 4603,
      "ming": 4604,
      "mist": 4605,
      "mits": 4606,
      "mates": 4607,
      "matur": 4608,
      "march": 4609,
      "nes": 4610,
      "nia": 4611,
      "none": 4612,
      "nour": 4613,
      "navy": 4614,
      "oo": 4615,
      "otry": 4616,
      "opra": 4617,
      "pa": 4618,
      "pse": 4619,
      "pine": 4620,
      "pace": 4621,
      "pull": 4622,
      "pix": 4623,
      "pier": 4624,
      "pisto": 4625,
      "rated": 4626,
      "rich": 4627,
      "right": 4628,
      "rhy": 4629,
      "racing": 4630,
      "sw": 4631,
      "sap": 4632,
      "sound": 4633,
      "ssing": 4634,
      "site": 4635,
      "slight": 4636,
      "spring": 4637,
      "sailed": 4638,
      "scop": 4639,
      "scale": 4640,
      "summer": 4641,
      "scientific": 4642,
      "tent": 4643,
      "tact": 4644,
      "tree": 4645,
      "tub": 4646,
      "task": 4647,
      "treat": 4648,
      "taugh": 4649,
      "taste": 4650,
      "uh": 4651,
      "uter": 4652,
      "uel": 4653,
      "uine": 4654,
      "ukh": 4655,
      "vá": 4656,
      "vol": 4657,
      "vision": 4658,
      "vague": 4659,
      "vanced": 4660,
      "wr": 4661,
      "wed": 4662,
      "wid": 4663,
      "wings": 4664,
      "winter": 4665,
      "yellow": 4666,
      "thm": 4667,
      "thum": 4668,
      "thick": 4669,
      "thousand": 4670,
      "ini": 4671,
      "inity": 4672,
      "insp": 4673,
      "informed": 4674,
      "inhab": 4675,
      "inhabit": 4676,
      "eras": 4677,
      "erce": 4678,
      "erted": 4679,
      "thed": 4680,
      "ana": 4681,
      "ano": 4682,
      "anic": 4683,
      "ants": 4684,
      "ange": 4685,
      "ancial": 4686,
      "onym": 4687,
      "ored": 4688,
      "orous": 4689,
      "orted": 4690,
      "orical": 4691,
      "orange": 4692,
      "esp": 4693,
      "escape": 4694,
      "encing": 4695,
      "enclosed": 4696,
      "enlisted": 4697,
      "engraver": 4698,
      "enjoy": 4699,
      "ennead": 4700,
      "aro": 4701,
      "aran": 4702,
      "arran": 4703,
      "argum": 4704,
      "aling": 4705,
      "alter": 4706,
      "alty": 4707,
      "altern": 4708,
      "alleg": 4709,
      "asp": 4710,
      "asized": 4711,
      "astern": 4712,
      "oft": 4713,
      "ander": 4714,
      "iser": 4715,
      "isis": 4716,
      "isia": 4717,
      "isition": 4718,
      "isations": 4719,
      "iti": 4720,
      "itsu": 4721,
      "repe": 4722,
      "repor": 4723,
      "reform": 4724,
      "really": 4725,
      "reports": 4726,
      "recy": 4727,
      "reception": 4728,
      "remarked": 4729,
      "remix": 4730,
      "tool": 4731,
      "told": 4732,
      "today": 4733,
      "tomed": 4734,
      "ican": 4735,
      "iced": 4736,
      "icate": 4737,
      "icated": 4738,
      "icapped": 4739,
      "roit": 4740,
      "rose": 4741,
      "roots": 4742,
      "rotro": 4743,
      "roster": 4744,
      "rott": 4745,
      "stings": 4746,
      "stating": 4747,
      "stages": 4748,
      "stars": 4749,
      "store": 4750,
      "stances": 4751,
      "hear": 4752,
      "heart": 4753,
      "accom": 4754,
      "acres": 4755,
      "lema": 4756,
      "learn": 4757,
      "forth": 4758,
      "deb": 4759,
      "deem": 4760,
      "deck": 4761,
      "deli": 4762,
      "irt": 4763,
      "enters": 4764,
      "amorous": 4765,
      "oma": 4766,
      "omn": 4767,
      "oment": 4768,
      "iling": 4769,
      "ilian": 4770,
      "sea": 4771,
      "seed": 4772,
      "sets": 4773,
      "secutive": 4774,
      "beat": 4775,
      "bear": 4776,
      "below": 4777,
      "unlock": 4778,
      "unlicensed": 4779,
      "ching": 4780,
      "channel": 4781,
      "loying": 4782,
      "ady": 4783,
      "aded": 4784,
      "adjust": 4785,
      "odg": 4786,
      "ays": 4787,
      "ayish": 4788,
      "urre": 4789,
      "imen": 4790,
      "imple": 4791,
      "improved": 4792,
      "immedi": 4793,
      "withdrew": 4794,
      "whom": 4795,
      "tsburgh": 4796,
      "tries": 4797,
      "trip": 4798,
      "trial": 4799,
      "tried": 4800,
      "trict": 4801,
      "contrad": 4802,
      "concur": 4803,
      "concussion": 4804,
      "confirm": 4805,
      "consecutive": 4806,
      "ules": 4807,
      "ulate": 4808,
      "ceased": 4809,
      "ceived": 4810,
      "ceiling": 4811,
      "umn": 4812,
      "umber": 4813,
      "umstances": 4814,
      "usion": 4815,
      "otted": 4816,
      "plies": 4817,
      "aves": 4818,
      "emin": 4819,
      "emph": 4820,
      "comers": 4821,
      "compos": 4822,
      "commented": 4823,
      "romant": 4824,
      "prise": 4825,
      "price": 4826,
      "1910": 4827,
      "1912": 4828,
      "1917": 4829,
      "1950": 4830,
      "1916": 4831,
      "1914": 4832,
      "agl": 4833,
      "ager": 4834,
      "agon": 4835,
      "agent": 4836,
      "agree": 4837,
      "ifiers": 4838,
      "shire": 4839,
      "shots": 4840,
      "shake": 4841,
      "shuto": 4842,
      "airman": 4843,
      "airship": 4844,
      "airships": 4845,
      "supre": 4846,
      "suitable": 4847,
      "ipal": 4848,
      "aband": 4849,
      "abilities": 4850,
      "afs": 4851,
      "percent": 4852,
      "permission": 4853,
      "iance": 4854,
      "neck": 4855,
      "crisis": 4856,
      "tech": 4857,
      "prope": 4858,
      "proper": 4859,
      "project": 4860,
      "artwork": 4861,
      "artists": 4862,
      "porary": 4863,
      "Instead": 4864,
      "herself": 4865,
      "worn": 4866,
      "worms": 4867,
      "anti": 4868,
      "existed": 4869,
      "exchange": 4870,
      "etime": 4871,
      "string": 4872,
      "strateg": 4873,
      "straight": 4874,
      "cool": 4875,
      "onged": 4876,
      "note": 4877,
      "notion": 4878,
      "unders": 4879,
      "cklaces": 4880,
      "ordin": 4881,
      "ordered": 4882,
      "lowest": 4883,
      "ansen": 4884,
      "ansion": 4885,
      "ishing": 4886,
      "forming": 4887,
      "ups": 4888,
      "uphold": 4889,
      "outgrowth": 4890,
      "Chopra": 4891,
      "vehicles": 4892,
      "portion": 4893,
      "plays": 4894,
      "opport": 4895,
      "opposed": 4896,
      "assisted": 4897,
      "assists": 4898,
      "assistant": 4899,
      "assault": 4900,
      "otherwise": 4901,
      "resc": 4902,
      "resurre": 4903,
      "commerce": 4904,
      "gets": 4905,
      "illness": 4906,
      "Arch": 4907,
      "moral": 4908,
      "20th": 4909,
      "duff": 4910,
      "meg": 4911,
      "aching": 4912,
      "Stand": 4913,
      "Still": 4914,
      "phs": 4915,
      "phil": 4916,
      "grant": 4917,
      "grayish": 4918,
      "ideas": 4919,
      "posit": 4920,
      "rites": 4921,
      "offers": 4922,
      "izing": 4923,
      "partially": 4924,
      "inting": 4925,
      "akespe": 4926,
      "autom": 4927,
      "Thoth": 4928,
      "aware": 4929,
      "prepar": 4930,
      "prepared": 4931,
      "spee": 4932,
      "spel": 4933,
      "speaking": 4934,
      "cled": 4935,
      "asons": 4936,
      "contem": 4937,
      "boards": 4938,
      "occas": 4939,
      "tych": 4940,
      "relate": 4941,
      "relatively": 4942,
      "diving": 4943,
      "division": 4944,
      "fru": 4945,
      "fring": 4946,
      "evolved": 4947,
      "feature": 4948,
      "feeling": 4949,
      "Road": 4950,
      "discus": 4951,
      "displaced": 4952,
      "disagree": 4953,
      "grossing": 4954,
      "ference": 4955,
      "nov": 4956,
      "noon": 4957,
      "Unlimited": 4958,
      "charter": 4959,
      "teammates": 4960,
      "presentative": 4961,
      "largest": 4962,
      "oks": 4963,
      "find": 4964,
      "financial": 4965,
      "operated": 4966,
      "operating": 4967,
      "Anub": 4968,
      "Anti": 4969,
      "bring": 4970,
      "obstru": 4971,
      "spons": 4972,
      "spital": 4973,
      "lio": 4974,
      "tured": 4975,
      "pleas": 4976,
      "layers": 4977,
      "mond": 4978,
      "monton": 4979,
      "interest": 4980,
      "interact": 4981,
      "Rele": 4982,
      "Representative": 4983,
      "2004": 4984,
      "licence": 4985,
      "icks": 4986,
      "includes": 4987,
      "engage": 4988,
      "spectrum": 4989,
      "ctioned": 4990,
      "glamorous": 4991,
      "consulted": 4992,
      "conscious": 4993,
      "newsp": 4994,
      "newcomers": 4995,
      "singer": 4996,
      "Neotry": 4997,
      "Necklaces": 4998,
      "annual": 4999,
      "calendar": 5000,
      "servation": 5001,
      "corr": 5002,
      "parents": 5003,
      "understanding": 5004,
      "underwent": 5005,
      "Among": 5006,
      "minus": 5007,
      "minute": 5008,
      "1993": 5009,
      "1995": 5010,
      "1999": 5011,
      "transit": 5012,
      "smith": 5013,
      "inson": 5014,
      "inside": 5015,
      "appeal": 5016,
      "Seas": 5017,
      "calling": 5018,
      "jeev": 5019,
      "Columbia": 5020,
      "brothers": 5021,
      "asking": 5022,
      "depth": 5023,
      "worldwide": 5024,
      "signs": 5025,
      "signing": 5026,
      "struggle": 5027,
      "rency": 5028,
      "sses": 5029,
      "Defin": 5030,
      "surfac": 5031,
      "surveying": 5032,
      "supposed": 5033,
      "1860": 5034,
      "1869": 5035,
      "appears": 5036,
      "backing": 5037,
      "militia": 5038,
      "overs": 5039,
      "Beh": 5040,
      "Begrand": 5041,
      "doing": 5042,
      "characteristic": 5043,
      "kner": 5044,
      "produces": 5045,
      "Allies": 5046,
      "releases": 5047,
      "Johansen": 5048,
      "countries": 5049,
      "write": 5050,
      "writer": 5051,
      "thorns": 5052,
      "invent": 5053,
      "invoked": 5054,
      "1921": 5055,
      "1926": 5056,
      "description": 5057,
      "describe": 5058,
      "Leafs": 5059,
      "starting": 5060,
      "choice": 5061,
      "powerful": 5062,
      "1983": 5063,
      "flap": 5064,
      "ios": 5065,
      "views": 5066,
      "submar": 5067,
      "subjects": 5068,
      "historical": 5069,
      "atures": 5070,
      "enses": 5071,
      "Works": 5072,
      "download": 5073,
      "receiving": 5074,
      "Airport": 5075,
      "Airspace": 5076,
      "Airworthiness": 5077,
      "effe": 5078,
      "efforts": 5079,
      "lesser": 5080,
      "missing": 5081,
      "patible": 5082,
      "succeeded": 5083,
      "130": 5084,
      "Only": 5085,
      "bonus": 5086,
      "founded": 5087,
      "request": 5088,
      "placing": 5089,
      "mythic": 5090,
      "Hungary": 5091,
      "didn": 5092,
      "venes": 5093,
      "Common": 5094,
      "Compet": 5095,
      "Engraver": 5096,
      "Horthy": 5097,
      "Rajeev": 5098,
      "families": 5099,
      "sett": 5100,
      "logen": 5101,
      "logies": 5102,
      "complete": 5103,
      "graphies": 5104,
      "differed": 5105,
      "succession": 5106,
      "limit": 5107,
      "memory": 5108,
      "prompted": 5109,
      "realms": 5110,
      "grown": 5111,
      "grows": 5112,
      "Buffal": 5113,
      "Feeding": 5114,
      "connecting": 5115,
      "observation": 5116,
      "cylind": 5117,
      "archite": 5118,
      "combination": 5119,
      "1940": 5120,
      "1940s": 5121,
      "Short": 5122,
      "Shakespe": 5123,
      "equally": 5124,
      "guard": 5125,
      "allows": 5126,
      "allowing": 5127,
      "commands": 5128,
      "Christmas": 5129,
      "panels": 5130,
      "1936": 5131,
      "systems": 5132,
      "Edition": 5133,
      "Edmonton": 5134,
      "caps": 5135,
      "influences": 5136,
      "towns": 5137,
      "expansion": 5138,
      "America": 5139,
      "Advanced": 5140,
      "breaking": 5141,
      "caused": 5142,
      "civilian": 5143,
      "destit": 5144,
      "governor": 5145,
      "passengers": 5146,
      "statue": 5147,
      "location": 5148,
      "Maxim": 5149,
      "publicly": 5150,
      "officials": 5151,
      "Cancer": 5152,
      "Canuck": 5153,
      "Calthrop": 5154,
      "Califor": 5155,
      "Senate": 5156,
      "Senators": 5157,
      "focused": 5158,
      "laborers": 5159,
      "laboratory": 5160,
      "sixth": 5161,
      "tribute": 5162,
      "phylogen": 5163,
      "Austrians": 5164,
      "Trans": 5165,
      "Trib": 5166,
      "pounder": 5167,
      "chaete": 5168,
      "profitable": 5169,
      "fruiting": 5170,
      "popularity": 5171,
      "Perhaps": 5172,
      "titles": 5173,
      "ensemble": 5174,
      "define": 5175,
      "defenses": 5176,
      "competitions": 5177,
      "identified": 5178,
      "appropr": 5179,
      "protective": 5180,
      "quality": 5181,
      "qualifiers": 5182,
      "months": 5183,
      "Haiti": 5184,
      "Serb": 5185,
      "Serbs": 5186,
      "basis": 5187,
      "distance": 5188,
      "freely": 5189,
      "moder": 5190,
      "millan": 5191,
      "visible": 5192,
      "begins": 5193,
      "1964": 5194,
      "iptions": 5195,
      "crucial": 5196,
      "ideology": 5197,
      "Extra": 5198,
      "Richmond": 5199,
      "iko": 5200,
      "ikes": 5201,
      "painting": 5202,
      "initial": 5203,
      "letter": 5204,
      "decided": 5205,
      "decades": 5206,
      "primarily": 5207,
      "communities": 5208,
      "community": 5209,
      "communicating": 5210,
      "Khenty": 5211,
      "margins": 5212,
      "picks": 5213,
      "saying": 5214,
      "organizations": 5215,
      "devotion": 5216,
      "illustrator": 5217,
      "advanced": 5218,
      "availability": 5219,
      "examples": 5220,
      "Charts": 5221,
      "Charles": 5222,
      "indicates": 5223,
      "increasing": 5224,
      "significantly": 5225,
      "Actress": 5226,
      "Aero": 5227,
      "Macmillan": 5228,
      "Official": 5229,
      "Orig": 5230,
      "Pilots": 5231,
      "cheaper": 5232,
      "damage": 5233,
      "northern": 5234,
      "police": 5235,
      "runways": 5236,
      "amongst": 5237,
      "polychaete": 5238,
      "Intermediate": 5239,
      "possession": 5240,
      "objective": 5241,
      "spirits": 5242,
      "spiracles": 5243,
      "drawn": 5244,
      "drawings": 5245,
      "hostile": 5246,
      "changeable": 5247,
      "youngest": 5248,
      "Historic": 5249,
      "Parrott": 5250,
      "falcon": 5251,
      "slowed": 5252,
      "onomical": 5253,
      "selection": 5254,
      "ushed": 5255,
      "1954": 5256,
      "credit": 5257,
      "playoffs": 5258,
      "collectively": 5259,
      "Croat": 5260,
      "Croats": 5261,
      "Divine": 5262,
      "Frank": 5263,
      "Francis": 5264,
      "Simon": 5265,
      "household": 5266,
      "magic": 5267,
      "magazine": 5268,
      "ruler": 5269,
      "vocal": 5270,
      "envision": 5271,
      "reasons": 5272,
      "starts": 5273,
      "accused": 5274,
      "emergency": 5275,
      "1973": 5276,
      "shows": 5277,
      "positively": 5278,
      "Andrews": 5279,
      "ironclads": 5280,
      "cruiser": 5281,
      "Goals": 5282,
      "Goeben": 5283,
      "Imca": 5284,
      "Preservation": 5285,
      "easily": 5286,
      "flowers": 5287,
      "horse": 5288,
      "horiz": 5289,
      "merge": 5290,
      "scrap": 5291,
      "acquisition": 5292,
      "deterior": 5293,
      "uniform": 5294,
      "loaded": 5295,
      "constructed": 5296,
      "words": 5297,
      "friend": 5298,
      "specialized": 5299,
      "certification": 5300,
      "individuals": 5301,
      "Brooke": 5302,
      "Brooks": 5303,
      "Planning": 5304,
      "Pittsburgh": 5305,
      "Rediff": 5306,
      "Team": 5307,
      "Torre": 5308,
      "boring": 5309,
      "fairies": 5310,
      "musical": 5311,
      "reflect": 5312,
      "ivalent": 5313,
      "praying": 5314,
      "elescope": 5315,
      "negot": 5316,
      "negative": 5317,
      "problem": 5318,
      "frontier": 5319,
      "Recordings": 5320,
      "directly": 5321,
      "recognised": 5322,
      "African": 5323,
      "Dahlgren": 5324,
      "Guard": 5325,
      "Guide": 5326,
      "Harrel": 5327,
      "Masand": 5328,
      "Military": 5329,
      "Norway": 5330,
      "Portable": 5331,
      "Steve": 5332,
      "Summer": 5333,
      "Summary": 5334,
      "Vancou": 5335,
      "campaign": 5336,
      "hierarch": 5337,
      "mounted": 5338,
      "viable": 5339,
      "valuable": 5340,
      "wala": 5341,
      "associations": 5342,
      "retained": 5343,
      "convinc": 5344,
      "convention": 5345,
      "grams": 5346,
      "gradu": 5347,
      "taxi": 5348,
      "surrendered": 5349,
      "counterfe": 5350,
      "epithet": 5351,
      "functioning": 5352,
      "Adrien": 5353,
      "Smith": 5354,
      "Small": 5355,
      "Soundtrack": 5356,
      "Temple": 5357,
      "Temples": 5358,
      "balloon": 5359,
      "balloons": 5360,
      "fantry": 5361,
      "festival": 5362,
      "mutiny": 5363,
      "target": 5364,
      "iconography": 5365,
      "iconographies": 5366,
      "stingray": 5367,
      "championship": 5368,
      "championships": 5369,
      "converted": 5370,
      "cells": 5371,
      "experience": 5372,
      "experienced": 5373,
      "interpreted": 5374,
      "Canadian": 5375,
      "steamer": 5376,
      "circumstances": 5377,
      "syncretized": 5378,
      "syncretism": 5379,
      "safely": 5380,
      "remuneration": 5381,
      "remunerated": 5382,
      "Azure": 5383,
      "Alex": 5384,
      "Alongside": 5385,
      "Billboard": 5386,
      "Flint": 5387,
      "Garden": 5388,
      "Joint": 5389,
      "Prior": 5390,
      "Samuel": 5391,
      "William": 5392,
      "battery": 5393,
      "duties": 5394,
      "housed": 5395,
      "iadwala": 5396,
      "treated": 5397,
      "anthropomor": 5398,
      "enemy": 5399,
      "defeated": 5400,
      "severely": 5401,
      "ultimately": 5402,
      "plicity": 5403,
      "shared": 5404,
      "quickly": 5405,
      "extends": 5406,
      "exclusively": 5407,
      "costumes": 5408,
      "photograph": 5409,
      "fertility": 5410,
      "monotheistic": 5411,
      "carrying": 5412,
      "Assmann": 5413,
      "substantial": 5414,
      "requirements": 5415,
      "Commander": 5416,
      "Additionally": 5417,
      "Description": 5418,
      "multiplicity": 5419,
      "component": 5420,
      "happy": 5421,
      "happened": 5422,
      "sanctuary": 5423,
      "422nd": 5424,
      "Awards": 5425,
      "Barry": 5426,
      "Gilii": 5427,
      "Holy": 5428,
      "Local": 5429,
      "Meridian": 5430,
      "Microlight": 5431,
      "NDTV": 5432,
      "PopMatters": 5433,
      "Predynastic": 5434,
      "Personal": 5435,
      "Potentials": 5436,
      "Revolution": 5437,
      "Rushie": 5438,
      "biography": 5439,
      "crosses": 5440,
      "journey": 5441,
      "killed": 5442,
      "sortie": 5443,
      "wisdom": 5444,
      "annotata": 5445,
      "attributes": 5446,
      "recommended": 5447,
      "rejected": 5448,
      "accompanying": 5449,
      "entrance": 5450,
      "amount": 5451,
      "universal": 5452,
      "challeng": 5453,
      "concludes": 5454,
      "constantly": 5455,
      "otrophic": 5456,
      "competed": 5457,
      "apparently": 5458,
      "telegraph": 5459,
      "mobilized": 5460,
      "cobra": 5461,
      "Championship": 5462,
      "veteran": 5463,
      "meteorological": 5464,
      "Stanley": 5465,
      "occupied": 5466,
      "framework": 5467,
      "centimeter": 5468,
      "aerobatics": 5469,
      "minimum": 5470,
      "Bechtler": 5471,
      "penetrate": 5472,
      "delivery": 5473,
      "predominantly": 5474,
      "restrictive": 5475,
      "diagnosed": 5476,
      "Fruitbodies": 5477,
      "satisfy": 5478,
      "hieroglyphs": 5479,
      "Against": 5480,
      "Apocalypse": 5481,
      "language": 5482,
      "戦場のヴァルキュリア3": 5483,
      "Cattaro": 5484,
      "Clayton": 5485,
      "Cleveland": 5486,
      "DLC": 5487,
      "DVD": 5488,
      "Detroit": 5489,
      "Dhawan": 5490,
      "Dasyat": 5491,
      "Eye": 5492,
      "First": 5493,
      "French": 5494,
      "Football": 5495,
      "Faulkner": 5496,
      "Honjou": 5497,
      "Habsburg": 5498,
      "Istvá": 5499,
      "Julian": 5500,
      "Joseph": 5501,
      "Kumar": 5502,
      "Latin": 5503,
      "Mariah": 5504,
      "Memphis": 5505,
      "Nadiadwala": 5506,
      "Ozawa": 5507,
      "Ptolema": 5508,
      "Pacific": 5509,
      "Peziza": 5510,
      "Ryan": 5511,
      "Russell": 5512,
      "Riela": 5513,
      "Szent": 5514,
      "Silent": 5515,
      "Slovenes": 5516,
      "Safety": 5517,
      "Songs": 5518,
      "Scream": 5519,
      "Tunisia": 5520,
      "WWII": 5521,
      "WYO": 5522,
      "Wyoming": 5523,
      "biotrophic": 5524,
      "barracks": 5525,
      "garrison": 5526,
      "garnered": 5527,
      "homes": 5528,
      "pixie": 5529,
      "rhythm": 5530,
      "saprotro": 5531,
      "tactical": 5532,
      "taught": 5533,
      "width": 5534,
      "thumously": 5535,
      "arranged": 5536,
      "alternating": 5537,
      "reporter": 5538,
      "recycled": 5539,
      "tools": 5540,
      "deemed": 5541,
      "deliber": 5542,
      "unlocked": 5543,
      "immediately": 5544,
      "triptych": 5545,
      "concurrency": 5546,
      "romantic": 5547,
      "shutout": 5548,
      "supreme": 5549,
      "strategic": 5550,
      "Anubis": 5551,
      "obstructions": 5552,
      "Neotrygon": 5553,
      "Buffalo": 5554,
      "cylinder": 5555,
      "Shakespeare": 5556,
      "Canucks": 5557,
      "California": 5558,
      "Vancouver": 5559,
      "István": 5560,
      "Ptolemaic": 5561,
      "saprotrophic": 5562,
      "250": 5563,
      "37": 5564,
      "39": 5565,
      "43": 5566,
      "46": 5567,
      "51": 5568,
      "55": 5569,
      "66": 5570,
      "600": 5571,
      "73": 5572,
      "76": 5573,
      "85": 5574,
      "87": 5575,
      "97": 5576,
      "99": 5577,
      "9th": 5578,
      "AD": 5579,
      "Ath": 5580,
      "Aay": 5581,
      "Ape": 5582,
      "Act": 5583,
      "Aby": 5584,
      "Ash": 5585,
      "Aut": 5586,
      "Ather": 5587,
      "Astr": 5588,
      "Apos": 5589,
      "Action": 5590,
      "AHL": 5591,
      "Awar": 5592,
      "Acting": 5593,
      "Agen": 5594,
      "Ba": 5595,
      "Bh": 5596,
      "Bon": 5597,
      "Bas": 5598,
      "Bil": 5599,
      "Big": 5600,
      "Bus": 5601,
      "Both": 5602,
      "Bio": 5603,
      "Block": 5604,
      "Bapt": 5605,
      "Ballo": 5606,
      "CD": 5607,
      "CL": 5608,
      "Cher": 5609,
      "Cice": 5610,
      "Cross": 5611,
      "Creek": 5612,
      "Cec": 5613,
      "Dh": 5614,
      "Dal": 5615,
      "Dre": 5616,
      "Dion": 5617,
      "Diss": 5618,
      "Dynast": 5619,
      "Dynastic": 5620,
      "Danti": 5621,
      "ET": 5622,
      "Est": 5623,
      "Even": 5624,
      "Eastern": 5625,
      "FR": 5626,
      "Fis": 5627,
      "Fle": 5628,
      "Fur": 5629,
      "Fem": 5630,
      "Five": 5631,
      "Flow": 5632,
      "Fri": 5633,
      "Father": 5634,
      "Fried": 5635,
      "Fabr": 5636,
      "FCL": 5637,
      "GP": 5638,
      "GS": 5639,
      "Gen": 5640,
      "Gho": 5641,
      "Ghost": 5642,
      "Gaur": 5643,
      "Hi": 5644,
      "Hal": 5645,
      "Has": 5646,
      "Hand": 5647,
      "Ham": 5648,
      "Hol": 5649,
      "Hav": 5650,
      "Hap": 5651,
      "Hel": 5652,
      "Hate": 5653,
      "Hell": 5654,
      "Hash": 5655,
      "Hamp": 5656,
      "Hollywood": 5657,
      "Hana": 5658,
      "Hodg": 5659,
      "IU": 5660,
      "If": 5661,
      "Ice": 5662,
      "Ign": 5663,
      "Jones": 5664,
      "Jaan": 5665,
      "Kr": 5666,
      "Khe": 5667,
      "Kub": 5668,
      "Kah": 5669,
      "Kris": 5670,
      "Lon": 5671,
      "Lor": 5672,
      "Lem": 5673,
      "List": 5674,
      "Lord": 5675,
      "Mo": 5676,
      "Mat": 5677,
      "Mes": 5678,
      "Mis": 5679,
      "Mun": 5680,
      "Mus": 5681,
      "Mess": 5682,
      "Mag": 5683,
      "Mut": 5684,
      "Mart": 5685,
      "Moun": 5686,
      "Met": 5687,
      "Mgr": 5688,
      "Mark": 5689,
      "Mos": 5690,
      "Mont": 5691,
      "Mike": 5692,
      "NA": 5693,
      "Non": 5694,
      "Nation": 5695,
      "Nav": 5696,
      "Nine": 5697,
      "None": 5698,
      "Nass": 5699,
      "Nature": 5700,
      "Next": 5701,
      "Ob": 5702,
      "Over": 5703,
      "Out": 5704,
      "Own": 5705,
      "PA": 5706,
      "Py": 5707,
      "Pan": 5708,
      "Pon": 5709,
      "Pal": 5710,
      "Pad": 5711,
      "Pul": 5712,
      "Pum": 5713,
      "Pip": 5714,
      "Page": 5715,
      "Pray": 5716,
      "Pont": 5717,
      "PET": 5718,
      "Ran": 5719,
      "Ron": 5720,
      "Ren": 5721,
      "Rand": 5722,
      "Ric": 5723,
      "Ram": 5724,
      "Rol": 5725,
      "Ret": 5726,
      "Races": 5727,
      "Racing": 5728,
      "Sk": 5729,
      "Sou": 5730,
      "Som": 5731,
      "Sus": 5732,
      "Spl": 5733,
      "Sain": 5734,
      "Sok": 5735,
      "Sub": 5736,
      "Scal": 5737,
      "Sever": 5738,
      "Sho": 5739,
      "Ship": 5740,
      "Sank": 5741,
      "Sier": 5742,
      "Span": 5743,
      "Supper": 5744,
      "Swan": 5745,
      "Sundial": 5746,
      "TO": 5747,
      "TZ": 5748,
      "Ty": 5749,
      "Ter": 5750,
      "Tan": 5751,
      "Ton": 5752,
      "Tim": 5753,
      "Tex": 5754,
      "Tour": 5755,
      "Treat": 5756,
      "Tarr": 5757,
      "TGS": 5758,
      "Ul": 5759,
      "Ut": 5760,
      "Ver": 5761,
      "Var": 5762,
      "Vol": 5763,
      "Vers": 5764,
      "Vict": 5765,
      "VFR": 5766,
      "Won": 5767,
      "Wish": 5768,
      "Wass": 5769,
      "Wild": 5770,
      "Wash": 5771,
      "Woman": 5772,
      "Yu": 5773,
      "athro": 5774,
      "apel": 5775,
      "bal": 5776,
      "bre": 5777,
      "bul": 5778,
      "bare": 5779,
      "blu": 5780,
      "bold": 5781,
      "bound": 5782,
      "bull": 5783,
      "bore": 5784,
      "bai": 5785,
      "cam": 5786,
      "cil": 5787,
      "ctr": 5788,
      "cip": 5789,
      "catt": 5790,
      "ccess": 5791,
      "cended": 5792,
      "dy": 5793,
      "ding": 5794,
      "dim": 5795,
      "date": 5796,
      "die": 5797,
      "dated": 5798,
      "dance": 5799,
      "dors": 5800,
      "darker": 5801,
      "dict": 5802,
      "dwar": 5803,
      "dible": 5804,
      "dying": 5805,
      "daughter": 5806,
      "ee": 5807,
      "ew": 5808,
      "ecl": 5809,
      "eficial": 5810,
      "fo": 5811,
      "fre": 5812,
      "fro": 5813,
      "fare": 5814,
      "fine": 5815,
      "fits": 5816,
      "fail": 5817,
      "freed": 5818,
      "fighter": 5819,
      "fabr": 5820,
      "fishes": 5821,
      "gent": 5822,
      "gam": 5823,
      "gare": 5824,
      "gain": 5825,
      "gow": 5826,
      "gree": 5827,
      "guit": 5828,
      "gather": 5829,
      "hu": 5830,
      "hin": 5831,
      "hen": 5832,
      "hard": 5833,
      "hund": 5834,
      "hiz": 5835,
      "hau": 5836,
      "hates": 5837,
      "hired": 5838,
      "ih": 5839,
      "iac": 5840,
      "ium": 5841,
      "iative": 5842,
      "iopolis": 5843,
      "ja": 5844,
      "ji": 5845,
      "ju": 5846,
      "jda": 5847,
      "ki": 5848,
      "kas": 5849,
      "kod": 5850,
      "kuh": 5851,
      "kinson": 5852,
      "lers": 5853,
      "lated": 5854,
      "lord": 5855,
      "laid": 5856,
      "lision": 5857,
      "lines": 5858,
      "lvan": 5859,
      "mine": 5860,
      "mish": 5861,
      "mally": 5862,
      "mint": 5863,
      "mason": 5864,
      "mile": 5865,
      "mical": 5866,
      "mud": 5867,
      "marr": 5868,
      "merg": 5869,
      "matter": 5870,
      "mns": 5871,
      "minted": 5872,
      "moment": 5873,
      "nin": 5874,
      "nal": 5875,
      "nic": 5876,
      "nur": 5877,
      "ners": 5878,
      "nish": 5879,
      "nations": 5880,
      "nell": 5881,
      "nsy": 5882,
      "nomination": 5883,
      "ox": 5884,
      "oter": 5885,
      "oid": 5886,
      "option": 5887,
      "pit": 5888,
      "pun": 5889,
      "phis": 5890,
      "pend": 5891,
      "pment": 5892,
      "psy": 5893,
      "paid": 5894,
      "piety": 5895,
      "pacing": 5896,
      "picture": 5897,
      "pkin": 5898,
      "rac": 5899,
      "rad": 5900,
      "rur": 5901,
      "rus": 5902,
      "rap": 5903,
      "rate": 5904,
      "righ": 5905,
      "rill": 5906,
      "rick": 5907,
      "rise": 5908,
      "raid": 5909,
      "rights": 5910,
      "rently": 5911,
      "rivals": 5912,
      "sand": 5913,
      "squ": 5914,
      "save": 5915,
      "sions": 5916,
      "scar": 5917,
      "sick": 5918,
      "scan": 5919,
      "sports": 5920,
      "sink": 5921,
      "sought": 5922,
      "schol": 5923,
      "sitting": 5924,
      "session": 5925,
      "stood": 5926,
      "science": 5927,
      "soft": 5928,
      "saves": 5929,
      "spraying": 5930,
      "tum": 5931,
      "tip": 5932,
      "tight": 5933,
      "ture": 5934,
      "table": 5935,
      "tific": 5936,
      "tended": 5937,
      "tank": 5938,
      "tug": 5939,
      "telescope": 5940,
      "ux": 5941,
      "udes": 5942,
      "ucture": 5943,
      "uaries": 5944,
      "viv": 5945,
      "vention": 5946,
      "wat": 5947,
      "wre": 5948,
      "ware": 5949,
      "want": 5950,
      "wish": 5951,
      "xford": 5952,
      "xonomy": 5953,
      "yet": 5954,
      "yles": 5955,
      "youth": 5956,
      "yards": 5957,
      "yses": 5958,
      "zz": 5959,
      "zetta": 5960,
      "Škod": 5961,
      "の花": 5962,
      "think": 5963,
      "thwa": 5964,
      "inn": 5965,
      "inx": 5966,
      "inal": 5967,
      "inion": 5968,
      "intr": 5969,
      "inine": 5970,
      "inspe": 5971,
      "inese": 5972,
      "inctively": 5973,
      "inhib": 5974,
      "informal": 5975,
      "inaug": 5976,
      "inadequate": 5977,
      "erie": 5978,
      "erge": 5979,
      "erved": 5980,
      "erased": 5981,
      "erters": 5982,
      "erbai": 5983,
      "theast": 5984,
      "anc": 5985,
      "anem": 5986,
      "anings": 5987,
      "anno": 5988,
      "anwhile": 5989,
      "anche": 5990,
      "anules": 5991,
      "oned": 5992,
      "onic": 5993,
      "onts": 5994,
      "editions": 5995,
      "orac": 5996,
      "orter": 5997,
      "orado": 5998,
      "orches": 5999,
      "aty": 6000,
      "aton": 6001,
      "attr": 6002,
      "atus": 6003,
      "atmo": 6004,
      "atov": 6005,
      "atanic": 6006,
      "ester": 6007,
      "esha": 6008,
      "eshi": 6009,
      "esoter": 6010,
      "ena": 6011,
      "enz": 6012,
      "enar": 6013,
      "ende": 6014,
      "enge": 6015,
      "enacted": 6016,
      "arth": 6017,
      "arte": 6018,
      "arity": 6019,
      "arous": 6020,
      "arning": 6021,
      "arche": 6022,
      "ald": 6023,
      "alent": 6024,
      "alman": 6025,
      "alone": 6026,
      "align": 6027,
      "alry": 6028,
      "already": 6029,
      "alanche": 6030,
      "asers": 6031,
      "asci": 6032,
      "asgow": 6033,
      "ismo": 6034,
      "istop": 6035,
      "ismeg": 6036,
      "itis": 6037,
      "itch": 6038,
      "item": 6039,
      "itated": 6040,
      "itude": 6041,
      "rey": 6042,
      "rear": 6043,
      "rect": 6044,
      "rever": 6045,
      "recr": 6046,
      "remed": 6047,
      "replace": 6048,
      "reement": 6049,
      "remembers": 6050,
      "remit": 6051,
      "reply": 6052,
      "rearmed": 6053,
      "replied": 6054,
      "reminis": 6055,
      "reenacted": 6056,
      "tolic": 6057,
      "totro": 6058,
      "toler": 6059,
      "ionally": 6060,
      "icing": 6061,
      "icam": 6062,
      "icts": 6063,
      "icism": 6064,
      "rough": 6065,
      "rookie": 6066,
      "sted": 6067,
      "stair": 6068,
      "stations": 6069,
      "static": 6070,
      "starr": 6071,
      "stacles": 6072,
      "styles": 6073,
      "sticam": 6074,
      "height": 6075,
      "heka": 6076,
      "helio": 6077,
      "outer": 6078,
      "aced": 6079,
      "acorn": 6080,
      "accus": 6081,
      "lege": 6082,
      "leave": 6083,
      "leak": 6084,
      "lebr": 6085,
      "learning": 6086,
      "forest": 6087,
      "forests": 6088,
      "lyn": 6089,
      "lying": 6090,
      "lymph": 6091,
      "dell": 6092,
      "delic": 6093,
      "decor": 6094,
      "deep": 6095,
      "deceased": 6096,
      "deposit": 6097,
      "degree": 6098,
      "ira": 6099,
      "irits": 6100,
      "irty": 6101,
      "irational": 6102,
      "irable": 6103,
      "irregular": 6104,
      "enti": 6105,
      "entered": 6106,
      "entry": 6107,
      "amid": 6108,
      "amond": 6109,
      "omin": 6110,
      "ombo": 6111,
      "ominations": 6112,
      "ila": 6113,
      "ilia": 6114,
      "ilton": 6115,
      "ilica": 6116,
      "ilisation": 6117,
      "sem": 6118,
      "seat": 6119,
      "seized": 6120,
      "search": 6121,
      "secure": 6122,
      "bek": 6123,
      "bet": 6124,
      "bears": 6125,
      "iven": 6126,
      "ivile": 6127,
      "iveness": 6128,
      "unk": 6129,
      "unless": 6130,
      "unofficial": 6131,
      "uncontrolled": 6132,
      "unsure": 6133,
      "unlikely": 6134,
      "uncles": 6135,
      "chy": 6136,
      "cher": 6137,
      "chart": 6138,
      "chief": 6139,
      "chairman": 6140,
      "chasers": 6141,
      "terton": 6142,
      "terior": 6143,
      "terti": 6144,
      "lod": 6145,
      "loom": 6146,
      "lose": 6147,
      "loving": 6148,
      "ada": 6149,
      "adin": 6150,
      "aders": 6151,
      "adow": 6152,
      "advis": 6153,
      "admitted": 6154,
      "address": 6155,
      "odd": 6156,
      "odic": 6157,
      "ayl": 6158,
      "ayash": 6159,
      "uria": 6160,
      "urality": 6161,
      "urban": 6162,
      "urbing": 6163,
      "igall": 6164,
      "igious": 6165,
      "ereas": 6166,
      "imals": 6167,
      "impress": 6168,
      "imbing": 6169,
      "improve": 6170,
      "oll": 6171,
      "olent": 6172,
      "tru": 6173,
      "tration": 6174,
      "tray": 6175,
      "trend": 6176,
      "triple": 6177,
      "trips": 6178,
      "triad": 6179,
      "conif": 6180,
      "concent": 6181,
      "consequ": 6182,
      "congress": 6183,
      "concert": 6184,
      "convey": 6185,
      "ulf": 6186,
      "ulg": 6187,
      "uli": 6188,
      "ults": 6189,
      "ulum": 6190,
      "celebr": 6191,
      "uments": 6192,
      "users": 6193,
      "otland": 6194,
      "pled": 6195,
      "plate": 6196,
      "plant": 6197,
      "plates": 6198,
      "plurality": 6199,
      "avalry": 6200,
      "pector": 6201,
      "peaked": 6202,
      "weret": 6203,
      "emotion": 6204,
      "emerge": 6205,
      "compr": 6206,
      "comfort": 6207,
      "complain": 6208,
      "compatible": 6209,
      "ctations": 6210,
      "ctives": 6211,
      "ids": 6212,
      "idal": 6213,
      "idly": 6214,
      "idance": 6215,
      "pothe": 6216,
      "pri": 6217,
      "prio": 6218,
      "printed": 6219,
      "printing": 6220,
      "privile": 6221,
      "vertheless": 6222,
      "versely": 6223,
      "apis": 6224,
      "apter": 6225,
      "appr": 6226,
      "apher": 6227,
      "approv": 6228,
      "apply": 6229,
      "applies": 6230,
      "else": 6231,
      "elong": 6232,
      "agi": 6233,
      "agents": 6234,
      "agments": 6235,
      "agreement": 6236,
      "alludes": 6237,
      "ift": 6238,
      "iful": 6239,
      "shay": 6240,
      "share": 6241,
      "shall": 6242,
      "shut": 6243,
      "shaft": 6244,
      "shoot": 6245,
      "shallow": 6246,
      "shops": 6247,
      "shorter": 6248,
      "shadow": 6249,
      "uting": 6250,
      "utari": 6251,
      "utilisation": 6252,
      "airport": 6253,
      "sued": 6254,
      "suit": 6255,
      "sustained": 6256,
      "ipped": 6257,
      "iparous": 6258,
      "abstr": 6259,
      "abund": 6260,
      "afford": 6261,
      "affil": 6262,
      "affect": 6263,
      "perate": 6264,
      "perfect": 6265,
      "perceived": 6266,
      "istus": 6267,
      "istance": 6268,
      "istorted": 6269,
      "neigh": 6270,
      "newer": 6271,
      "crushed": 6272,
      "keeper": 6273,
      "thermore": 6274,
      "ieg": 6275,
      "ieve": 6276,
      "iewer": 6277,
      "ieux": 6278,
      "esty": 6279,
      "estones": 6280,
      "teous": 6281,
      "tegr": 6282,
      "teaching": 6283,
      "program": 6284,
      "projects": 6285,
      "proceeded": 6286,
      "prospect": 6287,
      "proprio": 6288,
      "artist": 6289,
      "artistic": 6290,
      "porarily": 6291,
      "portraits": 6292,
      "portray": 6293,
      "histotro": 6294,
      "Infantry": 6295,
      "heres": 6296,
      "herent": 6297,
      "wore": 6298,
      "earned": 6299,
      "mologies": 6300,
      "actor": 6301,
      "actually": 6302,
      "acknow": 6303,
      "quities": 6304,
      "quant": 6305,
      "queen": 6306,
      "inek": 6307,
      "ender": 6308,
      "endor": 6309,
      "endly": 6310,
      "endors": 6311,
      "exported": 6312,
      "excited": 6313,
      "exhau": 6314,
      "exterior": 6315,
      "etc": 6316,
      "eted": 6317,
      "etic": 6318,
      "strate": 6319,
      "strike": 6320,
      "strength": 6321,
      "coes": 6322,
      "coached": 6323,
      "covers": 6324,
      "cology": 6325,
      "coexisted": 6326,
      "gyro": 6327,
      "manner": 6328,
      "manga": 6329,
      "undistorted": 6330,
      "ordial": 6331,
      "maison": 6332,
      "ishment": 6333,
      "mentioned": 6334,
      "upp": 6335,
      "upset": 6336,
      "upama": 6337,
      "bute": 6338,
      "outed": 6339,
      "outbreak": 6340,
      "outfits": 6341,
      "Chapel": 6342,
      "Chinese": 6343,
      "Chapter": 6344,
      "1800": 6345,
      "1821": 6346,
      "1853": 6347,
      "1879": 6348,
      "porting": 6349,
      "opers": 6350,
      "opener": 6351,
      "opinion": 6352,
      "assed": 6353,
      "assessed": 6354,
      "residence": 6355,
      "reserve": 6356,
      "results": 6357,
      "commenced": 6358,
      "illand": 6359,
      "illae": 6360,
      "illery": 6361,
      "Arts": 6362,
      "Arjun": 6363,
      "Argent": 6364,
      "morels": 6365,
      "morality": 6366,
      "203": 6367,
      "descended": 6368,
      "overtime": 6369,
      "overarch": 6370,
      "overlap": 6371,
      "duke": 6372,
      "method": 6373,
      "meanings": 6374,
      "achuting": 6375,
      "achieve": 6376,
      "Stories": 6377,
      "pha": 6378,
      "phant": 6379,
      "grin": 6380,
      "grass": 6381,
      "granules": 6382,
      "grapher": 6383,
      "idean": 6384,
      "ideal": 6385,
      "attention": 6386,
      "attende": 6387,
      "positions": 6388,
      "posthumously": 6389,
      "ritory": 6390,
      "ritually": 6391,
      "offensive": 6392,
      "oldest": 6393,
      "serious": 6394,
      "Hejda": 6395,
      "asted": 6396,
      "astic": 6397,
      "parted": 6398,
      "partly": 6399,
      "partner": 6400,
      "intense": 6401,
      "intention": 6402,
      "ibers": 6403,
      "ibayash": 6404,
      "ller": 6405,
      "aki": 6406,
      "ause": 6407,
      "audition": 6408,
      "auctioned": 6409,
      "audible": 6410,
      "Thom": 6411,
      "Three": 6412,
      "Threat": 6413,
      "Thousand": 6414,
      "award": 6415,
      "prey": 6416,
      "prehistory": 6417,
      "prefers": 6418,
      "preemin": 6419,
      "incess": 6420,
      "incident": 6421,
      "spell": 6422,
      "cler": 6423,
      "climbing": 6424,
      "contention": 6425,
      "contained": 6426,
      "owners": 6427,
      "boats": 6428,
      "irect": 6429,
      "presided": 6430,
      "tying": 6431,
      "vedere": 6432,
      "relations": 6433,
      "relief": 6434,
      "relatives": 6435,
      "diverg": 6436,
      "fronts": 6437,
      "fragments": 6438,
      "evil": 6439,
      "ureau": 6440,
      "Rookie": 6441,
      "displayed": 6442,
      "dispat": 6443,
      "disci": 6444,
      "disappeared": 6445,
      "dismissed": 6446,
      "disease": 6447,
      "groin": 6448,
      "ferring": 6449,
      "chartrain": 6450,
      "charitable": 6451,
      "presented": 6452,
      "finite": 6453,
      "financed": 6454,
      "operator": 6455,
      "operators": 6456,
      "Anton": 6457,
      "Ancient": 6458,
      "Animals": 6459,
      "Anupama": 6460,
      "centre": 6461,
      "centers": 6462,
      "afterlife": 6463,
      "afterward": 6464,
      "afternoon": 6465,
      "bron": 6466,
      "brig": 6467,
      "branch": 6468,
      "observed": 6469,
      "obsc": 6470,
      "obstacles": 6471,
      "spar": 6472,
      "spotted": 6473,
      "spikes": 6474,
      "spheres": 6475,
      "lii": 6476,
      "plets": 6477,
      "pleased": 6478,
      "plemental": 6479,
      "mons": 6480,
      "interior": 6481,
      "interactions": 6482,
      "interrelated": 6483,
      "interacted": 6484,
      "Reform": 6485,
      "Repair": 6486,
      "Valerie": 6487,
      "carri": 6488,
      "caridean": 6489,
      "engined": 6490,
      "myself": 6491,
      "mycorr": 6492,
      "mysticam": 6493,
      "indirect": 6494,
      "specified": 6495,
      "specimen": 6496,
      "cannot": 6497,
      "canopy": 6498,
      "Valkyira": 6499,
      "goes": 6500,
      "gosl": 6501,
      "gospel": 6502,
      "lacks": 6503,
      "consult": 6504,
      "Colton": 6505,
      "Colorado": 6506,
      "College": 6507,
      "Colombo": 6508,
      "fourteen": 6509,
      "Valkyrian": 6510,
      "ifice": 6511,
      "ifications": 6512,
      "Neith": 6513,
      "Nekhe": 6514,
      "Nevertheless": 6515,
      "dry": 6516,
      "drum": 6517,
      "drama": 6518,
      "annular": 6519,
      "calibers": 6520,
      "servatory": 6521,
      "servants": 6522,
      "core": 6523,
      "corners": 6524,
      "paration": 6525,
      "parate": 6526,
      "paraph": 6527,
      "parachute": 6528,
      "paragl": 6529,
      "understand": 6530,
      "underlying": 6531,
      "symp": 6532,
      "toned": 6533,
      "belonged": 6534,
      "cloth": 6535,
      "clothes": 6536,
      "mines": 6537,
      "rank": 6538,
      "ranks": 6539,
      "ranging": 6540,
      "Whereas": 6541,
      "condition": 6542,
      "1994": 6543,
      "1996": 6544,
      "representatives": 6545,
      "ictory": 6546,
      "150": 6547,
      "152": 6548,
      "1550": 6549,
      "1580": 6550,
      "1582": 6551,
      "translation": 6552,
      "transcend": 6553,
      "translated": 6554,
      "persons": 6555,
      "Sekh": 6556,
      "Seasons": 6557,
      "velopment": 6558,
      "Columbian": 6559,
      "aids": 6560,
      "depot": 6561,
      "depending": 6562,
      "depictions": 6563,
      "depicts": 6564,
      "dominant": 6565,
      "tempo": 6566,
      "temporarily": 6567,
      "weight": 6568,
      "webs": 6569,
      "warm": 6570,
      "rounding": 6571,
      "believe": 6572,
      "rences": 6573,
      "renov": 6574,
      "renumber": 6575,
      "sson": 6576,
      "Debut": 6577,
      "Dekan": 6578,
      "Development": 6579,
      "hole": 6580,
      "hood": 6581,
      "hope": 6582,
      "hotra": 6583,
      "hospital": 6584,
      "piloth": 6585,
      "surprise": 6586,
      "origins": 6587,
      "remains": 6588,
      "backed": 6589,
      "milk": 6590,
      "Beg": 6591,
      "Before": 6592,
      "dos": 6593,
      "door": 6594,
      "doctors": 6595,
      "classic": 6596,
      "classified": 6597,
      "colors": 6598,
      "collision": 6599,
      "landed": 6600,
      "uded": 6601,
      "anger": 6602,
      "aphors": 6603,
      "product": 6604,
      "producer": 6605,
      "humanity": 6606,
      "AllMusic": 6607,
      "follows": 6608,
      "activate": 6609,
      "activism": 6610,
      "continent": 6611,
      "media": 6612,
      "medley": 6613,
      "publish": 6614,
      "secondary": 6615,
      "1927": 6616,
      "1928": 6617,
      "orderly": 6618,
      "descriptions": 6619,
      "Leone": 6620,
      "Leading": 6621,
      "Lepisto": 6622,
      "standout": 6623,
      "1984": 6624,
      "1980s": 6625,
      "personally": 6626,
      "flat": 6627,
      "flatt": 6628,
      "currently": 6629,
      "genera": 6630,
      "generic": 6631,
      "generated": 6632,
      "ogue": 6633,
      "12th": 6634,
      "Conference": 6635,
      "Conservation": 6636,
      "Connell": 6637,
      "Conversely": 6638,
      "kingship": 6639,
      "ashes": 6640,
      "ashion": 6641,
      "receive": 6642,
      "provision": 6643,
      "province": 6644,
      "Airports": 6645,
      "effect": 6646,
      "effected": 6647,
      "atorial": 6648,
      "134": 6649,
      "139": 6650,
      "172": 6651,
      "Altern": 6652,
      "Aladin": 6653,
      "Ontar": 6654,
      "bony": 6655,
      "bonfire": 6656,
      "scorer": 6657,
      "requested": 6658,
      "Atlantic": 6659,
      "developing": 6660,
      "denominations": 6661,
      "oscope": 6662,
      "venge": 6663,
      "leader": 6664,
      "regulate": 6665,
      "regulating": 6666,
      "regulator": 6667,
      "Commit": 6668,
      "Commod": 6669,
      "Raita": 6670,
      "Raja": 6671,
      "setting": 6672,
      "setlist": 6673,
      "logical": 6674,
      "keyboards": 6675,
      "graphics": 6676,
      "describes": 6677,
      "successor": 6678,
      "successors": 6679,
      "athi": 6680,
      "memorial": 6681,
      "promulg": 6682,
      "ambul": 6683,
      "population": 6684,
      "Christop": 6685,
      "growing": 6686,
      "donated": 6687,
      "element": 6688,
      "trained": 6689,
      "connects": 6690,
      "connections": 6691,
      "nament": 6692,
      "instit": 6693,
      "instinctively": 6694,
      "arrest": 6695,
      "combat": 6696,
      "1944": 6697,
      "1946": 6698,
      "Form": 6699,
      "Forces": 6700,
      "Forever": 6701,
      "Shu": 6702,
      "Shawn": 6703,
      "burning": 6704,
      "equivalent": 6705,
      "equatorial": 6706,
      "guess": 6707,
      "guaran": 6708,
      "guidance": 6709,
      "green": 6710,
      "animation": 6711,
      "pressure": 6712,
      "critically": 6713,
      "criticism": 6714,
      "508": 6715,
      "films": 6716,
      "pantheistic": 6717,
      "anchor": 6718,
      "heads": 6719,
      "headdress": 6720,
      "headquarters": 6721,
      "localized": 6722,
      "pointed": 6723,
      "1934": 6724,
      "1938": 6725,
      "Edward": 6726,
      "Edfu": 6727,
      "captain": 6728,
      "captured": 6729,
      "germin": 6730,
      "joint": 6731,
      "menium": 6732,
      "pairs": 6733,
      "varies": 6734,
      "influencing": 6735,
      "town": 6736,
      "towers": 6737,
      "toward": 6738,
      "explo": 6739,
      "expense": 6740,
      "expensive": 6741,
      "covery": 6742,
      "periodically": 6743,
      "240": 6744,
      "247": 6745,
      "Adminis": 6746,
      "Avalanche": 6747,
      "azio": 6748,
      "bands": 6749,
      "banded": 6750,
      "breakout": 6751,
      "causes": 6752,
      "custom": 6753,
      "civilization": 6754,
      "governance": 6755,
      "passes": 6756,
      "passage": 6757,
      "statistic": 6758,
      "authorizing": 6759,
      "membership": 6760,
      "Italians": 6761,
      "1650": 6762,
      "Boy": 6763,
      "Bruins": 6764,
      "Coptic": 6765,
      "Calendar": 6766,
      "Hermes": 6767,
      "Senator": 6768,
      "Senigall": 6769,
      "focusing": 6770,
      "handed": 6771,
      "handled": 6772,
      "handling": 6773,
      "handicapped": 6774,
      "sixty": 6775,
      "sixteen": 6776,
      "inka": 6777,
      "studied": 6778,
      "commoners": 6779,
      "Austrian": 6780,
      "Peale": 6781,
      "Track": 6782,
      "Trismeg": 6783,
      "culmin": 6784,
      "faces": 6785,
      "floors": 6786,
      "hymns": 6787,
      "hypothe": 6788,
      "hymenium": 6789,
      "nerable": 6790,
      "penal": 6791,
      "armory": 6792,
      "rows": 6793,
      "profound": 6794,
      "fruitbody": 6795,
      "filmmak": 6796,
      "Europan": 6797,
      "Design": 6798,
      "Deshm": 6799,
      "Permit": 6800,
      "USN": 6801,
      "blockading": 6802,
      "blockaders": 6803,
      "factory": 6804,
      "factors": 6805,
      "metaphors": 6806,
      "multitude": 6807,
      "sometime": 6808,
      "sunk": 6809,
      "fortun": 6810,
      "fortune": 6811,
      "deaths": 6812,
      "competent": 6813,
      "posted": 6814,
      "suggests": 6815,
      "protected": 6816,
      "qualification": 6817,
      "qualifying": 6818,
      "1840": 6819,
      "1844": 6820,
      "specifically": 6821,
      "14th": 6822,
      "Hai": 6823,
      "Haus": 6824,
      "Points": 6825,
      "Serapis": 6826,
      "culture": 6827,
      "distant": 6828,
      "disturbing": 6829,
      "riff": 6830,
      "simpl": 6831,
      "simply": 6832,
      "takes": 6833,
      "visited": 6834,
      "legal": 6835,
      "losses": 6836,
      "predynastic": 6837,
      "1960": 6838,
      "1961": 6839,
      "1968": 6840,
      "1960s": 6841,
      "moving": 6842,
      "movie": 6843,
      "movements": 6844,
      "ideograms": 6845,
      "significance": 6846,
      "responded": 6847,
      "Except": 6848,
      "Oswal": 6849,
      "Playing": 6850,
      "Sujoy": 6851,
      "Success": 6852,
      "Saves": 6853,
      "microscop": 6854,
      "nedy": 6855,
      "navies": 6856,
      "navigation": 6857,
      "initiative": 6858,
      "letic": 6859,
      "primordial": 6860,
      "Confederacy": 6861,
      "Books": 6862,
      "suggesting": 6863,
      "McEl": 6864,
      "McConnell": 6865,
      "aiya": 6866,
      "beneficial": 6867,
      "courses": 6868,
      "diamond": 6869,
      "dedication": 6870,
      "dedicated": 6871,
      "getting": 6872,
      "marble": 6873,
      "market": 6874,
      "picked": 6875,
      "skydiving": 6876,
      "organic": 6877,
      "organized": 6878,
      "organised": 6879,
      "organization": 6880,
      "organisations": 6881,
      "leys": 6882,
      "devout": 6883,
      "defined": 6884,
      "defines": 6885,
      "illustration": 6886,
      "illustrations": 6887,
      "advant": 6888,
      "advoc": 6889,
      "advice": 6890,
      "strongly": 6891,
      "indicating": 6892,
      "indicator": 6893,
      "increases": 6894,
      "helping": 6895,
      "Off": 6896,
      "Offic": 6897,
      "Scotland": 6898,
      "Scutari": 6899,
      "feminine": 6900,
      "listen": 6901,
      "normally": 6902,
      "northeast": 6903,
      "running": 6904,
      "runner": 6905,
      "widely": 6906,
      "accordingly": 6907,
      "seventh": 6908,
      "pharaonic": 6909,
      "attacking": 6910,
      "possess": 6911,
      "possibly": 6912,
      "spirit": 6913,
      "Regiments": 6914,
      "synthes": 6915,
      "synonym": 6916,
      "Paris": 6917,
      "Parable": 6918,
      "Parachute": 6919,
      "false": 6920,
      "falcons": 6921,
      "genuine": 6922,
      "midst": 6923,
      "rendition": 6924,
      "scant": 6925,
      "scene": 6926,
      "scenar": 6927,
      "talent": 6928,
      "thrash": 6929,
      "onomic": 6930,
      "revival": 6931,
      "revolution": 6932,
      "reviewer": 6933,
      "repairs": 6934,
      "selections": 6935,
      "1955": 6936,
      "procession": 6937,
      "models": 6938,
      "crews": 6939,
      "everyone": 6940,
      "everyday": 6941,
      "everybody": 6942,
      "collection": 6943,
      "Georg": 6944,
      "George": 6945,
      "symbolized": 6946,
      "symbolize": 6947,
      "Crowe": 6948,
      "Crooked": 6949,
      "Franz": 6950,
      "Greco": 6951,
      "Gregory": 6952,
      "Islands": 6953,
      "Licensing": 6954,
      "Meanwhile": 6955,
      "Progress": 6956,
      "Simmons": 6957,
      "materials": 6958,
      "oils": 6959,
      "wait": 6960,
      "waterline": 6961,
      "retreat": 6962,
      "retiring": 6963,
      "starter": 6964,
      "separated": 6965,
      "1970": 6966,
      "1972": 6967,
      "1970s": 6968,
      "shortly": 6969,
      "manifestation": 6970,
      "1891": 6971,
      "1894": 6972,
      "1895": 6973,
      "Reigning": 6974,
      "participate": 6975,
      "Vaticana": 6976,
      "Glasgow": 6977,
      "Spirits": 6978,
      "System": 6979,
      "besides": 6980,
      "easy": 6981,
      "eastern": 6982,
      "horr": 6983,
      "script": 6984,
      "scratch": 6985,
      "ukone": 6986,
      "threaten": 6987,
      "assemble": 6988,
      "readily": 6989,
      "acquire": 6990,
      "poorly": 6991,
      "vertically": 6992,
      "shifting": 6993,
      "absence": 6994,
      "etymologies": 6995,
      "assignment": 6996,
      "claiming": 6997,
      "occurs": 6998,
      "occurrences": 6999,
      "specialist": 7000,
      "certified": 7001,
      "coloration": 7002,
      "equipped": 7003,
      "2686": 7004,
      "France": 7005,
      "Flyers": 7006,
      "Manager": 7007,
      "Plus": 7008,
      "Places": 7009,
      "Surrey": 7010,
      "Walter": 7011,
      "borrow": 7012,
      "drove": 7013,
      "droplets": 7014,
      "fifty": 7015,
      "fairy": 7016,
      "lifetimes": 7017,
      "lifesp": 7018,
      "muskets": 7019,
      "musket": 7020,
      "motu": 7021,
      "motor": 7022,
      "motion": 7023,
      "mustered": 7024,
      "slip": 7025,
      "slender": 7026,
      "victories": 7027,
      "willing": 7028,
      "departure": 7029,
      "travels": 7030,
      "traveling": 7031,
      "concealed": 7032,
      "prayer": 7033,
      "prayers": 7034,
      "1908": 7035,
      "negatively": 7036,
      "expressing": 7037,
      "exclude": 7038,
      "excludes": 7039,
      "manufactur": 7040,
      "meetings": 7041,
      "broadly": 7042,
      "Fairyopolis": 7043,
      "approaches": 7044,
      "employed": 7045,
      "recognized": 7046,
      "Film": 7047,
      "Filatov": 7048,
      "Grant": 7049,
      "Germain": 7050,
      "Henri": 7051,
      "Hitosh": 7052,
      "Masterton": 7053,
      "Northern": 7054,
      "Norbury": 7055,
      "Photo": 7056,
      "Steele": 7057,
      "farther": 7058,
      "linear": 7059,
      "linking": 7060,
      "mounts": 7061,
      "rented": 7062,
      "raments": 7063,
      "soul": 7064,
      "southern": 7065,
      "souls": 7066,
      "schedule": 7067,
      "value": 7068,
      "isfet": 7069,
      "refuse": 7070,
      "retains": 7071,
      "retaining": 7072,
      "accounts": 7073,
      "sexes": 7074,
      "looking": 7075,
      "impact": 7076,
      "appointed": 7077,
      "performing": 7078,
      "expectations": 7079,
      "measuring": 7080,
      "gradually": 7081,
      "centerline": 7082,
      "taxon": 7083,
      "taxonomic": 7084,
      "funeral": 7085,
      "literal": 7086,
      "demonstration": 7087,
      "birthplace": 7088,
      "flintlocks": 7089,
      "Aggress": 7090,
      "District": 7091,
      "Lock": 7092,
      "Losses": 7093,
      "Myco": 7094,
      "Morrill": 7095,
      "Margare": 7096,
      "Nubian": 7097,
      "Penalty": 7098,
      "Pennsy": 7099,
      "Penarth": 7100,
      "Slav": 7101,
      "Slaughter": 7102,
      "Slatanic": 7103,
      "Stralman": 7104,
      "Specul": 7105,
      "Trees": 7106,
      "Today": 7107,
      "blur": 7108,
      "eye": 7109,
      "fuel": 7110,
      "festivals": 7111,
      "mutual": 7112,
      "machines": 7113,
      "pastels": 7114,
      "raise": 7115,
      "spots": 7116,
      "wants": 7117,
      "argues": 7118,
      "astronomy": 7119,
      "astronomical": 7120,
      "astructure": 7121,
      "stalk": 7122,
      "stalked": 7123,
      "seek": 7124,
      "seeing": 7125,
      "confused": 7126,
      "shrine": 7127,
      "shrines": 7128,
      "shrimp": 7129,
      "progresses": 7130,
      "expert": 7131,
      "experiments": 7132,
      "boxes": 7133,
      "interpret": 7134,
      "perspectives": 7135,
      "deployed": 7136,
      "deployment": 7137,
      "promoted": 7138,
      "promoting": 7139,
      "promotional": 7140,
      "establishment": 7141,
      "Canada": 7142,
      "chapels": 7143,
      "Services": 7144,
      "legisl": 7145,
      "predecessor": 7146,
      "circuit": 7147,
      "circulation": 7148,
      "circulate": 7149,
      "circulated": 7150,
      "Character": 7151,
      "Aerodromes": 7152,
      "environment": 7153,
      "determined": 7154,
      "determining": 7155,
      "Montenegrin": 7156,
      "Azerbai": 7157,
      "Aleuria": 7158,
      "Family": 7159,
      "Famitsu": 7160,
      "Group": 7161,
      "Gardens": 7162,
      "Joe": 7163,
      "Kapoor": 7164,
      "Kaiser": 7165,
      "Malini": 7166,
      "Malhotra": 7167,
      "batteries": 7168,
      "duty": 7169,
      "elevation": 7170,
      "elevated": 7171,
      "figure": 7172,
      "figures": 7173,
      "judged": 7174,
      "judgment": 7175,
      "message": 7176,
      "messages": 7177,
      "packed": 7178,
      "packing": 7179,
      "splitting": 7180,
      "stopped": 7181,
      "stopping": 7182,
      "trees": 7183,
      "tells": 7184,
      "telling": 7185,
      "vanished": 7186,
      "vicinity": 7187,
      "enemies": 7188,
      "steps": 7189,
      "heavily": 7190,
      "heavier": 7191,
      "actresses": 7192,
      "seemed": 7193,
      "seemingly": 7194,
      "ultimate": 7195,
      "principle": 7196,
      "principal": 7197,
      "superv": 7198,
      "keeping": 7199,
      "proposal": 7200,
      "proposing": 7201,
      "exhibition": 7202,
      "exclusive": 7203,
      "disappointed": 7204,
      "disappointment": 7205,
      "monotheism": 7206,
      "intersection": 7207,
      "intersects": 7208,
      "Assistant": 7209,
      "contribution": 7210,
      "labeled": 7211,
      "installed": 7212,
      "traitor": 7213,
      "Additional": 7214,
      "components": 7215,
      "Islanders": 7216,
      "sanctuaries": 7217,
      "Raphaelites": 7218,
      "analysis": 7219,
      "Akshay": 7220,
      "Bermud": 7221,
      "Barrage": 7222,
      "Certain": 7223,
      "Certific": 7224,
      "Crew": 7225,
      "County": 7226,
      "Council": 7227,
      "Critical": 7228,
      "Denza": 7229,
      "Girls": 7230,
      "Humans": 7231,
      "Jackson": 7232,
      "Michael": 7233,
      "Outhwa": 7234,
      "Party": 7235,
      "Research": 7236,
      "Relation": 7237,
      "Religious": 7238,
      "Rifles": 7239,
      "Salmon": 7240,
      "Supporting": 7241,
      "Supplemental": 7242,
      "Silverstone": 7243,
      "Taxonomy": 7244,
      "Taweret": 7245,
      "Tarzetta": 7246,
      "Trium": 7247,
      "Tribute": 7248,
      "Upon": 7249,
      "badly": 7250,
      "futile": 7251,
      "hiro": 7252,
      "harv": 7253,
      "papillae": 7254,
      "riverbank": 7255,
      "voiced": 7256,
      "ventral": 7257,
      "vulcan": 7258,
      "vulnerable": 7259,
      "veneration": 7260,
      "venerated": 7261,
      "wounding": 7262,
      "thodist": 7263,
      "infrastructure": 7264,
      "instructing": 7265,
      "inspiring": 7266,
      "inspiration": 7267,
      "repetitive": 7268,
      "rolls": 7269,
      "stayed": 7270,
      "adaptation": 7271,
      "adaptations": 7272,
      "aggressive": 7273,
      "aggressiveness": 7274,
      "protest": 7275,
      "questioned": 7276,
      "1805": 7277,
      "mechanism": 7278,
      "mechanics": 7279,
      "Study": 7280,
      "Studios": 7281,
      "augmented": 7282,
      "preceding": 7283,
      "disrupted": 7284,
      "disruption": 7285,
      "obtained": 7286,
      "consistent": 7287,
      "consistently": 7288,
      "aeroplane": 7289,
      "aeroplanes": 7290,
      "corresponding": 7291,
      "correspondence": 7292,
      "struggled": 7293,
      "struggling": 7294,
      "renewing": 7295,
      "suppressed": 7296,
      "Authorities": 7297,
      "Authority": 7298,
      "Majesty": 7299,
      "flagship": 7300,
      "episodes": 7301,
      "flexible": 7302,
      "flexibility": 7303,
      "joining": 7304,
      "Organization": 7305,
      "traveled": 7306,
      "categorised": 7307,
      "reinforcements": 7308,
      "Fujii": 7309,
      "Picturesque": 7310,
      "Balkan": 7311,
      "Belvedere": 7312,
      "Central": 7313,
      "Delaware": 7314,
      "Guitarist": 7315,
      "Jesus": 7316,
      "Jenny": 7317,
      "Kennedy": 7318,
      "Murder": 7319,
      "Maple": 7320,
      "Nikita": 7321,
      "Ottawa": 7322,
      "PSN": 7323,
      "Sobek": 7324,
      "Takeshi": 7325,
      "Woodbury": 7326,
      "bolts": 7327,
      "dangerous": 7328,
      "fatal": 7329,
      "frescoes": 7330,
      "hotep": 7331,
      "horns": 7332,
      "mistaken": 7333,
      "maturity": 7334,
      "marched": 7335,
      "piercing": 7336,
      "tubes": 7337,
      "treatments": 7338,
      "uterine": 7339,
      "volume": 7340,
      "wingspan": 7341,
      "thousands": 7342,
      "inspired": 7343,
      "inhabited": 7344,
      "enjoyed": 7345,
      "argument": 7346,
      "altered": 7347,
      "aspirational": 7348,
      "repeating": 7349,
      "accompl": 7350,
      "debate": 7351,
      "omnis": 7352,
      "adjusted": 7353,
      "implement": 7354,
      "trials": 7355,
      "contradictory": 7356,
      "confirmation": 7357,
      "emphasized": 7358,
      "composer": 7359,
      "1950s": 7360,
      "abandoned": 7361,
      "percentage": 7362,
      "techno": 7363,
      "propelled": 7364,
      "property": 7365,
      "understood": 7366,
      "ordinary": 7367,
      "opportunity": 7368,
      "rescue": 7369,
      "resurrection": 7370,
      "Archduke": 7371,
      "Standard": 7372,
      "philanthrop": 7373,
      "preparing": 7374,
      "speech": 7375,
      "contemporary": 7376,
      "occasional": 7377,
      "novel": 7378,
      "Antiquities": 7379,
      "sponsored": 7380,
      "Released": 7381,
      "newspaper": 7382,
      "smiths": 7383,
      "Seaside": 7384,
      "Definition": 7385,
      "surfaced": 7386,
      "oversaw": 7387,
      "Behind": 7388,
      "inventory": 7389,
      "flaps": 7390,
      "submarine": 7391,
      "downloadable": 7392,
      "Competition": 7393,
      "limitations": 7394,
      "Shortly": 7395,
      "destitute": 7396,
      "Maximilian": 7397,
      "phylogenetic": 7398,
      "Transport": 7399,
      "Tribulation": 7400,
      "appropriate": 7401,
      "Serbia": 7402,
      "moderate": 7403,
      "Frankfort": 7404,
      "envisioned": 7405,
      "horizont": 7406,
      "hierarchy": 7407,
      "convinced": 7408,
      "graduated": 7409,
      "targeting": 7410,
      "Alexander": 7411,
      "anthropomorphic": 7412,
      "Holyhead": 7413,
      "challenges": 7414,
      "Dasyatis": 7415,
      "deliberate": 7416,
      "Athletic": 7417,
      "Aayi": 7418,
      "Apep": 7419,
      "Autumn": 7420,
      "Atherton": 7421,
      "Apostolic": 7422,
      "Awareness": 7423,
      "Agency": 7424,
      "Basilica": 7425,
      "Billy": 7426,
      "Business": 7427,
      "Blockading": 7428,
      "Baptist": 7429,
      "Balloon": 7430,
      "Cicely": 7431,
      "Dalmat": 7432,
      "Dynasty": 7433,
      "Furthermore": 7434,
      "Female": 7435,
      "Flowers": 7436,
      "Friendly": 7437,
      "Friedman": 7438,
      "Ghosh": 7439,
      "Ghosts": 7440,
      "Gaurav": 7441,
      "Half": 7442,
      "Hamilton": 7443,
      "Holid": 7444,
      "Havilland": 7445,
      "Heliopolis": 7446,
      "Hashmi": 7447,
      "Hampshire": 7448,
      "Hodgkin": 7449,
      "IUCN": 7450,
      "Ignazio": 7451,
      "Jaane": 7452,
      "Khepri": 7453,
      "Kubinka": 7454,
      "Kahan": 7455,
      "London": 7456,
      "Loretta": 7457,
      "Lemieux": 7458,
      "Listen": 7459,
      "Moore": 7460,
      "Messina": 7461,
      "Magazine": 7462,
      "Martinek": 7463,
      "Metal": 7464,
      "Nonetheless": 7465,
      "Nassau": 7466,
      "Observatory": 7467,
      "Ponchartrain": 7468,
      "Palace": 7469,
      "Padukone": 7470,
      "Pumpkin": 7471,
      "Piper": 7472,
      "PETA": 7473,
      "Retur": 7474,
      "Sussex": 7475,
      "Split": 7476,
      "Saint": 7477,
      "Sokar": 7478,
      "Scales": 7479,
      "Several": 7480,
      "Sankt": 7481,
      "Sierra": 7482,
      "Spanish": 7483,
      "Texts": 7484,
      "Tarrant": 7485,
      "Varun": 7486,
      "Wassaw": 7487,
      "Washington": 7488,
      "Yugosl": 7489,
      "balance": 7490,
      "barely": 7491,
      "boundaries": 7492,
      "ctric": 7493,
      "cattle": 7494,
      "dorsal": 7495,
      "dwarf": 7496,
      "freest": 7497,
      "failure": 7498,
      "freedom": 7499,
      "gaming": 7500,
      "guitars": 7501,
      "hinney": 7502,
      "hundred": 7503,
      "juven": 7504,
      "kuhlii": 7505,
      "lvania": 7506,
      "masonry": 7507,
      "married": 7508,
      "ninth": 7509,
      "punishment": 7510,
      "phism": 7511,
      "pendulum": 7512,
      "racism": 7513,
      "radio": 7514,
      "rapidly": 7515,
      "righteous": 7516,
      "sandbar": 7517,
      "square": 7518,
      "tumor": 7519,
      "tanks": 7520,
      "viviparous": 7521,
      "wreck": 7522,
      "wanting": 7523,
      "Škoda": 7524,
      "inaugur": 7525,
      "anemoscope": 7526,
      "oracle": 7527,
      "orchestra": 7528,
      "atmosphere": 7529,
      "esoteric": 7530,
      "revered": 7531,
      "recruit": 7532,
      "reminiscent": 7533,
      "starring": 7534,
      "heliograph": 7535,
      "accustomed": 7536,
      "lymphoma": 7537,
      "delicate": 7538,
      "decorated": 7539,
      "tertiary": 7540,
      "coniferous": 7541,
      "pectoral": 7542,
      "complaints": 7543,
      "approval": 7544,
      "shutter": 7545,
      "abstract": 7546,
      "neighboring": 7547,
      "histotroph": 7548,
      "acknowled": 7549,
      "maisonette": 7550,
      "overarching": 7551,
      "attendees": 7552,
      "ibayashi": 7553,
      "auditioned": 7554,
      "Threatened": 7555,
      "preeminence": 7556,
      "dispatched": 7557,
      "obscure": 7558,
      "Repaired": 7559,
      "mycorrhiz": 7560,
      "Nekheb": 7561,
      "paraphyses": 7562,
      "symptoms": 7563,
      "Sekhmet": 7564,
      "website": 7565,
      "renumbered": 7566,
      "Dekanich": 7567,
      "pilothouse": 7568,
      "publishers": 7569,
      "Alternative": 7570,
      "Ontario": 7571,
      "Committee": 7572,
      "Commodore": 7573,
      "Christopher": 7574,
      "guarantee": 7575,
      "Administration": 7576,
      "Senigallia": 7577,
      "Trismegistus": 7578,
      "filmmaker": 7579,
      "Deshmukh": 7580,
      "Oswald": 7581,
      "microscopically": 7582,
      "McElhinney": 7583,
      "genuinely": 7584,
      "scenario": 7585,
      "lifespans": 7586,
      "Hitoshi": 7587,
      "Margaret": 7588,
      "Pennsylvania": 7589,
      "Azerbaijan": 7590,
      "Bermuda": 7591,
      "Certificate": 7592,
      "Outhwaite": 7593,
      "Yugoslav": 7594,
      "04": 7595,
      "022": 7596,
      "099": 7597,
      "1000": 7598,
      "117": 7599,
      "218": 7600,
      "3D": 7601,
      "3r": 7602,
      "315": 7603,
      "317": 7604,
      "350": 7605,
      "30s": 7606,
      "332": 7607,
      "374": 7608,
      "41": 7609,
      "42": 7610,
      "4G": 7611,
      "4th": 7612,
      "4000": 7613,
      "410": 7614,
      "423": 7615,
      "414": 7616,
      "52": 7617,
      "58": 7618,
      "5th": 7619,
      "520": 7620,
      "6th": 7621,
      "625": 7622,
      "630": 7623,
      "640": 7624,
      "687": 7625,
      "7th": 7626,
      "750": 7627,
      "759": 7628,
      "762": 7629,
      "83": 7630,
      "8th": 7631,
      "80s": 7632,
      "845": 7633,
      "93": 7634,
      "98": 7635,
      "947": 7636,
      "991": 7637,
      "AI": 7638,
      "AM": 7639,
      "AS": 7640,
      "Ae": 7641,
      "Ay": 7642,
      "Aam": 7643,
      "Ace": 7644,
      "Aver": 7645,
      "Ament": 7646,
      "Ame": 7647,
      "Ali": 7648,
      "Alic": 7649,
      "Acan": 7650,
      "Athen": 7651,
      "Awa": 7652,
      "Astar": 7653,
      "Abes": 7654,
      "Avenue": 7655,
      "BL": 7656,
      "BM": 7657,
      "BN": 7658,
      "Bl": 7659,
      "Ban": 7660,
      "Bed": 7661,
      "Bat": 7662,
      "Ben": 7663,
      "Bre": 7664,
      "Bod": 7665,
      "Bol": 7666,
      "Bab": 7667,
      "Bian": 7668,
      "Bart": 7669,
      "Bour": 7670,
      "Bach": 7671,
      "Bak": 7672,
      "Bark": 7673,
      "Bob": 7674,
      "Bli": 7675,
      "Bern": 7676,
      "Bud": 7677,
      "Bang": 7678,
      "Break": 7679,
      "Bank": 7680,
      "Bible": 7681,
      "Baz": 7682,
      "Bret": 7683,
      "Barn": 7684,
      "Baste": 7685,
      "Baptismal": 7686,
      "Bureau": 7687,
      "Bathi": 7688,
      "CE": 7689,
      "CS": 7690,
      "Che": 7691,
      "Cou": 7692,
      "Cle": 7693,
      "Cly": 7694,
      "Cir": 7695,
      "Cad": 7696,
      "Cim": 7697,
      "Cus": 7698,
      "Cem": 7699,
      "Came": 7700,
      "Card": 7701,
      "Could": 7702,
      "Cour": 7703,
      "Cover": 7704,
      "Coff": 7705,
      "Cast": 7706,
      "Cub": 7707,
      "Cran": 7708,
      "Cards": 7709,
      "Cons": 7710,
      "Cost": 7711,
      "Cos": 7712,
      "Camp": 7713,
      "Cath": 7714,
      "Clim": 7715,
      "Cele": 7716,
      "Corn": 7717,
      "Crow": 7718,
      "Cris": 7719,
      "Cape": 7720,
      "Cavalry": 7721,
      "DH": 7722,
      "DT": 7723,
      "Do": 7724,
      "Dan": 7725,
      "Don": 7726,
      "Ded": 7727,
      "Dod": 7728,
      "Dim": 7729,
      "Dol": 7730,
      "Dif": 7731,
      "Dab": 7732,
      "Dend": 7733,
      "Done": 7734,
      "Dish": 7735,
      "Dough": 7736,
      "Dev": 7737,
      "Dub": 7738,
      "Dick": 7739,
      "Dix": 7740,
      "Dread": 7741,
      "Dawn": 7742,
      "Dhar": 7743,
      "Diam": 7744,
      "Dana": 7745,
      "Days": 7746,
      "Devolved": 7747,
      "DNA": 7748,
      "Domin": 7749,
      "Dupp": 7750,
      "ER": 7751,
      "Ef": 7752,
      "Em": 7753,
      "Ep": 7754,
      "Es": 7755,
      "Eth": 7756,
      "Eis": 7757,
      "Equ": 7758,
      "Ell": 7759,
      "Eri": 7760,
      "Either": 7761,
      "Earl": 7762,
      "Every": 7763,
      "Evere": 7764,
      "Ecology": 7765,
      "FH": 7766,
      "FW": 7767,
      "Fal": 7768,
      "Fas": 7769,
      "Fun": 7770,
      "Fig": 7771,
      "From": 7772,
      "Fate": 7773,
      "Fest": 7774,
      "Fear": 7775,
      "Fine": 7776,
      "Fund": 7777,
      "Ford": 7778,
      "Fans": 7779,
      "Fost": 7780,
      "Fights": 7781,
      "Ferg": 7782,
      "Farm": 7783,
      "Flights": 7784,
      "Fitch": 7785,
      "Faced": 7786,
      "Fayl": 7787,
      "Fashion": 7788,
      "GN": 7789,
      "GO": 7790,
      "Ged": 7791,
      "Gat": 7792,
      "Gom": 7793,
      "Gun": 7794,
      "Gig": 7795,
      "Gus": 7796,
      "Gare": 7797,
      "Gary": 7798,
      "Gill": 7799,
      "Gib": 7800,
      "Gau": 7801,
      "Gust": 7802,
      "Gree": 7803,
      "Gov": 7804,
      "Gaz": 7805,
      "Gats": 7806,
      "Geff": 7807,
      "Gene": 7808,
      "Given": 7809,
      "Gulf": 7810,
      "GER": 7811,
      "HP": 7812,
      "HS": 7813,
      "HT": 7814,
      "Hem": 7815,
      "Hut": 7816,
      "Hab": 7817,
      "Hend": 7818,
      "Hard": 7819,
      "Hass": 7820,
      "Hill": 7821,
      "Haw": 7822,
      "Hound": 7823,
      "Hud": 7824,
      "Hilt": 7825,
      "Haz": 7826,
      "HMS": 7827,
      "Hatter": 7828,
      "Hik": 7829,
      "Hove": 7830,
      "HIB": 7831,
      "Hicks": 7832,
      "IC": 7833,
      "IM": 7834,
      "IR": 7835,
      "IV": 7836,
      "Ik": 7837,
      "Il": 7838,
      "Ir": 7839,
      "Ion": 7840,
      "Icon": 7841,
      "Iver": 7842,
      "Ill": 7843,
      "Irel": 7844,
      "Iron": 7845,
      "Ison": 7846,
      "Ida": 7847,
      "Ips": 7848,
      "IGN": 7849,
      "Ja": 7850,
      "Jr": 7851,
      "JÄ": 7852,
      "Jä": 7853,
      "Jé": 7854,
      "Jū": 7855,
      "Jon": 7856,
      "Jat": 7857,
      "Jas": 7858,
      "Jun": 7859,
      "Jup": 7860,
      "Jak": 7861,
      "Jason": 7862,
      "Jud": 7863,
      "Jail": 7864,
      "Jos": 7865,
      "JAA": 7866,
      "Jha": 7867,
      "Jhapp": 7868,
      "Ki": 7869,
      "Ko": 7870,
      "Kor": 7871,
      "Kar": 7872,
      "Kad": 7873,
      "Kur": 7874,
      "Kol": 7875,
      "Kot": 7876,
      "Kid": 7877,
      "Kap": 7878,
      "Kel": 7879,
      "Kish": 7880,
      "Kho": 7881,
      "Kort": 7882,
      "Korn": 7883,
      "Kaz": 7884,
      "Khal": 7885,
      "Kush": 7886,
      "Kond": 7887,
      "Karan": 7888,
      "KNA": 7889,
      "Kew": 7890,
      "Lu": 7891,
      "Led": 7892,
      "Land": 7893,
      "Lit": 7894,
      "Lent": 7895,
      "Lay": 7896,
      "Lies": 7897,
      "Lear": 7898,
      "Linc": 7899,
      "Lions": 7900,
      "Lev": 7901,
      "Liss": 7902,
      "Lind": 7903,
      "Lland": 7904,
      "Lince": 7905,
      "Labor": 7906,
      "Love": 7907,
      "Lifest": 7908,
      "Liber": 7909,
      "Laugh": 7910,
      "Living": 7911,
      "Loft": 7912,
      "Lumber": 7913,
      "Lanc": 7914,
      "Lagi": 7915,
      "Mi": 7916,
      "Mr": 7917,
      "Mad": 7918,
      "Mith": 7919,
      "Mere": 7920,
      "Mel": 7921,
      "Mong": 7922,
      "Mass": 7923,
      "Mach": 7924,
      "Matt": 7925,
      "Moff": 7926,
      "Miz": 7927,
      "Mak": 7928,
      "Mater": 7929,
      "Mult": 7930,
      "Mind": 7931,
      "Mann": 7932,
      "Mix": 7933,
      "Mouth": 7934,
      "Moh": 7935,
      "Mah": 7936,
      "Moth": 7937,
      "Mature": 7938,
      "Much": 7939,
      "Mouse": 7940,
      "Manch": 7941,
      "Male": 7942,
      "MUS": 7943,
      "More": 7944,
      "Males": 7945,
      "Mission": 7946,
      "Moto": 7947,
      "Mik": 7948,
      "Material": 7949,
      "Muk": 7950,
      "Masse": 7951,
      "Milla": 7952,
      "Maken": 7953,
      "MOS": 7954,
      "Mosh": 7955,
      "Mien": 7956,
      "Muh": 7957,
      "Mitsu": 7958,
      "NV": 7959,
      "NW": 7960,
      "Nar": 7961,
      "Nic": 7962,
      "Nel": 7963,
      "Nag": 7964,
      "Nut": 7965,
      "Naf": 7966,
      "Now": 7967,
      "Net": 7968,
      "Nint": 7969,
      "Names": 7970,
      "Noth": 7971,
      "Native": 7972,
      "Nearly": 7973,
      "NCAA": 7974,
      "Nara": 7975,
      "Numbers": 7976,
      "Ningal": 7977,
      "NGO": 7978,
      "NHS": 7979,
      "OR": 7980,
      "OT": 7981,
      "Og": 7982,
      "Oh": 7983,
      "Ok": 7984,
      "Ot": 7985,
      "Oas": 7986,
      "Oto": 7987,
      "Oper": 7988,
      "Oak": 7989,
      "Oath": 7990,
      "Ola": 7991,
      "Open": 7992,
      "Omish": 7993,
      "Oxford": 7994,
      "PM": 7995,
      "Pf": 7996,
      "Pin": 7997,
      "Pat": 7998,
      "Pom": 7999,
      "Pts": 8000,
      "Pus": 8001,
      "Prom": 8002,
      "Pap": 8003,
      "Pain": 8004,
      "Pair": 8005,
      "Pack": 8006,
      "Pet": 8007,
      "Pign": 8008,
      "Pust": 8009,
      "Pugh": 8010,
      "Parker": 8011,
      "Pice": 8012,
      "Pah": 8013,
      "Pio": 8014,
      "Power": 8015,
      "Pier": 8016,
      "Pipp": 8017,
      "Paul": 8018,
      "Plot": 8019,
      "Punk": 8020,
      "Passed": 8021,
      "PIM": 8022,
      "Qu": 8023,
      "Qri": 8024,
      "Ques": 8025,
      "Quine": 8026,
      "RV": 8027,
      "Ru": 8028,
      "Ré": 8029,
      "Rar": 8030,
      "Ral": 8031,
      "Rit": 8032,
      "Rou": 8033,
      "Rom": 8034,
      "Rod": 8035,
      "Ray": 8036,
      "Rul": 8037,
      "Rem": 8038,
      "Rap": 8039,
      "Rut": 8040,
      "Raf": 8041,
      "Rear": 8042,
      "Rust": 8043,
      "Rite": 8044,
      "Rail": 8045,
      "Rash": 8046,
      "Ramp": 8047,
      "R22": 8048,
      "R44": 8049,
      "Rukh": 8050,
      "Rodg": 8051,
      "Ranger": 8052,
      "SF": 8053,
      "SO": 8054,
      "SV": 8055,
      "Si": 8056,
      "Sr": 8057,
      "Sv": 8058,
      "Sin": 8059,
      "Sat": 8060,
      "Sar": 8061,
      "Sand": 8062,
      "Sic": 8063,
      "Sac": 8064,
      "Sir": 8065,
      "Sid": 8066,
      "Sel": 8067,
      "Sate": 8068,
      "Sne": 8069,
      "Sia": 8070,
      "Sex": 8071,
      "Slow": 8072,
      "Save": 8073,
      "Sold": 8074,
      "Sev": 8075,
      "Six": 8076,
      "Sons": 8077,
      "Satur": 8078,
      "Sower": 8079,
      "Seven": 8080,
      "Stra": 8081,
      "Sched": 8082,
      "Spen": 8083,
      "Sake": 8084,
      "Sacc": 8085,
      "SOS": 8086,
      "Sites": 8087,
      "Scale": 8088,
      "Science": 8089,
      "Scientific": 8090,
      "Sien": 8091,
      "Swed": 8092,
      "Sander": 8093,
      "Sieg": 8094,
      "Sathi": 8095,
      "Tat": 8096,
      "Tit": 8097,
      "Tam": 8098,
      "Tig": 8099,
      "Tid": 8100,
      "Tel": 8101,
      "Tag": 8102,
      "Tsu": 8103,
      "Tame": 8104,
      "Test": 8105,
      "Tia": 8106,
      "Table": 8107,
      "Tob": 8108,
      "Tank": 8109,
      "Tamb": 8110,
      "Tele": 8111,
      "Tempt": 8112,
      "Tara": 8113,
      "Tai": 8114,
      "Time": 8115,
      "Trev": 8116,
      "Treason": 8117,
      "Tests": 8118,
      "Taken": 8119,
      "Tils": 8120,
      "Telescope": 8121,
      "Talent": 8122,
      "Tayl": 8123,
      "Tift": 8124,
      "Ur": 8125,
      "Uggle": 8126,
      "Ve": 8127,
      "Vr": 8128,
      "Vor": 8129,
      "Vic": 8130,
      "Vac": 8131,
      "Vir": 8132,
      "Vad": 8133,
      "Vill": 8134,
      "Vast": 8135,
      "Voc": 8136,
      "VII": 8137,
      "Vern": 8138,
      "Vick": 8139,
      "Vice": 8140,
      "Vio": 8141,
      "VIII": 8142,
      "Villa": 8143,
      "Verse": 8144,
      "Verve": 8145,
      "Votive": 8146,
      "Vien": 8147,
      "Vicks": 8148,
      "Venti": 8149,
      "Vogue": 8150,
      "Vaiya": 8151,
      "Wer": 8152,
      "Wed": 8153,
      "Wad": 8154,
      "Were": 8155,
      "Wol": 8156,
      "Wel": 8157,
      "Wall": 8158,
      "Ward": 8159,
      "Word": 8160,
      "Wound": 8161,
      "Winter": 8162,
      "Wins": 8163,
      "Watch": 8164,
      "Wii": 8165,
      "Yam": 8166,
      "Yard": 8167,
      "Yarrow": 8168,
      "Yellow": 8169,
      "Zar": 8170,
      "Zal": 8171,
      "Zel": 8172,
      "Zone": 8173,
      "Zoo": 8174,
      "Zee": 8175,
      "athe": 8176,
      "aar": 8177,
      "aun": 8178,
      "aith": 8179,
      "aus": 8180,
      "aill": 8181,
      "aune": 8182,
      "athed": 8183,
      "bm": 8184,
      "bt": 8185,
      "bin": 8186,
      "bit": 8187,
      "bim": 8188,
      "brom": 8189,
      "bie": 8190,
      "bine": 8191,
      "bone": 8192,
      "bout": 8193,
      "brit": 8194,
      "bast": 8195,
      "bark": 8196,
      "bted": 8197,
      "batic": 8198,
      "bless": 8199,
      "blog": 8200,
      "bath": 8201,
      "bines": 8202,
      "bars": 8203,
      "bomb": 8204,
      "bends": 8205,
      "binations": 8206,
      "bda": 8207,
      "bott": 8208,
      "barn": 8209,
      "breed": 8210,
      "borders": 8211,
      "blot": 8212,
      "baked": 8213,
      "banner": 8214,
      "binson": 8215,
      "bloom": 8216,
      "bureau": 8217,
      "banger": 8218,
      "cin": 8219,
      "cat": 8220,
      "cen": 8221,
      "cot": 8222,
      "cund": 8223,
      "cous": 8224,
      "cater": 8225,
      "cade": 8226,
      "cise": 8227,
      "cott": 8228,
      "codes": 8229,
      "ccles": 8230,
      "cnic": 8231,
      "cavalry": 8232,
      "dg": 8233,
      "dent": 8234,
      "dur": 8235,
      "dial": 8236,
      "dish": 8237,
      "doc": 8238,
      "dull": 8239,
      "dating": 8240,
      "dden": 8241,
      "daz": 8242,
      "dget": 8243,
      "dime": 8244,
      "daugh": 8245,
      "dawn": 8246,
      "dicate": 8247,
      "eg": 8248,
      "ek": 8249,
      "eu": 8250,
      "eth": 8251,
      "eer": 8252,
      "eat": 8253,
      "ees": 8254,
      "ely": 8255,
      "eem": 8256,
      "eve": 8257,
      "eak": 8258,
      "eating": 8259,
      "etry": 8260,
      "egg": 8261,
      "eously": 8262,
      "eaten": 8263,
      "ecutive": 8264,
      "ecology": 8265,
      "fing": 8266,
      "fis": 8267,
      "fere": 8268,
      "fend": 8269,
      "fet": 8270,
      "fill": 8271,
      "flar": 8272,
      "flic": 8273,
      "fused": 8274,
      "fict": 8275,
      "fished": 8276,
      "fuse": 8277,
      "fled": 8278,
      "fog": 8279,
      "flower": 8280,
      "fost": 8281,
      "frequ": 8282,
      "fights": 8283,
      "fought": 8284,
      "fuck": 8285,
      "fills": 8286,
      "fond": 8287,
      "fitting": 8288,
      "food": 8289,
      "fencing": 8290,
      "fforth": 8291,
      "foment": 8292,
      "fusion": 8293,
      "fashion": 8294,
      "faith": 8295,
      "gi": 8296,
      "gar": 8297,
      "gal": 8298,
      "gic": 8299,
      "gers": 8300,
      "gap": 8301,
      "gear": 8302,
      "gine": 8303,
      "gend": 8304,
      "gard": 8305,
      "gill": 8306,
      "gover": 8307,
      "gob": 8308,
      "gments": 8309,
      "gale": 8310,
      "gement": 8311,
      "gently": 8312,
      "gallo": 8313,
      "gacy": 8314,
      "glot": 8315,
      "gloom": 8316,
      "gulf": 8317,
      "gift": 8318,
      "hes": 8319,
      "hun": 8320,
      "hay": 8321,
      "hur": 8322,
      "hus": 8323,
      "hid": 8324,
      "hall": 8325,
      "hair": 8326,
      "hate": 8327,
      "houn": 8328,
      "hman": 8329,
      "hast": 8330,
      "hark": 8331,
      "hty": 8332,
      "hance": 8333,
      "hub": 8334,
      "hung": 8335,
      "hany": 8336,
      "harm": 8337,
      "hills": 8338,
      "hitting": 8339,
      "hinting": 8340,
      "ij": 8341,
      "iu": 8342,
      "ić": 8343,
      "iat": 8344,
      "iar": 8345,
      "ias": 8346,
      "iun": 8347,
      "ipe": 8348,
      "iform": 8349,
      "iast": 8350,
      "ience": 8351,
      "iable": 8352,
      "ients": 8353,
      "iating": 8354,
      "iens": 8355,
      "ipel": 8356,
      "iability": 8357,
      "ipresence": 8358,
      "ijan": 8359,
      "iTZ": 8360,
      "jac": 8361,
      "jul": 8362,
      "jack": 8363,
      "jockey": 8364,
      "jones": 8365,
      "jacks": 8366,
      "jinx": 8367,
      "kW": 8368,
      "kes": 8369,
      "kand": 8370,
      "kir": 8371,
      "kap": 8372,
      "kans": 8373,
      "kau": 8374,
      "kick": 8375,
      "knew": 8376,
      "kany": 8377,
      "kilt": 8378,
      "kward": 8379,
      "kicks": 8380,
      "kids": 8381,
      "lf": 8382,
      "lv": 8383,
      "lat": 8384,
      "lal": 8385,
      "las": 8386,
      "lst": 8387,
      "lou": 8388,
      "lle": 8389,
      "liv": 8390,
      "lav": 8391,
      "lest": 8392,
      "lone": 8393,
      "lign": 8394,
      "lach": 8395,
      "luring": 8396,
      "lage": 8397,
      "lah": 8398,
      "linch": 8399,
      "lash": 8400,
      "ladd": 8401,
      "lined": 8402,
      "lances": 8403,
      "libr": 8404,
      "lieutenant": 8405,
      "lady": 8406,
      "lsson": 8407,
      "mu": 8408,
      "mṯ": 8409,
      "mad": 8410,
      "mur": 8411,
      "mol": 8412,
      "mel": 8413,
      "mould": 8414,
      "mitt": 8415,
      "marker": 8416,
      "mised": 8417,
      "matic": 8418,
      "mature": 8419,
      "males": 8420,
      "mley": 8421,
      "mnast": 8422,
      "mote": 8423,
      "mington": 8424,
      "masted": 8425,
      "nu": 8426,
      "nan": 8427,
      "nit": 8428,
      "nil": 8429,
      "nout": 8430,
      "nave": 8431,
      "nome": 8432,
      "nings": 8433,
      "nage": 8434,
      "nical": 8435,
      "nific": 8436,
      "nann": 8437,
      "nese": 8438,
      "natur": 8439,
      "nuals": 8440,
      "nances": 8441,
      "ncret": 8442,
      "niated": 8443,
      "nership": 8444,
      "nude": 8445,
      "nodes": 8446,
      "natures": 8447,
      "naki": 8448,
      "oy": 8449,
      "oan": 8450,
      "oed": 8451,
      "oing": 8452,
      "ode": 8453,
      "oir": 8454,
      "oom": 8455,
      "och": 8456,
      "olo": 8457,
      "oct": 8458,
      "ocr": 8459,
      "opt": 8460,
      "oso": 8461,
      "oard": 8462,
      "ock": 8463,
      "oge": 8464,
      "oser": 8465,
      "oak": 8466,
      "osing": 8467,
      "oboth": 8468,
      "osame": 8469,
      "oples": 8470,
      "oines": 8471,
      "otheistic": 8472,
      "otheism": 8473,
      "oomor": 8474,
      "olyn": 8475,
      "oleys": 8476,
      "pH": 8477,
      "py": 8478,
      "pin": 8479,
      "pal": 8480,
      "pion": 8481,
      "pent": 8482,
      "piv": 8483,
      "plo": 8484,
      "pay": 8485,
      "pul": 8486,
      "pot": 8487,
      "ppe": 8488,
      "pid": 8489,
      "pare": 8490,
      "pag": 8491,
      "pill": 8492,
      "pure": 8493,
      "pust": 8494,
      "pended": 8495,
      "path": 8496,
      "pale": 8497,
      "pink": 8498,
      "psold": 8499,
      "pically": 8500,
      "penter": 8501,
      "pictions": 8502,
      "pps": 8503,
      "potential": 8504,
      "pikes": 8505,
      "pushed": 8506,
      "pause": 8507,
      "rer": 8508,
      "ric": 8509,
      "ration": 8510,
      "rig": 8511,
      "rav": 8512,
      "rive": 8513,
      "rant": 8514,
      "roff": 8515,
      "rational": 8516,
      "rered": 8517,
      "rud": 8518,
      "raged": 8519,
      "rides": 8520,
      "rush": 8521,
      "races": 8522,
      "raan": 8523,
      "rarity": 8524,
      "rifice": 8525,
      "rmṯ": 8526,
      "sr": 8527,
      "sō": 8528,
      "sin": 8529,
      "sic": 8530,
      "sil": 8531,
      "sul": 8532,
      "sus": 8533,
      "sess": 8534,
      "sper": 8535,
      "sie": 8536,
      "sso": 8537,
      "slu": 8538,
      "spro": 8539,
      "sine": 8540,
      "send": 8541,
      "scre": 8542,
      "sight": 8543,
      "sour": 8544,
      "scent": 8545,
      "sized": 8546,
      "slower": 8547,
      "sank": 8548,
      "sending": 8549,
      "sche": 8550,
      "sides": 8551,
      "swing": 8552,
      "sque": 8553,
      "swa": 8554,
      "sword": 8555,
      "sumed": 8556,
      "saken": 8557,
      "sorted": 8558,
      "snout": 8559,
      "tin": 8560,
      "tion": 8561,
      "tle": 8562,
      "tly": 8563,
      "tse": 8564,
      "tts": 8565,
      "tap": 8566,
      "test": 8567,
      "tary": 8568,
      "till": 8569,
      "tally": 8570,
      "turing": 8571,
      "tical": 8572,
      "tuary": 8573,
      "tale": 8574,
      "tune": 8575,
      "tached": 8576,
      "testim": 8577,
      "tips": 8578,
      "treason": 8579,
      "tasked": 8580,
      "tulate": 8581,
      "ua": 8582,
      "uin": 8583,
      "ued": 8584,
      "uation": 8585,
      "uts": 8586,
      "utr": 8587,
      "upl": 8588,
      "upr": 8589,
      "ugu": 8590,
      "ugia": 8591,
      "uette": 8592,
      "uaded": 8593,
      "uosame": 8594,
      "von": 8595,
      "vit": 8596,
      "vil": 8597,
      "vive": 8598,
      "vant": 8599,
      "vine": 8600,
      "vet": 8601,
      "vill": 8602,
      "vous": 8603,
      "vast": 8604,
      "vals": 8605,
      "vens": 8606,
      "vote": 8607,
      "vital": 8608,
      "viny": 8609,
      "vades": 8610,
      "virt": 8611,
      "wy": 8612,
      "wel": 8613,
      "wart": 8614,
      "wich": 8615,
      "wire": 8616,
      "wins": 8617,
      "wder": 8618,
      "watch": 8619,
      "wider": 8620,
      "wishes": 8621,
      "xe": 8622,
      "xter": 8623,
      "yd": 8624,
      "yer": 8625,
      "yed": 8626,
      "yme": 8627,
      "yage": 8628,
      "yos": 8629,
      "yank": 8630,
      "yama": 8631,
      "yond": 8632,
      "yptic": 8633,
      "yrus": 8634,
      "yagi": 8635,
      "zes": 8636,
      "zone": 8637,
      "zber": 8638,
      "zens": 8639,
      "zling": 8640,
      "zza": 8641,
      "zuli": 8642,
      "zoomor": 8643,
      "zvous": 8644,
      "än": 8645,
      "ålst": 8646,
      "élet": 8647,
      "Ōno": 8648,
      "ḏsr": 8649,
      "いつ": 8650,
      "いの花": 8651,
      "うの": 8652,
      "か咲": 8653,
      "がた": 8654,
      "が願": 8655,
      "き誓": 8656,
      "き運": 8657,
      "く光": 8658,
      "しも": 8659,
      "なら": 8660,
      "なき誓": 8661,
      "の戦": 8662,
      "の銃": 8663,
      "めの銃": 8664,
      "もしも": 8665,
      "もなき誓": 8666,
      "乙女": 8667,
      "名もなき誓": 8668,
      "君が願": 8669,
      "命の戦": 8670,
      "誰がた": 8671,
      "赤き運": 8672,
      "ths": 8673,
      "thic": 8674,
      "thouse": 8675,
      "thush": 8676,
      "thief": 8677,
      "thood": 8678,
      "thij": 8679,
      "thoboth": 8680,
      "iner": 8681,
      "inver": 8682,
      "inian": 8683,
      "inities": 8684,
      "inqu": 8685,
      "inund": 8686,
      "inform": 8687,
      "inally": 8688,
      "inning": 8689,
      "infer": 8690,
      "inating": 8691,
      "injust": 8692,
      "inanim": 8693,
      "income": 8694,
      "inaccess": 8695,
      "incred": 8696,
      "independ": 8697,
      "information": 8698,
      "infect": 8699,
      "inburgh": 8700,
      "inrich": 8701,
      "innov": 8702,
      "infantry": 8703,
      "insubstantial": 8704,
      "incompatible": 8705,
      "integr": 8706,
      "inherent": 8707,
      "inconsistent": 8708,
      "inappropriate": 8709,
      "inflic": 8710,
      "ering": 8711,
      "erod": 8712,
      "eria": 8713,
      "erary": 8714,
      "erals": 8715,
      "erical": 8716,
      "erating": 8717,
      "erase": 8718,
      "ermis": 8719,
      "erji": 8720,
      "thew": 8721,
      "theat": 8722,
      "theop": 8723,
      "theory": 8724,
      "theons": 8725,
      "theolog": 8726,
      "theology": 8727,
      "theastern": 8728,
      "theodic": 8729,
      "thekau": 8730,
      "anor": 8731,
      "anas": 8732,
      "anly": 8733,
      "anse": 8734,
      "anine": 8735,
      "angr": 8736,
      "anthro": 8737,
      "angl": 8738,
      "anov": 8739,
      "ancho": 8740,
      "ancing": 8741,
      "anonym": 8742,
      "anew": 8743,
      "aneously": 8744,
      "ona": 8745,
      "ony": 8746,
      "onation": 8747,
      "onel": 8748,
      "onsu": 8749,
      "ondr": 8750,
      "online": 8751,
      "onerating": 8752,
      "eds": 8753,
      "eday": 8754,
      "edibility": 8755,
      "edding": 8756,
      "edifice": 8757,
      "edience": 8758,
      "oro": 8759,
      "oring": 8760,
      "oration": 8761,
      "orum": 8762,
      "orus": 8763,
      "orate": 8764,
      "oria": 8765,
      "orship": 8766,
      "oried": 8767,
      "orious": 8768,
      "orable": 8769,
      "orced": 8770,
      "orta": 8771,
      "orically": 8772,
      "orney": 8773,
      "orient": 8774,
      "atro": 8775,
      "ativ": 8776,
      "aters": 8777,
      "aturing": 8778,
      "atace": 8779,
      "atons": 8780,
      "atio": 8781,
      "atement": 8782,
      "atisf": 8783,
      "atlas": 8784,
      "esh": 8785,
      "esne": 8786,
      "escor": 8787,
      "espan": 8788,
      "escend": 8789,
      "escu": 8790,
      "esirable": 8791,
      "enbe": 8792,
      "enig": 8793,
      "encom": 8794,
      "enut": 8795,
      "enqu": 8796,
      "engr": 8797,
      "enlight": 8798,
      "ensis": 8799,
      "encoun": 8800,
      "enjo": 8801,
      "enchan": 8802,
      "encour": 8803,
      "enthus": 8804,
      "enforced": 8805,
      "enhotep": 8806,
      "enhance": 8807,
      "enliv": 8808,
      "enraged": 8809,
      "aris": 8810,
      "aration": 8811,
      "arine": 8812,
      "arma": 8813,
      "arship": 8814,
      "arious": 8815,
      "arron": 8816,
      "arsen": 8817,
      "array": 8818,
      "arose": 8819,
      "arves": 8820,
      "arances": 8821,
      "areness": 8822,
      "arthy": 8823,
      "aler": 8824,
      "alis": 8825,
      "alion": 8826,
      "alle": 8827,
      "alive": 8828,
      "aline": 8829,
      "alted": 8830,
      "allev": 8831,
      "alog": 8832,
      "altend": 8833,
      "altit": 8834,
      "alists": 8835,
      "allocated": 8836,
      "aloo": 8837,
      "asa": 8838,
      "aser": 8839,
      "asit": 8840,
      "asts": 8841,
      "ascr": 8842,
      "asco": 8843,
      "asters": 8844,
      "asset": 8845,
      "asize": 8846,
      "asping": 8847,
      "oforo": 8848,
      "anded": 8849,
      "anding": 8850,
      "andro": 8851,
      "andran": 8852,
      "andson": 8853,
      "ingements": 8854,
      "ises": 8855,
      "isol": 8856,
      "isers": 8857,
      "isine": 8858,
      "isph": 8859,
      "isite": 8860,
      "isms": 8861,
      "isons": 8862,
      "istry": 8863,
      "isement": 8864,
      "isawa": 8865,
      "isibly": 8866,
      "isfactory": 8867,
      "itz": 8868,
      "itin": 8869,
      "itat": 8870,
      "itation": 8871,
      "itby": 8872,
      "itab": 8873,
      "itating": 8874,
      "itri": 8875,
      "itarian": 8876,
      "itfire": 8877,
      "itability": 8878,
      "itän": 8879,
      "rep": 8880,
      "rely": 8881,
      "repl": 8882,
      "reper": 8883,
      "rebut": 8884,
      "reign": 8885,
      "report": 8886,
      "reass": 8887,
      "reme": 8888,
      "refr": 8889,
      "replayed": 8890,
      "reprodu": 8891,
      "reactiv": 8892,
      "recur": 8893,
      "rects": 8894,
      "rebuilding": 8895,
      "rejo": 8896,
      "remake": 8897,
      "reforms": 8898,
      "remark": 8899,
      "recreation": 8900,
      "recru": 8901,
      "remov": 8902,
      "reput": 8903,
      "rebuild": 8904,
      "relocated": 8905,
      "reborn": 8906,
      "replaces": 8907,
      "reiter": 8908,
      "recourse": 8909,
      "replic": 8910,
      "recited": 8911,
      "rebell": 8912,
      "revenue": 8913,
      "remarks": 8914,
      "reproduces": 8915,
      "recip": 8916,
      "reprinted": 8917,
      "reparation": 8918,
      "revenge": 8919,
      "recaptured": 8920,
      "recovery": 8921,
      "rejuven": 8922,
      "remote": 8923,
      "toon": 8924,
      "toul": 8925,
      "toine": 8926,
      "toman": 8927,
      "tock": 8928,
      "toire": 8929,
      "touring": 8930,
      "tomycorrhiz": 8931,
      "totally": 8932,
      "toyed": 8933,
      "ioners": 8934,
      "ionals": 8935,
      "icy": 8936,
      "iche": 8937,
      "icle": 8938,
      "icir": 8939,
      "icem": 8940,
      "icut": 8941,
      "icited": 8942,
      "icines": 8943,
      "icient": 8944,
      "icipal": 8945,
      "rol": 8946,
      "roof": 8947,
      "root": 8948,
      "rosh": 8949,
      "roke": 8950,
      "rock": 8951,
      "rower": 8952,
      "rograph": 8953,
      "rolled": 8954,
      "robor": 8955,
      "rotor": 8956,
      "rouded": 8957,
      "robatic": 8958,
      "rooge": 8959,
      "rotary": 8960,
      "stim": 8961,
      "strom": 8962,
      "stel": 8963,
      "stark": 8964,
      "stree": 8965,
      "stret": 8966,
      "stipe": 8967,
      "stroke": 8968,
      "het": 8969,
      "heat": 8970,
      "heim": 8971,
      "hement": 8972,
      "healing": 8973,
      "healer": 8974,
      "ouji": 8975,
      "oubted": 8976,
      "acher": 8977,
      "acity": 8978,
      "acile": 8979,
      "acob": 8980,
      "accur": 8981,
      "acuation": 8982,
      "acrobatic": 8983,
      "lect": 8984,
      "lever": 8985,
      "leap": 8986,
      "leted": 8987,
      "leaning": 8988,
      "leaked": 8989,
      "lecular": 8990,
      "leaves": 8991,
      "lepid": 8992,
      "forgiving": 8993,
      "foreman": 8994,
      "forked": 8995,
      "forgot": 8996,
      "forsaken": 8997,
      "dei": 8998,
      "delu": 8999,
      "deple": 9000,
      "detain": 9001,
      "deton": 9002,
      "deified": 9003,
      "deca": 9004,
      "delled": 9005,
      "deleg": 9006,
      "deification": 9007,
      "decommissioning": 9008,
      "deeper": 9009,
      "decompos": 9010,
      "demotion": 9011,
      "demol": 9012,
      "detached": 9013,
      "dezvous": 9014,
      "deleted": 9015,
      "ires": 9016,
      "iries": 9017,
      "irious": 9018,
      "irons": 9019,
      "entran": 9020,
      "entiated": 9021,
      "enticing": 9022,
      "ami": 9023,
      "ams": 9024,
      "amer": 9025,
      "amas": 9026,
      "amia": 9027,
      "amph": 9028,
      "aments": 9029,
      "ammed": 9030,
      "amples": 9031,
      "amatic": 9032,
      "amended": 9033,
      "amble": 9034,
      "amaz": 9035,
      "amusing": 9036,
      "amaty": 9037,
      "amassed": 9038,
      "omel": 9039,
      "omission": 9040,
      "iler": 9041,
      "iled": 9042,
      "ilis": 9043,
      "ilst": 9044,
      "ilation": 9045,
      "ilate": 9046,
      "ilty": 9047,
      "ilbol": 9048,
      "ilimen": 9049,
      "ilitated": 9050,
      "iliar": 9051,
      "seu": 9052,
      "sey": 9053,
      "seer": 9054,
      "seap": 9055,
      "seated": 9056,
      "seiz": 9057,
      "seau": 9058,
      "seater": 9059,
      "secess": 9060,
      "section": 9061,
      "secur": 9062,
      "seism": 9063,
      "seize": 9064,
      "sealed": 9065,
      "seeks": 9066,
      "semble": 9067,
      "semi": 9068,
      "sevent": 9069,
      "secular": 9070,
      "segment": 9071,
      "seismo": 9072,
      "segments": 9073,
      "wash": 9074,
      "bee": 9075,
      "beard": 9076,
      "behave": 9077,
      "behalf": 9078,
      "beque": 9079,
      "beyond": 9080,
      "ivol": 9081,
      "ivel": 9082,
      "ivities": 9083,
      "ivations": 9084,
      "ivered": 9085,
      "ivanov": 9086,
      "uno": 9087,
      "union": 9088,
      "uncon": 9089,
      "unus": 9090,
      "unities": 9091,
      "unten": 9092,
      "unlike": 9093,
      "unjust": 9094,
      "unfam": 9095,
      "unorth": 9096,
      "unknown": 9097,
      "unks": 9098,
      "uncommon": 9099,
      "unpopular": 9100,
      "unpred": 9101,
      "unrest": 9102,
      "unknow": 9103,
      "unification": 9104,
      "unusually": 9105,
      "unifying": 9106,
      "unsafe": 9107,
      "unincorporated": 9108,
      "unsubstant": 9109,
      "unclaimed": 9110,
      "unranked": 9111,
      "unofficially": 9112,
      "unrestricted": 9113,
      "unopposed": 9114,
      "unpleas": 9115,
      "unpopularity": 9116,
      "unviable": 9117,
      "unhappy": 9118,
      "unoccupied": 9119,
      "unchy": 9120,
      "unbranch": 9121,
      "unspecified": 9122,
      "unfortun": 9123,
      "unvoiced": 9124,
      "unaltered": 9125,
      "unsponsored": 9126,
      "chest": 9127,
      "chant": 9128,
      "chord": 9129,
      "chron": 9130,
      "chbook": 9131,
      "chene": 9132,
      "chiff": 9133,
      "chitis": 9134,
      "chiat": 9135,
      "chorus": 9136,
      "Theban": 9137,
      "tered": 9138,
      "tering": 9139,
      "terans": 9140,
      "tertain": 9141,
      "termin": 9142,
      "terrace": 9143,
      "terminus": 9144,
      "territory": 9145,
      "los": 9146,
      "loose": 9147,
      "lobed": 9148,
      "lotype": 9149,
      "looming": 9150,
      "looser": 9151,
      "adu": 9152,
      "ador": 9153,
      "adic": 9154,
      "adle": 9155,
      "adult": 9156,
      "admin": 9157,
      "advert": 9158,
      "admits": 9159,
      "admitt": 9160,
      "odor": 9161,
      "odox": 9162,
      "odermis": 9163,
      "ayuki": 9164,
      "ura": 9165,
      "urg": 9166,
      "urance": 9167,
      "urines": 9168,
      "ursion": 9169,
      "igi": 9170,
      "igs": 9171,
      "igan": 9172,
      "igible": 9173,
      "erected": 9174,
      "ima": 9175,
      "imo": 9176,
      "imag": 9177,
      "immor": 9178,
      "impos": 9179,
      "impart": 9180,
      "imates": 9181,
      "imped": 9182,
      "immin": 9183,
      "imens": 9184,
      "impur": 9185,
      "imson": 9186,
      "immen": 9187,
      "immun": 9188,
      "imposition": 9189,
      "imination": 9190,
      "impersonal": 9191,
      "immanent": 9192,
      "impossible": 9193,
      "immediate": 9194,
      "imrose": 9195,
      "oln": 9196,
      "olve": 9197,
      "olations": 9198,
      "olph": 9199,
      "olized": 9200,
      "olute": 9201,
      "olicism": 9202,
      "olatro": 9203,
      "withstand": 9204,
      "whip": 9205,
      "whist": 9206,
      "whate": 9207,
      "wharves": 9208,
      "whiche": 9209,
      "whilst": 9210,
      "tsman": 9211,
      "tside": 9212,
      "tserr": 9213,
      "tscen": 9214,
      "tschiff": 9215,
      "tral": 9216,
      "trio": 9217,
      "trash": 9218,
      "trances": 9219,
      "trends": 9220,
      "trusion": 9221,
      "trunk": 9222,
      "trunks": 9223,
      "conqu": 9224,
      "confer": 9225,
      "confin": 9226,
      "consen": 9227,
      "conven": 9228,
      "convers": 9229,
      "conception": 9230,
      "convert": 9231,
      "conversion": 9232,
      "conclus": 9233,
      "conjoined": 9234,
      "concurrent": 9235,
      "context": 9236,
      "connote": 9237,
      "conforming": 9238,
      "conference": 9239,
      "conservation": 9240,
      "confronts": 9241,
      "ula": 9242,
      "ulations": 9243,
      "ulating": 9244,
      "ulsive": 9245,
      "ieste": 9246,
      "ceive": 9247,
      "cease": 9248,
      "umably": 9249,
      "uminating": 9250,
      "umulating": 9251,
      "usa": 9252,
      "uson": 9253,
      "usal": 9254,
      "uscr": 9255,
      "usive": 9256,
      "usage": 9257,
      "ota": 9258,
      "oted": 9259,
      "oten": 9260,
      "oting": 9261,
      "otamia": 9262,
      "plus": 9263,
      "plated": 9264,
      "plified": 9265,
      "plines": 9266,
      "planted": 9267,
      "plug": 9268,
      "plastic": 9269,
      "plaus": 9270,
      "ploring": 9271,
      "avel": 9272,
      "avian": 9273,
      "aveng": 9274,
      "avius": 9275,
      "avoid": 9276,
      "pei": 9277,
      "peer": 9278,
      "pewor": 9279,
      "peak": 9280,
      "peace": 9281,
      "peoples": 9282,
      "pearances": 9283,
      "ema": 9284,
      "emper": 9285,
      "emak": 9286,
      "embr": 9287,
      "emiss": 9288,
      "emates": 9289,
      "embro": 9290,
      "embod": 9291,
      "ematic": 9292,
      "embodies": 9293,
      "embell": 9294,
      "emotive": 9295,
      "embark": 9296,
      "emorate": 9297,
      "ematace": 9298,
      "emplified": 9299,
      "comic": 9300,
      "comment": 9301,
      "comprom": 9302,
      "compan": 9303,
      "composition": 9304,
      "compound": 9305,
      "compel": 9306,
      "compose": 9307,
      "complic": 9308,
      "ctures": 9309,
      "cticut": 9310,
      "idor": 9311,
      "iders": 9312,
      "idase": 9313,
      "idae": 9314,
      "idasa": 9315,
      "idolized": 9316,
      "romance": 9317,
      "byell": 9318,
      "essured": 9319,
      "pool": 9320,
      "pocr": 9321,
      "polog": 9322,
      "poetry": 9323,
      "powder": 9324,
      "poisons": 9325,
      "prone": 9326,
      "priz": 9327,
      "prick": 9328,
      "prix": 9329,
      "prince": 9330,
      "priest": 9331,
      "prawn": 9332,
      "verse": 9333,
      "verest": 9334,
      "verify": 9335,
      "verdict": 9336,
      "191": 9337,
      "1913": 9338,
      "apy": 9339,
[...]
