{
  "version": "1.0",
  "truncation": null,
  "padding": null,
  "added_tokens": [
    {
      "id": 0,
      "content": "<unk>",
      "single_word": false,
      "lstrip": false,
      "rstrip": false,
      "normalized": false,
      "special": true
    },
    {
      "id": 1,
      "content": "<s>",
      "single_word": false,
      "lstrip": false,
      "rstrip": false,
      "normalized": false,
      "special": true
    },
    {
      "id": 2,
      "content": "</s>",
      "single_word": false,
      "lstrip": false,
      "rstrip": false,
      "normalized": false,
      "special": true
    },
    {
      "id": 3,
      "content": "<pad>",
      "single_word": false,
      "lstrip": false,
      "rstrip": false,
      "normalized": false,
      "special": true
    },
    {
      "id": 4,
      "content": "<mask>",
      "single_word": false,
      "lstrip": false,
      "rstrip": false,
      "normalized": false,
      "special": true
    }
  ],
  "normalizer": null,
  "pre_tokenizer": {
    "type": "Sequence",
    "pretokenizers": [
      {
        "type": "WhitespaceSplit"
      },
      {
        "type": "Punctuation",
        "behavior": "Isolated"
      }
    ]
  },
  "post_processor": {
    "type": "TemplateProcessing",
    "single": [
      {
        "SpecialToken": {
          "id": "<s>",
          "type_id": 0
        }
      },
      {
        "Sequence": {
          "id": "A",
          "type_id": 0
        }
      },
      {
        "SpecialToken": {
          "id": "</s>",
          "type_id": 0
        }
      }
    ],
    "pair": [
      {
        "SpecialToken": {
          "id": "<s>",
          "type_id": 0
        }
      },
      {
        "Sequence": {
          "id": "A",
          "type_id": 0
        }
      },
      {
        "SpecialToken": {
          "id": "</s>",
          "type_id": 0
        }
      },
      {
        "Sequence": {
          "id": "B",
          "type_id": 0
        }
      },
      {
        "SpecialToken": {
          "id": "</s>",
          "type_id": 0
        }
      }
    ],
    "special_tokens": {
      "</s>": {
        "id": "</s>",
        "ids": [
          2
        ],
        "tokens": [
          "</s>"
        ]
      },
      "<s>": {
        "id": "<s>",
        "ids": [
          1
        ],
        "tokens": [
          "<s>"
        ]
      }
    }
  },
  "decoder": null,
  "model": {
    "type": "BPE",
    "dropout": null,
    "unk_token": null,
    "continuing_subword_prefix": null,
    "end_of_word_suffix": null,
    "fuse_unk": false,
    "byte_fallback": false,
    "ignore_merges": false,
    "vocab": {
      "<unk>": 0,
      "<s>": 1,
      "</s>": 2,
      "<pad>": 3,
      "<mask>": 4,
      "!": 5,
      "\"": 6,
      "#": 7,
      "$": 8,
      "%": 9,
      "&": 10,
      "'": 11,
      "(": 12,
      ")": 13,
      "*": 14,
      "+": 15,
      ",": 16,
      "-": 17,
      ".": 18,
      "/": 19,
      "0": 20,
      "1": 21,
      "2": 22,
      "3": 23,
      "4": 24,
      "5": 25,
      "6": 26,
      "7": 27,
      "8": 28,
      "9": 29,
      ":": 30,
      ";": 31,
      "<": 32,
      "=": 33,
      ">": 34,
      "?": 35,
      "@": 36,
      "A": 37,
      "B": 38,
      "C": 39,
      "D": 40,
      "E": 41,
      "F": 42,
      "G": 43,
      "H": 44,
      "I": 45,
      "J": 46,
      "K": 47,
      "L": 48,
      "M": 49,
      "N": 50,
      "O": 51,
      "P": 52,
      "Q": 53,
      "R": 54,
      "S": 55,
      "T": 56,
      "U": 57,
      "V": 58,
      "W": 59,
      "X": 60,
      "Y": 61,
      "Z": 62,
      "[": 63,
      "]": 64,
      "^": 65,
      "`": 66,
      "a": 67,
      "b": 68,
      "c": 69,
      "d": 70,
      "e": 71,
      "f": 72,
      "g": 73,
      "h": 74,
      "i": 75,
      "j": 76,
      "k": 77,
      "l": 78,
      "m": 79,
      "n": 80,
      "o": 81,
      "p": 82,
      "q": 83,
      "r": 84,
      "s": 85,
      "t": 86,
      "u": 87,
      "v": 88,
      "w": 89,
      "x": 90,
      "y": 91,
      "z": 92,
      "~": 93,
      "£": 94,
      "°": 95,
      "²": 96,
      "´": 97,
      "µ": 98,
      "º": 99,
      "Ä": 100,
      "Å": 101,
      "Æ": 102,
      "É": 103,
      "Ñ": 104,
      "Ö": 105,
      "×": 106,
      "Ü": 107,
      "ß": 108,
      "á": 109,
      "ã": 110,
      "ä": 111,
      "å": 112,
      "æ": 113,
      "ç": 114,
      "è": 115,
      "é": 116,
      "í": 117,
      "ñ": 118,
      "ó": 119,
      "ô": 120,
      "ö": 121,
      "ú": 122,
      "ü": 123,
      "ā": 124,
      "ă": 125,
      "ą": 126,
      "ć": 127,
      "č": 128,
      "đ": 129,
      "ĕ": 130,
      "ę": 131,
      "ğ": 132,
      "Ł": 133,
      "ł": 134,
      "ń": 135,
      "Ō": 136,
      "ō": 137,
      "ś": 138,
      "Š": 139,
      "š": 140,
      "ū": 141,
      "ź": 142,
      "Ż": 143,
      "ż": 144,
      "ə": 145,
      "ɡ": 146,
      "ɪ": 147,
      "ˈ": 148,
      "έ": 149,
      "ή": 150,
      "ί": 151,
      "α": 152,
      "β": 153,
      "γ": 154,
      "δ": 155,
      "ε": 156,
      "θ": 157,
      "ι": 158,
      "κ": 159,
      "λ": 160,
      "μ": 161,
      "ν": 162,
      "ξ": 163,
      "ο": 164,
      "ρ": 165,
      "ς": 166,
      "σ": 167,
      "τ": 168,
      "υ": 169,
      "χ": 170,
      "ό": 171,
      "К": 172,
      "а": 173,
      "в": 174,
      "з": 175,
      "й": 176,
      "к": 177,
      "н": 178,
      "р": 179,
      "с": 180,
      "ы": 181,
      "є": 182,
      "ה": 183,
      "מ": 184,
      "צ": 185,
      "ש": 186,
      "إ": 187,
      "ت": 188,
      "ث": 189,
      "د": 190,
      "س": 191,
      "م": 192,
      "ي": 193,
      "ก": 194,
      "ค": 195,
      "ง": 196,
      "ช": 197,
      "ซ": 198,
      "ญ": 199,
      "ฐ": 200,
      "ณ": 201,
      "ด": 202,
      "ต": 203,
      "บ": 204,
      "ป": 205,
      "พ": 206,
      "ภ": 207,
      "ม": 208,
      "ย": 209,
      "ร": 210,
      "ล": 211,
      "ว": 212,
      "ศ": 213,
      "ษ": 214,
      "ส": 215,
      "ห": 216,
      "อ": 217,
      "ั": 218,
      "า": 219,
      "ิ": 220,
      "ี": 221,
      "ึ": 222,
      "เ": 223,
      "แ": 224,
      "ไ": 225,
      "็": 226,
      "่": 227,
      "้": 228,
      "๊": 229,
      "์": 230,
      "ᵻ": 231,
      "ḏ": 232,
      "ṯ": 233,
      "ạ": 234,
      "ἀ": 235,
      "ἰ": 236,
      "ὑ": 237,
      "–": 238,
      "—": 239,
      "‘": 240,
      "’": 241,
      "“": 242,
      "”": 243,
      "†": 244,
      "‡": 245,
      "…": 246,
      "⁄": 247,
      "₤": 248,
      "₹": 249,
      "→": 250,
      "−": 251,
      "い": 252,
      "う": 253,
      "か": 254,
      "が": 255,
      "き": 256,
      "く": 257,
      "し": 258,
      "た": 259,
      "つ": 260,
      "な": 261,
      "の": 262,
      "め": 263,
      "も": 264,
      "ら": 265,
      "ァ": 266,
      "ア": 267,
      "キ": 268,
      "ュ": 269,
      "リ": 270,
      "ル": 271,
      "ヴ": 272,
      "乙": 273,
      "光": 274,
      "其": 275,
      "具": 276,
      "华": 277,
      "厂": 278,
      "名": 279,
      "君": 280,
      "命": 281,
      "咲": 282,
      "場": 283,
      "女": 284,
      "建": 285,
      "戦": 286,
      "日": 287,
      "旭": 288,
      "灯": 289,
      "玩": 290,
      "琪": 291,
      "瘡": 292,
      "肖": 293,
      "花": 294,
      "誓": 295,
      "誰": 296,
      "许": 297,
      "赤": 298,
      "運": 299,
      "銃": 300,
      "願": 301,
      "３": 302,
      "�": 303,
      "th": 304,
      "in": 305,
      "er": 306,
      "an": 307,
      "the": 308,
      "on": 309,
      "ed": 310,
      "re": 311,
      "at": 312,
      "or": 313,
      "al": 314,
      "en": 315,
      "st": 316,
      "ar": 317,
      "of": 318,
      "as": 319,
      "and": 320,
      "is": 321,
      "es": 322,
      "ing": 323,
      "it": 324,
      "to": 325,
      "ic": 326,
      "ou": 327,
      "ion": 328,
      "he": 329,
      "le": 330,
      "ro": 331,
      "ent": 332,
      "ch": 333,
      "il": 334,
      "se": 335,
      "ol": 336,
      "ad": 337,
      "el": 338,
      "am": 339,
      "om": 340,
      "ac": 341,
      "for": 342,
      "ur": 343,
      "was": 344,
      "be": 345,
      "ir": 346,
      "ly": 347,
      "de": 348,
      "im": 349,
      "The": 350,
      "ith": 351,
      "iv": 352,
      "ation": 353,
      "ow": 354,
      "ig": 355,
      "wh": 356,
      "ay": 357,
      "un": 358,
      "with": 359,
      "ers": 360,
      "that": 361,
      "con": 362,
      "id": 363,
      "ct": 364,
      "ag": 365,
      "ul": 366,
      "em": 367,
      "ter": 368,
      "ot": 369,
      "ist": 370,
      "um": 371,
      "us": 372,
      "by": 373,
      "ere": 374,
      "ce": 375,
      "av": 376,
      "et": 377,
      "ap": 378,
      "ut": 379,
      "ver": 380,
      "19": 381,
      "res": 382,
      "op": 383,
      "pl": 384,
      "rom": 385,
      "all": 386,
      "est": 387,
      "ab": 388,
      "his": 389,
      "ain": 390,
      "com": 391,
      "od": 392,
      "00": 393,
      "are": 394,
      "tr": 395,
      "nd": 396,
      "ies": 397,
      "sh": 398,
      "su": 399,
      "pe": 400,
      "ex": 401,
      "lo": 402,
      "pro": 403,
      "from": 404,
      "if": 405,
      "mo": 406,
      "art": 407,
      "were": 408,
      "ity": 409,
      "ew": 410,
      "In": 411,
      "ther": 412,
      "ate": 413,
      "ord": 414,
      "igh": 415,
      "so": 416,
      "ish": 417,
      "ich": 418,
      "ant": 419,
      "ak": 420,
      "ort": 421,
      "ear": 422,
      "ated": 423,
      "po": 424,
      "cl": 425,
      "end": 426,
      "te": 427,
      "ri": 428,
      "ber": 429,
      "gh": 430,
      "man": 431,
      "per": 432,
      "ast": 433,
      "af": 434,
      "ill": 435,
      "ong": 436,
      "ess": 437,
      "ard": 438,
      "act": 439,
      "qu": 440,
      "ame": 441,
      "ia": 442,
      "ld": 443,
      "one": 444,
      "which": 445,
      "ip": 446,
      "ment": 447,
      "Ch": 448,
      "had": 449,
      "ial": 450,
      "out": 451,
      "ru": 452,
      "rit": 453,
      "our": 454,
      "ian": 455,
      "rou": 456,
      "ive": 457,
      "own": 458,
      "tw": 459,
      "not": 460,
      "pt": 461,
      "ud": 462,
      "co": 463,
      "her": 464,
      "20": 465,
      "port": 466,
      "pr": 467,
      "ight": 468,
      "ass": 469,
      "ave": 470,
      "oc": 471,
      "ev": 472,
      "ary": 473,
      "ack": 474,
      "200": 475,
      "ical": 476,
      "but": 477,
      "ine": 478,
      "ust": 479,
      "St": 480,
      "ge": 481,
      "has": 482,
      "ide": 483,
      "its": 484,
      "ach": 485,
      "og": 486,
      "ell": 487,
      "ork": 488,
      "also": 489,
      "up": 490,
      "their": 491,
      "aw": 492,
      "ue": 493,
      "fir": 494,
      "ous": 495,
      "ign": 496,
      "bl": 497,
      "off": 498,
      "sc": 499,
      "tim": 500,
      "ran": 501,
      "form": 502,
      "ure": 503,
      "int": 504,
      "over": 505,
      "ind": 506,
      "oun": 507,
      "18": 508,
      "201": 509,
      "ition": 510,
      "ke": 511,
      "He": 512,
      "bo": 513,
      "part": 514,
      "ne": 515,
      "ater": 516,
      "who": 517,
      "rec": 518,
      "air": 519,
      "play": 520,
      "ound": 521,
      "pres": 522,
      "ction": 523,
      "und": 524,
      "age": 525,
      "ome": 526,
      "first": 527,
      "ser": 528,
      "vi": 529,
      "ve": 530,
      "au": 531,
      "ould": 532,
      "ory": 533,
      "Th": 534,
      "li": 535,
      "att": 536,
      "other": 537,
      "old": 538,
      "comm": 539,
      "have": 540,
      "two": 541,
      "this": 542,
      "cre": 543,
      "ough": 544,
      "ult": 545,
      "ally": 546,
      "ark": 547,
      "uring": 548,
      "ire": 549,
      "ore": 550,
      "sp": 551,
      "ship": 552,
      "iz": 553,
      "fe": 554,
      "ra": 555,
      "oll": 556,
      "been": 557,
      "she": 558,
      "ree": 559,
      "gr": 560,
      "ans": 561,
      "ations": 562,
      "pos": 563,
      "ason": 564,
      "ok": 565,
      "spe": 566,
      "year": 567,
      "It": 568,
      "cont": 569,
      "du": 570,
      "des": 571,
      "ence": 572,
      "ite": 573,
      "ath": 574,
      "land": 575,
      "comp": 576,
      "dis": 577,
      "fer": 578,
      "ph": 579,
      "Al": 580,
      "after": 581,
      "pre": 582,
      "os": 583,
      "ric": 584,
      "ember": 585,
      "Un": 586,
      "ited": 587,
      "me": 588,
      "ile": 589,
      "arch": 590,
      "Ar": 591,
      "they": 592,
      "ities": 593,
      "ely": 594,
      "incl": 595,
      "ents": 596,
      "able": 597,
      "fl": 598,
      "ade": 599,
      "ck": 600,
      "time": 601,
      "ern": 602,
      "ilm": 603,
      "ib": 604,
      "new": 605,
      "work": 606,
      "season": 607,
      "main": 608,
      "olog": 609,
      "ied": 610,
      "ced": 611,
      "ance": 612,
      "ase": 613,
      "ased": 614,
      "inter": 615,
      "ice": 616,
      "ace": 617,
      "more": 618,
      "cr": 619,
      "ates": 620,
      "cond": 621,
      "ef": 622,
      "ty": 623,
      "though": 624,
      "ubl": 625,
      "reg": 626,
      "ste": 627,
      "under": 628,
      "most": 629,
      "bum": 630,
      "ts": 631,
      "ild": 632,
      "go": 633,
      "mon": 634,
      "rough": 635,
      "cent": 636,
      "ever": 637,
      "no": 638,
      "mer": 639,
      "god": 640,
      "ted": 641,
      "ved": 642,
      "album": 643,
      "ens": 644,
      "Sh": 645,
      "gan": 646,
      "ual": 647,
      "ces": 648,
      "ins": 649,
      "them": 650,
      "row": 651,
      "An": 652,
      "publ": 653,
      "him": 654,
      "spec": 655,
      "film": 656,
      "Re": 657,
      "ron": 658,
      "into": 659,
      "ered": 660,
      "sa": 661,
      "used": 662,
      "record": 663,
      "bec": 664,
      "cess": 665,
      "ors": 666,
      "ake": 667,
      "ings": 668,
      "stru": 669,
      "199": 670,
      "vel": 671,
      "sel": 672,
      "fin": 673,
      "les": 674,
      "cted": 675,
      "includ": 676,
      "gen": 677,
      "rel": 678,
      "urn": 679,
      "my": 680,
      "Pol": 681,
      "ry": 682,
      "ten": 683,
      "ann": 684,
      "ions": 685,
      "we": 686,
      "ink": 687,
      "ren": 688,
      "arg": 689,
      "ular": 690,
      "ob": 691,
      "red": 692,
      "ames": 693,
      "ordan": 694,
      "Jordan": 695,
      "grou": 696,
      "ret": 697,
      "orn": 698,
      "ick": 699,
      "during": 700,
      "ational": 701,
      "Brit": 702,
      "ix": 703,
      "Se": 704,
      "only": 705,
      "min": 706,
      "ail": 707,
      "bu": 708,
      "ae": 709,
      "erson": 710,
      "sub": 711,
      "num": 712,
      "ang": 713,
      "again": 714,
      "rele": 715,
      "fore": 716,
      "sing": 717,
      "cons": 718,
      "some": 719,
      "any": 720,
      "As": 721,
      "ished": 722,
      "produ": 723,
      "can": 724,
      "four": 725,
      "led": 726,
      "would": 727,
      "use": 728,
      "three": 729,
      "On": 730,
      "ci": 731,
      "sy": 732,
      "team": 733,
      "way": 734,
      "than": 735,
      "een": 736,
      "ie": 737,
      "ton": 738,
      "reat": 739,
      "orth": 740,
      "kn": 741,
      "als": 742,
      "Fe": 743,
      "She": 744,
      "vest": 745,
      "ward": 746,
      "second": 747,
      "through": 748,
      "being": 749,
      "about": 750,
      "ful": 751,
      "pol": 752,
      "arn": 753,
      "when": 754,
      "No": 755,
      "later": 756,
      "ict": 757,
      "eler": 758,
      "hist": 759,
      "je": 760,
      "oy": 761,
      "ony": 762,
      "ower": 763,
      "son": 764,
      "many": 765,
      "Af": 766,
      "ose": 767,
      "De": 768,
      "Is": 769,
      "Whe": 770,
      "writ": 771,
      "urch": 772,
      "ele": 773,
      "high": 774,
      "ily": 775,
      "do": 776,
      "Com": 777,
      "rist": 778,
      "where": 779,
      "Wheeler": 780,
      "Ind": 781,
      "000": 782,
      "vis": 783,
      "ating": 784,
      "str": 785,
      "outh": 786,
      "usic": 787,
      "ific": 788,
      "ious": 789,
      "Le": 790,
      "New": 791,
      "day": 792,
      "med": 793,
      "sk": 794,
      "iss": 795,
      "aeolog": 796,
      "such": 797,
      "sur": 798,
      "ico": 799,
      "loc": 800,
      "ollow": 801,
      "dr": 802,
      "ars": 803,
      "game": 804,
      "made": 805,
      "iel": 806,
      "then": 807,
      "cho": 808,
      "amp": 809,
      "Gal": 810,
      "az": 811,
      "while": 812,
      "bel": 813,
      "char": 814,
      "orld": 815,
      "br": 816,
      "well": 817,
      "point": 818,
      "present": 819,
      "II": 820,
      "car": 821,
      "cri": 822,
      "betw": 823,
      "view": 824,
      "British": 825,
      "veston": 826,
      "Galveston": 827,
      "between": 828,
      "hy": 829,
      "Christ": 830,
      "ped": 831,
      "sign": 832,
      "ism": 833,
      "city": 834,
      "there": 835,
      "Ger": 836,
      "cer": 837,
      "public": 838,
      "York": 839,
      "ft": 840,
      "number": 841,
      "ext": 842,
      "call": 843,
      "ost": 844,
      "coun": 845,
      "gy": 846,
      "song": 847,
      "ven": 848,
      "ics": 849,
      "sup": 850,
      "both": 851,
      "lead": 852,
      "Wh": 853,
      "Town": 854,
      "long": 855,
      "oper": 856,
      "ife": 857,
      "ep": 858,
      "ived": 859,
      "years": 860,
      "ood": 861,
      "tain": 862,
      "gods": 863,
      "ject": 864,
      "ball": 865,
      "cur": 866,
      "met": 867,
      "ale": 868,
      "Jo": 869,
      "cial": 870,
      "ma": 871,
      "ised": 872,
      "ause": 873,
      "ub": 874,
      "aft": 875,
      "known": 876,
      "10": 877,
      "bed": 878,
      "ican": 879,
      "clo": 880,
      "pop": 881,
      "war": 882,
      "serv": 883,
      "col": 884,
      "follow": 885,
      "descri": 886,
      "United": 887,
      "Amer": 888,
      "dif": 889,
      "add": 890,
      "side": 891,
      "This": 892,
      "back": 893,
      "eral": 894,
      "sever": 895,
      "chool": 896,
      "ond": 897,
      "igin": 898,
      "appe": 899,
      "how": 900,
      "io": 901,
      "inn": 902,
      "15": 903,
      "Cl": 904,
      "ures": 905,
      "before": 906,
      "ists": 907,
      "cap": 908,
      "ral": 909,
      "ug": 910,
      "became": 911,
      "Bl": 912,
      "these": 913,
      "eng": 914,
      "against": 915,
      "ute": 916,
      "194": 917,
      "198": 918,
      "ople": 919,
      "ized": 920,
      "self": 921,
      "ield": 922,
      "dep": 923,
      "30": 924,
      "cord": 925,
      "stein": 926,
      "Con": 927,
      "ident": 928,
      "ctor": 929,
      "send": 930,
      "remain": 931,
      "set": 932,
      "ivers": 933,
      "early": 934,
      "care": 935,
      "found": 936,
      "stud": 937,
      "contin": 938,
      "including": 939,
      "And": 940,
      "hum": 941,
      "cept": 942,
      "Polish": 943,
      "ah": 944,
      "crit": 945,
      "mar": 946,
      "began": 947,
      "offic": 948,
      "said": 949,
      "Ac": 950,
      "div": 951,
      "origin": 952,
      "hel": 953,
      "ury": 954,
      "ek": 955,
      "vol": 956,
      "itt": 957,
      "ague": 958,
      "ress": 959,
      "ss": 960,
      "arm": 961,
      "inkel": 962,
      "After": 963,
      "Finkel": 964,
      "prom": 965,
      "ull": 966,
      "Townsend": 967,
      "several": 968,
      "Finkelstein": 969,
      "At": 970,
      "May": 971,
      "rol": 972,
      "feat": 973,
      "German": 974,
      "may": 975,
      "state": 976,
      "ise": 977,
      "ird": 978,
      "dire": 979,
      "rap": 980,
      "Egy": 981,
      "sm": 982,
      "dec": 983,
      "ement": 984,
      "soci": 985,
      "like": 986,
      "bers": 987,
      "could": 988,
      "alk": 989,
      "Nico": 990,
      "par": 991,
      "ional": 992,
      "ural": 993,
      "peri": 994,
      "ground": 995,
      "Nicole": 996,
      "12": 997,
      "dist": 998,
      "nam": 999,
      "var": 1000,
      "ided": 1001,
      "ments": 1002,
      "archaeolog": 1003,
      "Ad": 1004,
      "cav": 1005,
      "cut": 1006,
      "orm": 1007,
      "trans": 1008,
      "overn": 1009,
      "En": 1010,
      "fam": 1011,
      "mem": 1012,
      "suc": 1013,
      "Egypt": 1014,
      "devel": 1015,
      "Be": 1016,
      "Ge": 1017,
      "ined": 1018,
      "ince": 1019,
      "ored": 1020,
      "class": 1021,
      "cover": 1022,
      "Joh": 1023,
      "develop": 1024,
      "Sarn": 1025,
      "ble": 1026,
      "music": 1027,
      "released": 1028,
      "appear": 1029,
      "17": 1030,
      "down": 1031,
      "ask": 1032,
      "Sarnia": 1033,
      "cy": 1034,
      "che": 1035,
      "ines": 1036,
      "stit": 1037,
      "aking": 1038,
      "ended": 1039,
      "field": 1040,
      "gg": 1041,
      "vers": 1042,
      "rece": 1043,
      "ash": 1044,
      "people": 1045,
      "book": 1046,
      "bro": 1047,
      "line": 1048,
      "oot": 1049,
      "head": 1050,
      "ime": 1051,
      "ired": 1052,
      "John": 1053,
      "Col": 1054,
      "gun": 1055,
      "ative": 1056,
      "leg": 1057,
      "Comm": 1058,
      "success": 1059,
      "comple": 1060,
      "report": 1061,
      "mill": 1062,
      "rest": 1063,
      "less": 1064,
      "life": 1065,
      "same": 1066,
      "contr": 1067,
      "aged": 1068,
      "species": 1069,
      "support": 1070,
      "iev": 1071,
      "person": 1072,
      "plac": 1073,
      "return": 1074,
      "Fey": 1075,
      "bre": 1076,
      "six": 1077,
      "ets": 1078,
      "consid": 1079,
      "War": 1080,
      "ually": 1081,
      "ides": 1082,
      "ships": 1083,
      "All": 1084,
      "differ": 1085,
      "giv": 1086,
      "mat": 1087,
      "ons": 1088,
      "ety": 1089,
      "antim": 1090,
      "Nov": 1091,
      "13": 1092,
      "West": 1093,
      "national": 1094,
      "sl": 1095,
      "although": 1096,
      "unt": 1097,
      "ument": 1098,
      "come": 1099,
      "States": 1100,
      "series": 1101,
      "design": 1102,
      "craft": 1103,
      "50": 1104,
      "gl": 1105,
      "ues": 1106,
      "start": 1107,
      "open": 1108,
      "history": 1109,
      "Can": 1110,
      "each": 1111,
      "list": 1112,
      "larg": 1113,
      "uch": 1114,
      "stand": 1115,
      "top": 1116,
      "omin": 1117,
      "app": 1118,
      "along": 1119,
      "child": 1120,
      "prov": 1121,
      "partic": 1122,
      "played": 1123,
      "called": 1124,
      "cording": 1125,
      "career": 1126,
      "small": 1127,
      "east": 1128,
      "hal": 1129,
      "name": 1130,
      "site": 1131,
      "ock": 1132,
      "press": 1133,
      "described": 1134,
      "American": 1135,
      "cour": 1136,
      "school": 1137,
      "uk": 1138,
      "real": 1139,
      "show": 1140,
      "build": 1141,
      "aim": 1142,
      "ather": 1143,
      "bod": 1144,
      "did": 1145,
      "ility": 1146,
      "constru": 1147,
      "group": 1148,
      "five": 1149,
      "mark": 1150,
      "ane": 1151,
      "result": 1152,
      "ible": 1153,
      "named": 1154,
      "14": 1155,
      "lay": 1156,
      "oth": 1157,
      "requ": 1158,
      "organ": 1159,
      "acter": 1160,
      "une": 1161,
      "emp": 1162,
      "place": 1163,
      "pect": 1164,
      "formed": 1165,
      "ium": 1166,
      "incre": 1167,
      "Church": 1168,
      "ians": 1169,
      "round": 1170,
      "because": 1171,
      "November": 1172,
      "Ros": 1173,
      "ai": 1174,
      "home": 1175,
      "mas": 1176,
      "read": 1177,
      "oman": 1178,
      "command": 1179,
      "For": 1180,
      "gu": 1181,
      "right": 1182,
      "ured": 1183,
      "ically": 1184,
      "rang": 1185,
      "position": 1186,
      "ittle": 1187,
      "Jan": 1188,
      "just": 1189,
      "power": 1190,
      "ones": 1191,
      "iversity": 1192,
      "16": 1193,
      "NB": 1194,
      "North": 1195,
      "mil": 1196,
      "arr": 1197,
      "ouse": 1198,
      "They": 1199,
      "resp": 1200,
      "Air": 1201,
      "Mar": 1202,
      "Oc": 1203,
      "Christmas": 1204,
      "11": 1205,
      "gold": 1206,
      "la": 1207,
      "now": 1208,
      "west": 1209,
      "represent": 1210,
      "193": 1211,
      "ank": 1212,
      "2013": 1213,
      "received": 1214,
      "Me": 1215,
      "cult": 1216,
      "doll": 1217,
      "jor": 1218,
      "uc": 1219,
      "issu": 1220,
      "try": 1221,
      "antimony": 1222,
      "How": 1223,
      "those": 1224,
      "ung": 1225,
      "action": 1226,
      "even": 1227,
      "Dec": 1228,
      "Pro": 1229,
      "ove": 1230,
      "ting": 1231,
      "track": 1232,
      "order": 1233,
      "rael": 1234,
      "Israel": 1235,
      "character": 1236,
      "25": 1237,
      "based": 1238,
      "games": 1239,
      "ilt": 1240,
      "def": 1241,
      "deities": 1242,
      "2007": 1243,
      "aircraft": 1244,
      "million": 1245,
      "GA": 1246,
      "ML": 1247,
      "tow": 1248,
      "ants": 1249,
      "oung": 1250,
      "athan": 1251,
      "human": 1252,
      "miss": 1253,
      "ude": 1254,
      "world": 1255,
      "enn": 1256,
      "ese": 1257,
      "allow": 1258,
      "ards": 1259,
      "prof": 1260,
      "There": 1261,
      "Am": 1262,
      "Aug": 1263,
      "Fran": 1264,
      "James": 1265,
      "hand": 1266,
      "ier": 1267,
      "will": 1268,
      "ys": 1269,
      "tober": 1270,
      "ively": 1271,
      "ulation": 1272,
      "197": 1273,
      "abl": 1274,
      "ified": 1275,
      "away": 1276,
      "single": 1277,
      "wards": 1278,
      "October": 1279,
      "December": 1280,
      "August": 1281,
      "Apr": 1282,
      "Pal": 1283,
      "bus": 1284,
      "ox": 1285,
      "review": 1286,
      "ained": 1287,
      "following": 1288,
      "Ross": 1289,
      "April": 1290,
      "Aust": 1291,
      "Nathan": 1292,
      "Tw": 1293,
      "Tru": 1294,
      "dam": 1295,
      "jo": 1296,
      "mod": 1297,
      "pass": 1298,
      "ued": 1299,
      "ves": 1300,
      "area": 1301,
      "key": 1302,
      "World": 1303,
      "last": 1304,
      "ris": 1305,
      "uro": 1306,
      "left": 1307,
      "ently": 1308,
      "urt": 1309,
      "post": 1310,
      "ially": 1311,
      "vious": 1312,
      "fle": 1313,
      "fac": 1314,
      "uary": 1315,
      "stated": 1316,
      "posed": 1317,
      "flu": 1318,
      "Sept": 1319,
      "original": 1320,
      "overnment": 1321,
      "family": 1322,
      "June": 1323,
      "We": 1324,
      "bar": 1325,
      "band": 1326,
      "der": 1327,
      "den": 1328,
      "fr": 1329,
      "rum": 1330,
      "sem": 1331,
      "what": 1332,
      "aving": 1333,
      "moved": 1334,
      "useum": 1335,
      "half": 1336,
      "September": 1337,
      "During": 1338,
      "fic": 1339,
      "gre": 1340,
      "much": 1341,
      "near": 1342,
      "run": 1343,
      "took": 1344,
      "iver": 1345,
      "addition": 1346,
      "Canad": 1347,
      "gn": 1348,
      "thor": 1349,
      "ator": 1350,
      "establ": 1351,
      "project": 1352,
      "activ": 1353,
      "ideo": 1354,
      "University": 1355,
      "included": 1356,
      "period": 1357,
      "AML": 1358,
      "Mad": 1359,
      "Ph": 1360,
      "blo": 1361,
      "atter": 1362,
      "ales": 1363,
      "arly": 1364,
      "thern": 1365,
      "different": 1366,
      "Euro": 1367,
      "batt": 1368,
      "since": 1369,
      "vent": 1370,
      "another": 1371,
      "ately": 1372,
      "often": 1373,
      "ross": 1374,
      "adem": 1375,
      "iva": 1376,
      "within": 1377,
      "ages": 1378,
      "appro": 1379,
      "control": 1380,
      "previous": 1381,
      "ax": 1382,
      "di": 1383,
      "fur": 1384,
      "sol": 1385,
      "ford": 1386,
      "import": 1387,
      "empt": 1388,
      "192": 1389,
      "claim": 1390,
      "event": 1391,
      "2006": 1392,
      "week": 1393,
      "considered": 1394,
      "Gen": 1395,
      "His": 1396,
      "King": 1397,
      "Or": 1398,
      "South": 1399,
      "lim": 1400,
      "light": 1401,
      "nat": 1402,
      "sit": 1403,
      "arge": 1404,
      "ital": 1405,
      "avy": 1406,
      "aining": 1407,
      "excav": 1408,
      "occ": 1409,
      "Shiva": 1410,
      "India": 1411,
      "colle": 1412,
      "until": 1413,
      "NBA": 1414,
      "However": 1415,
      "Str": 1416,
      "US": 1417,
      "third": 1418,
      "roy": 1419,
      "illo": 1420,
      "dest": 1421,
      "imes": 1422,
      "196": 1423,
      "gener": 1424,
      "built": 1425,
      "inning": 1426,
      "Europe": 1427,
      "Bo": 1428,
      "Car": 1429,
      "So": 1430,
      "cor": 1431,
      "cell": 1432,
      "great": 1433,
      "km": 1434,
      "sim": 1435,
      "south": 1436,
      "win": 1437,
      "around": 1438,
      "ival": 1439,
      "ution": 1440,
      "2010": 1441,
      "2011": 1442,
      "histor": 1443,
      "members": 1444,
      "won": 1445,
      "stem": 1446,
      "empl": 1447,
      "polit": 1448,
      "major": 1449,
      "Truj": 1450,
      "fact": 1451,
      "val": 1452,
      "ley": 1453,
      "ives": 1454,
      "commun": 1455,
      "January": 1456,
      "Trujillo": 1457,
      "City": 1458,
      "Mon": 1459,
      "Mark": 1460,
      "National": 1461,
      "Roman": 1462,
      "fem": 1463,
      "iqu": 1464,
      "large": 1465,
      "pri": 1466,
      "ina": 1467,
      "star": 1468,
      "role": 1469,
      "rote": 1470,
      "ays": 1471,
      "quad": 1472,
      "Ex": 1473,
      "Ro": 1474,
      "Sb": 1475,
      "bas": 1476,
      "cru": 1477,
      "grow": 1478,
      "ls": 1479,
      "chan": 1480,
      "sex": 1481,
      "best": 1482,
      "trad": 1483,
      "expl": 1484,
      "goal": 1485,
      "century": 1486,
      "published": 1487,
      "NH": 1488,
      "Ne": 1489,
      "make": 1490,
      "let": 1491,
      "uss": 1492,
      "short": 1493,
      "2008": 1494,
      "believ": 1495,
      "AA": 1496,
      "Coun": 1497,
      "Ju": 1498,
      "ery": 1499,
      "ison": 1500,
      "itary": 1501,
      "tom": 1502,
      "beh": 1503,
      "sugg": 1504,
      "mother": 1505,
      "suggest": 1506,
      "cle": 1507,
      "por": 1508,
      "turn": 1509,
      "wrote": 1510,
      "agre": 1511,
      "very": 1512,
      "195": 1513,
      "Char": 1514,
      "former": 1515,
      "fect": 1516,
      "release": 1517,
      "located": 1518,
      "given": 1519,
      "particular": 1520,
      "40": 1521,
      "Jew": 1522,
      "came": 1523,
      "north": 1524,
      "ple": 1525,
      "sen": 1526,
      "water": 1527,
      "invol": 1528,
      "sty": 1529,
      "story": 1530,
      "held": 1531,
      "ched": 1532,
      "church": 1533,
      "death": 1534,
      "2009": 1535,
      "186": 1536,
      "ctions": 1537,
      "recorded": 1538,
      "Command": 1539,
      "hip": 1540,
      "thing": 1541,
      "init": 1542,
      "ices": 1543,
      "sequ": 1544,
      "ister": 1545,
      "akes": 1546,
      "ends": 1547,
      "syn": 1548,
      "Anderson": 1549,
      "dollar": 1550,
      "Gu": 1551,
      "Sap": 1552,
      "fig": 1553,
      "low": 1554,
      "men": 1555,
      "sent": 1556,
      "test": 1557,
      "reach": 1558,
      "stat": 1559,
      "leuk": 1560,
      "ches": 1561,
      "ending": 1562,
      "attempt": 1563,
      "produced": 1564,
      "throughout": 1565,
      "Egyptian": 1566,
      "Pr": 1567,
      "Rock": 1568,
      "dom": 1569,
      "pur": 1570,
      "put": 1571,
      "influ": 1572,
      "oring": 1573,
      "island": 1574,
      "seven": 1575,
      "forman": 1576,
      "ots": 1577,
      "losa": 1578,
      "author": 1579,
      "vision": 1580,
      "construction": 1581,
      "Lond": 1582,
      "March": 1583,
      "get": 1584,
      "pite": 1585,
      "ences": 1586,
      "relation": 1587,
      "promot": 1588,
      "profess": 1589,
      "London": 1590,
      "21": 1591,
      "Cath": 1592,
      "Tex": 1593,
      "cir": 1594,
      "due": 1595,
      "level": 1596,
      "seen": 1597,
      "ivil": 1598,
      "using": 1599,
      "ried": 1600,
      "noted": 1601,
      "prim": 1602,
      "Arch": 1603,
      "month": 1604,
      "placed": 1605,
      "Saprang": 1606,
      "Music": 1607,
      "bru": 1608,
      "hold": 1609,
      "ness": 1610,
      "pan": 1611,
      "wood": 1612,
      "ared": 1613,
      "ica": 1614,
      "league": 1615,
      "ado": 1616,
      "omen": 1617,
      "term": 1618,
      "2012": 1619,
      "Although": 1620,
      "rict": 1621,
      "ront": 1622,
      "building": 1623,
      "body": 1624,
      "Cent": 1625,
      "God": 1626,
      "hib": 1627,
      "iety": 1628,
      "search": 1629,
      "uments": 1630,
      "poss": 1631,
      "relig": 1632,
      "however": 1633,
      "continued": 1634,
      "leukem": 1635,
      "Cathol": 1636,
      "Hol": 1637,
      "With": 1638,
      "foot": 1639,
      "ike": 1640,
      "nal": 1641,
      "ode": 1642,
      "road": 1643,
      "chart": 1644,
      "aver": 1645,
      "ope": 1646,
      "final": 1647,
      "League": 1648,
      "local": 1649,
      "draw": 1650,
      "further": 1651,
      "important": 1652,
      "23": 1653,
      "Des": 1654,
      "Little": 1655,
      "Pe": 1656,
      "Rou": 1657,
      "ient": 1658,
      "kill": 1659,
      "ling": 1660,
      "late": 1661,
      "ps": 1662,
      "sed": 1663,
      "tit": 1664,
      "you": 1665,
      "omet": 1666,
      "lying": 1667,
      "performan": 1668,
      "According": 1669,
      "General": 1670,
      "Texas": 1671,
      "East": 1672,
      "Jack": 1673,
      "UK": 1674,
      "ibut": 1675,
      "ief": 1676,
      "sou": 1677,
      "take": 1678,
      "ats": 1679,
      "ision": 1680,
      "ulf": 1681,
      "aken": 1682,
      "tele": 1683,
      "times": 1684,
      "rench": 1685,
      "Febru": 1686,
      "critic": 1687,
      "Route": 1688,
      "February": 1689,
      "Br": 1690,
      "Best": 1691,
      "French": 1692,
      "equ": 1693,
      "fri": 1694,
      "hour": 1695,
      "mid": 1696,
      "next": 1697,
      "amb": 1698,
      "should": 1699,
      "aff": 1700,
      "commer": 1701,
      "include": 1702,
      "points": 1703,
      "alky": 1704,
      "various": 1705,
      "0s": 1706,
      "Gr": 1707,
      "ael": 1708,
      "camp": 1709,
      "fun": 1710,
      "still": 1711,
      "become": 1712,
      "without": 1713,
      "abor": 1714,
      "ria": 1715,
      "scored": 1716,
      "These": 1717,
      "graf": 1718,
      "signed": 1719,
      "popular": 1720,
      "reported": 1721,
      "quadron": 1722,
      "Co": 1723,
      "Nor": 1724,
      "Of": 1725,
      "corn": 1726,
      "oto": 1727,
      "van": 1728,
      "wor": 1729,
      "itz": 1730,
      "urus": 1731,
      "ivid": 1732,
      "aves": 1733,
      "itions": 1734,
      "player": 1735,
      "augh": 1736,
      "typ": 1737,
      "ensive": 1738,
      "himself": 1739,
      "system": 1740,
      "days": 1741,
      "ski": 1742,
      "returned": 1743,
      "24": 1744,
      "Furt": 1745,
      "aer": 1746,
      "base": 1747,
      "ca": 1748,
      "iation": 1749,
      "tal": 1750,
      "inc": 1751,
      "eding": 1752,
      "2014": 1753,
      "2015": 1754,
      "Island": 1755,
      "signific": 1756,
      "children": 1757,
      "layer": 1758,
      "Markgraf": 1759,
      "Furtado": 1760,
      "100": 1761,
      "Hist": 1762,
      "government": 1763,
      "tro": 1764,
      "wind": 1765,
      "iness": 1766,
      "ene": 1767,
      "rock": 1768,
      "chol": 1769,
      "olay": 1770,
      "dev": 1771,
      "iving": 1772,
      "idence": 1773,
      "teach": 1774,
      "ockey": 1775,
      "individ": 1776,
      "common": 1777,
      "cret": 1778,
      "ize": 1779,
      "ferred": 1780,
      "Sholay": 1781,
      "uals": 1782,
      "strong": 1783,
      "population": 1784,
      "break": 1785,
      "NHL": 1786,
      "Jewish": 1787,
      "Archaeolog": 1788,
      "You": 1789,
      "del": 1790,
      "father": 1791,
      "mater": 1792,
      "mix": 1793,
      "pen": 1794,
      "ving": 1795,
      "ush": 1796,
      "arded": 1797,
      "formation": 1798,
      "grap": 1799,
      "stead": 1800,
      "Britain": 1801,
      "Indian": 1802,
      "country": 1803,
      "Blue": 1804,
      "direct": 1805,
      "successful": 1806,
      "occup": 1807,
      "Ali": 1808,
      "Med": 1809,
      "Red": 1810,
      "Sc": 1811,
      "front": 1812,
      "having": 1813,
      "inv": 1814,
      "atory": 1815,
      "ising": 1816,
      "ilar": 1817,
      "among": 1818,
      "plan": 1819,
      "nder": 1820,
      "anti": 1821,
      "club": 1822,
      "Army": 1823,
      "crake": 1824,
      "epis": 1825,
      "ulls": 1826,
      "guns": 1827,
      "military": 1828,
      "July": 1829,
      "commercial": 1830,
      "Early": 1831,
      "Her": 1832,
      "Im": 1833,
      "Ste": 1834,
      "Valky": 1835,
      "Will": 1836,
      "aul": 1837,
      "fire": 1838,
      "spo": 1839,
      "sold": 1840,
      "ances": 1841,
      "ened": 1842,
      "elt": 1843,
      "decl": 1844,
      "idge": 1845,
      "aren": 1846,
      "sure": 1847,
      "exp": 1848,
      "187": 1849,
      "disc": 1850,
      "rown": 1851,
      "production": 1852,
      "songs": 1853,
      "operations": 1854,
      "Black": 1855,
      "contract": 1856,
      "By": 1857,
      "Ed": 1858,
      "Fin": 1859,
      "Long": 1860,
      "Mc": 1861,
      "Pet": 1862,
      "Port": 1863,
      "flo": 1864,
      "few": 1865,
      "ior": 1866,
      "pair": 1867,
      "young": 1868,
      "ials": 1869,
      "served": 1870,
      "developed": 1871,
      "stitute": 1872,
      "female": 1873,
      "cause": 1874,
      "fed": 1875,
      "mi": 1876,
      "pil": 1877,
      "sound": 1878,
      "voc": 1879,
      "yl": 1880,
      "ero": 1881,
      "aton": 1882,
      "stre": 1883,
      "sele": 1884,
      "iron": 1885,
      "ither": 1886,
      "appoint": 1887,
      "190": 1888,
      "viol": 1889,
      "attack": 1890,
      "feet": 1891,
      "good": 1892,
      "every": 1893,
      "ission": 1894,
      "close": 1895,
      "Academ": 1896,
      "Sovi": 1897,
      "Catholic": 1898,
      "45": 1899,
      "One": 1900,
      "cil": 1901,
      "ez": 1902,
      "live": 1903,
      "making": 1904,
      "rew": 1905,
      "reco": 1906,
      "associ": 1907,
      "Inter": 1908,
      "never": 1909,
      "consist": 1910,
      "Afric": 1911,
      "divine": 1912,
      "others": 1913,
      "destroy": 1914,
      "style": 1915,
      "born": 1916,
      "eight": 1917,
      "member": 1918,
      "sum": 1919,
      "want": 1920,
      "ying": 1921,
      "educ": 1922,
      "ref": 1923,
      "alth": 1924,
      "enced": 1925,
      "iting": 1926,
      "deal": 1927,
      "ports": 1928,
      "range": 1929,
      "indust": 1930,
      "ization": 1931,
      "ways": 1932,
      "written": 1933,
      "III": 1934,
      "When": 1935,
      "Colum": 1936,
      "town": 1937,
      "Austral": 1938,
      "established": 1939,
      "Kingdom": 1940,
      "circ": 1941,
      "Bulls": 1942,
      "Eaton": 1943,
      "Ma": 1944,
      "Roy": 1945,
      "cast": 1946,
      "fre": 1947,
      "mis": 1948,
      "video": 1949,
      "ination": 1950,
      "stone": 1951,
      "iter": 1952,
      "itted": 1953,
      "least": 1954,
      "accept": 1955,
      "respect": 1956,
      "arker": 1957,
      "covered": 1958,
      "Two": 1959,
      "relationship": 1960,
      "Valkyria": 1961,
      "80": 1962,
      "Bar": 1963,
      "Dav": 1964,
      "Fl": 1965,
      "Mo": 1966,
      "Mich": 1967,
      "Par": 1968,
      "cou": 1969,
      "don": 1970,
      "fru": 1971,
      "host": 1972,
      "house": 1973,
      "iam": 1974,
      "mm": 1975,
      "wall": 1976,
      "atic": 1977,
      "ster": 1978,
      "aries": 1979,
      "ington": 1980,
      "tour": 1981,
      "icated": 1982,
      "beg": 1983,
      "aying": 1984,
      "aper": 1985,
      "ably": 1986,
      "ograp": 1987,
      "spir": 1988,
      "Art": 1989,
      "interest": 1990,
      "Canada": 1991,
      "60": 1992,
      "Awards": 1993,
      "Dev": 1994,
      "Tr": 1995,
      "cal": 1996,
      "fund": 1997,
      "gave": 1998,
      "ham": 1999,
      "law": 2000,
      "mor": 2001,
      "museum": 2002,
      "ny": 2003,
      "norm": 2004,
      "pain": 2005,
      "sour": 2006,
      "tre": 2007,
      "went": 2008,
      "women": 2009,
      "attr": 2010,
      "itch": 2011,
      "ulpt": 2012,
      "plann": 2013,
      "above": 2014,
      "suf": 2015,
      "exist": 2016,
      "earli": 2017,
      "events": 2018,
      "gether": 2019,
      "compet": 2020,
      "ference": 2021,
      "thought": 2022,
      "regular": 2023,
      "full": 2024,
      "While": 2025,
      "curren": 2026,
      "development": 2027,
      "tradition": 2028,
      "significant": 2029,
      "recogn": 2030,
      "22": 2031,
      "AS": 2032,
      "Em": 2033,
      "Per": 2034,
      "Rev": 2035,
      "School": 2036,
      "fall": 2037,
      "nor": 2038,
      "night": 2039,
      "ality": 2040,
      "ament": 2041,
      "forces": 2042,
      "dem": 2043,
      "ape": 2044,
      "comed": 2045,
      "earn": 2046,
      "teen": 2047,
      "bert": 2048,
      "performed": 2049,
      "coach": 2050,
      "board": 2051,
      "players": 2052,
      "created": 2053,
      "special": 2054,
      "films": 2055,
      "police": 2056,
      "writing": 2057,
      "leading": 2058,
      "Clark": 2059,
      "Geor": 2060,
      "version": 2061,
      "Palest": 2062,
      "political": 2063,
      "behind": 2064,
      "cm": 2065,
      "felt": 2066,
      "tar": 2067,
      "word": 2068,
      "arian": 2069,
      "icles": 2070,
      "chang": 2071,
      "debut": 2072,
      "coming": 2073,
      "prote": 2074,
      "ption": 2075,
      "effect": 2076,
      "goals": 2077,
      "does": 2078,
      "schools": 2079,
      "Phil": 2080,
      "28": 2081,
      "Cold": 2082,
      "Cull": 2083,
      "Paul": 2084,
      "Ser": 2085,
      "Squadron": 2086,
      "ba": 2087,
      "bur": 2088,
      "coll": 2089,
      "fav": 2090,
      "fif": 2091,
      "ged": 2092,
      "got": 2093,
      "ik": 2094,
      "ler": 2095,
      "pat": 2096,
      "ping": 2097,
      "rad": 2098,
      "schol": 2099,
      "treat": 2100,
      "taken": 2101,
      "reve": 2102,
      "too": 2103,
      "chn": 2104,
      "fort": 2105,
      "ability": 2106,
      "love": 2107,
      "loss": 2108,
      "sculpt": 2109,
      "forms": 2110,
      "lik": 2111,
      "crew": 2112,
      "underground": 2113,
      "monument": 2114,
      "struck": 2115,
      "sym": 2116,
      "surv": 2117,
      "America": 2118,
      "decided": 2119,
      "started": 2120,
      "cruis": 2121,
      "90": 2122,
      "CA": 2123,
      "Fern": 2124,
      "Min": 2125,
      "Ton": 2126,
      "Under": 2127,
      "cas": 2128,
      "date": 2129,
      "ho": 2130,
      "iew": 2131,
      "ov": 2132,
      "xim": 2133,
      "inj": 2134,
      "ature": 2135,
      "ories": 2136,
      "aly": 2137,
      "ander": 2138,
      "together": 2139,
      "ama": 2140,
      "white": 2141,
      "iding": 2142,
      "aven": 2143,
      "estim": 2144,
      "ains": 2145,
      "comb": 2146,
      "need": 2147,
      "ology": 2148,
      "novel": 2149,
      "Reg": 2150,
      "Christian": 2151,
      "remained": 2152,
      "director": 2153,
      "standing": 2154,
      "respons": 2155,
      "similar": 2156,
      "employ": 2157,
      "believed": 2158,
      "television": 2159,
      "material": 2160,
      "Michael": 2161,
      "Fernand": 2162,
      "44": 2163,
      "Mag": 2164,
      "Pl": 2165,
      "Sy": 2166,
      "Te": 2167,
      "dro": 2168,
      "free": 2169,
      "ha": 2170,
      "har": 2171,
      "hol": 2172,
      "ll": 2173,
      "somet": 2174,
      "tail": 2175,
      "ata": 2176,
      "stri": 2177,
      "hest": 2178,
      "ention": 2179,
      "conne": 2180,
      "training": 2181,
      "shown": 2182,
      "scoring": 2183,
      "intro": 2184,
      "ounds": 2185,
      "Union": 2186,
      "flight": 2187,
      "general": 2188,
      "Associ": 2189,
      "howitz": 2190,
      "capt": 2191,
      "fleet": 2192,
      "activities": 2193,
      "limited": 2194,
      "excavation": 2195,
      "reached": 2196,
      "episode": 2197,
      "Academy": 2198,
      "Clarkson": 2199,
      "Ders": 2200,
      "bon": 2201,
      "find": 2202,
      "fail": 2203,
      "ken": 2204,
      "sw": 2205,
      "once": 2206,
      "ators": 2207,
      "storm": 2208,
      "itive": 2209,
      "total": 2210,
      "see": 2211,
      "acc": 2212,
      "acy": 2213,
      "across": 2214,
      "ithic": 2215,
      "conom": 2216,
      "istic": 2217,
      "shot": 2218,
      "Institute": 2219,
      "anta": 2220,
      "manag": 2221,
      "outside": 2222,
      "ournal": 2223,
      "Star": 2224,
      "igned": 2225,
      "grad": 2226,
      "Poland": 2227,
      "writer": 2228,
      "medi": 2229,
      "metal": 2230,
      "cutive": 2231,
      "sexual": 2232,
      "performance": 2233,
      "Soviet": 2234,
      "Royal": 2235,
      "David": 2236,
      "Cullen": 2237,
      "Dershowitz": 2238,
      "Barker": 2239,
      "Cate": 2240,
      "Man": 2241,
      "San": 2242,
      "TV": 2243,
      "gress": 2244,
      "king": 2245,
      "pie": 2246,
      "rain": 2247,
      "sac": 2248,
      "wife": 2249,
      "inst": 2250,
      "ivate": 2251,
      "compl": 2252,
      "pra": 2253,
      "pract": 2254,
      "upon": 2255,
      "parts": 2256,
      "playoff": 2257,
      "ought": 2258,
      "Antim": 2259,
      "Republic": 2260,
      "struct": 2261,
      "finished": 2262,
      "closed": 2263,
      "sett": 2264,
      "officers": 2265,
      "help": 2266,
      "archaeological": 2267,
      "Geoff": 2268,
      "appeared": 2269,
      "asket": 2270,
      "damage": 2271,
      "joined": 2272,
      "religious": 2273,
      "graph": 2274,
      "35": 2275,
      "Bay": 2276,
      "End": 2277,
      "FI": 2278,
      "Go": 2279,
      "Mex": 2280,
      "To": 2281,
      "brough": 2282,
      "cop": 2283,
      "civil": 2284,
      "fell": 2285,
      "sal": 2286,
      "iná": 2287,
      "thes": 2288,
      "aled": 2289,
      "chism": 2290,
      "olf": 2291,
      "oted": 2292,
      "ops": 2293,
      "acters": 2294,
      "actions": 2295,
      "rick": 2296,
      "central": 2297,
      "hyg": 2298,
      "followed": 2299,
      "stitut": 2300,
      "issue": 2301,
      "modern": 2302,
      "Madero": 2303,
      "battle": 2304,
      "community": 2305,
      "tomb": 2306,
      "particularly": 2307,
      "Toniná": 2308,
      "27": 2309,
      "Bill": 2310,
      "Love": 2311,
      "Some": 2312,
      "Up": 2313,
      "bi": 2314,
      "ben": 2315,
      "case": 2316,
      "either": 2317,
      "pers": 2318,
      "ration": 2319,
      "tic": 2320,
      "uck": 2321,
      "ering": 2322,
      "atch": 2323,
      "station": 2324,
      "ilities": 2325,
      "els": 2326,
      "odrom": 2327,
      "tra": 2328,
      "Chron": 2329,
      "evidence": 2330,
      "ogue": 2331,
      "Allosa": 2332,
      "remains": 2333,
      "caves": 2334,
      "completed": 2335,
      "opened": 2336,
      "natural": 2337,
      "Jackets": 2338,
      "appointed": 2339,
      "sometimes": 2340,
      "Allosaurus": 2341,
      "Batt": 2342,
      "Dire": 2343,
      "Game": 2344,
      "House": 2345,
      "My": 2346,
      "Park": 2347,
      "Year": 2348,
      "Young": 2349,
      "aud": 2350,
      "dou": 2351,
      "face": 2352,
      "little": 2353,
      "mag": 2354,
      "pot": 2355,
      "past": 2356,
      "save": 2357,
      "tor": 2358,
      "thod": 2359,
      "era": 2360,
      "stra": 2361,
      "ara": 2362,
      "asing": 2363,
      "enty": 2364,
      "cts": 2365,
      "ago": 2366,
      "appl": 2367,
      "shr": 2368,
      "experi": 2369,
      "lost": 2370,
      "look": 2371,
      "ishing": 2372,
      "occur": 2373,
      "2005": 2374,
      "ranch": 2375,
      "partment": 2376,
      "playing": 2377,
      "company": 2378,
      "ibility": 2379,
      "ification": 2380,
      "sky": 2381,
      "operation": 2382,
      "depic": 2383,
      "largest": 2384,
      "damaged": 2385,
      "blood": 2386,
      "Carol": 2387,
      "change": 2388,
      "professional": 2389,
      "suffer": 2390,
      "Coldrum": 2391,
      "Fernandez": 2392,
      "brought": 2393,
      "Cup": 2394,
      "Lo": 2395,
      "Museum": 2396,
      "Navy": 2397,
      "Pres": 2398,
      "Sur": 2399,
      "Soc": 2400,
      "Tim": 2401,
      "died": 2402,
      "econom": 2403,
      "hop": 2404,
      "iber": 2405,
      "lang": 2406,
      "non": 2407,
      "sil": 2408,
      "wide": 2409,
      "think": 2410,
      "instead": 2411,
      "atin": 2412,
      "ense": 2413,
      "states": 2414,
      "icago": 2415,
      "lect": 2416,
      "demon": 2417,
      "conc": 2418,
      "concl": 2419,
      "avail": 2420,
      "apy": 2421,
      "Chicago": 2422,
      "coins": 2423,
      "pred": 2424,
      "188": 2425,
      "works": 2426,
      "type": 2427,
      "regime": 2428,
      "Second": 2429,
      "ample": 2430,
      "certain": 2431,
      "ception": 2432,
      "originally": 2433,
      "rapped": 2434,
      "Eng": 2435,
      "marked": 2436,
      "ficult": 2437,
      "weeks": 2438,
      "Columbus": 2439,
      "introdu": 2440,
      "Catechism": 2441,
      "Antimony": 2442,
      "asketball": 2443,
      "BC": 2444,
      "Film": 2445,
      "High": 2446,
      "Most": 2447,
      "Res": 2448,
      "River": 2449,
      "Sm": 2450,
      "aut": 2451,
      "bor": 2452,
      "cing": 2453,
      "dle": 2454,
      "flying": 2455,
      "hon": 2456,
      "hur": 2457,
      "iers": 2458,
      "lot": 2459,
      "lack": 2460,
      "moun": 2461,
      "names": 2462,
      "rul": 2463,
      "temp": 2464,
      "alter": 2465,
      "entire": 2466,
      "cham": 2467,
      "forced": 2468,
      "ote": 2469,
      "uses": 2470,
      "prob": 2471,
      "process": 2472,
      "social": 2473,
      "acts": 2474,
      "2003": 2475,
      "189": 2476,
      "despite": 2477,
      "photo": 2478,
      "region": 2479,
      "albums": 2480,
      "specific": 2481,
      "minute": 2482,
      "difficult": 2483,
      "Western": 2484,
      "frag": 2485,
      "cells": 2486,
      "primary": 2487,
      "leukemia": 2488,
      "Association": 2489,
      "langu": 2490,
      "36": 2491,
      "500": 2492,
      "Light": 2493,
      "Wrapped": 2494,
      "fight": 2495,
      "taking": 2496,
      "reason": 2497,
      "reaction": 2498,
      "research": 2499,
      "ros": 2500,
      "room": 2501,
      "force": 2502,
      "image": 2503,
      "pose": 2504,
      "ender": 2505,
      "que": 2506,
      "coin": 2507,
      "State": 2508,
      "ney": 2509,
      "gram": 2510,
      "ricane": 2511,
      "cred": 2512,
      "going": 2513,
      "Ang": 2514,
      "announ": 2515,
      "minor": 2516,
      "subsequ": 2517,
      "fourth": 2518,
      "official": 2519,
      "archaeology": 2520,
      "transport": 2521,
      "broad": 2522,
      "match": 2523,
      "designed": 2524,
      "apping": 2525,
      "eastern": 2526,
      "commandment": 2527,
      "block": 2528,
      "approach": 2529,
      "situ": 2530,
      "involved": 2531,
      "initially": 2532,
      "Australia": 2533,
      "normal": 2534,
      "earlier": 2535,
      "current": 2536,
      "Chronicles": 2537,
      "26": 2538,
      "Cor": 2539,
      "Fair": 2540,
      "Great": 2541,
      "Su": 2542,
      "ban": 2543,
      "foc": 2544,
      "hom": 2545,
      "hab": 2546,
      "ience": 2547,
      "lines": 2548,
      "winning": 2549,
      "inch": 2550,
      "staff": 2551,
      "omb": 2552,
      "acqu": 2553,
      "according": 2554,
      "irls": 2555,
      "dead": 2556,
      "express": 2557,
      "earth": 2558,
      "techn": 2559,
      "2004": 2560,
      "rania": 2561,
      "185": 2562,
      "president": 2563,
      "mean": 2564,
      "Ark": 2565,
      "interview": 2566,
      "observ": 2567,
      "ampion": 2568,
      "Class": 2569,
      "Atl": 2570,
      "listed": 2571,
      "shows": 2572,
      "bodies": 2573,
      "western": 2574,
      "business": 2575,
      "generally": 2576,
      "fruit": 2577,
      "Society": 2578,
      "Video": 2579,
      "aid": 2580,
      "bal": 2581,
      "bes": 2582,
      "bound": 2583,
      "ded": 2584,
      "gal": 2585,
      "mig": 2586,
      "mitted": 2587,
      "ning": 2588,
      "nomin": 2589,
      "oid": 2590,
      "saw": 2591,
      "wing": 2592,
      "anim": 2593,
      "whom": 2594,
      "condu": 2595,
      "ulated": 2596,
      "comment": 2597,
      "ift": 2598,
      "ify": 2599,
      "move": 2600,
      "aster": 2601,
      "oney": 2602,
      "2001": 2603,
      "2002": 2604,
      "Thom": 2605,
      "commission": 2606,
      "rail": 2607,
      "meet": 2608,
      "know": 2609,
      "polic": 2610,
      "surround": 2611,
      "arsen": 2612,
      "characters": 2613,
      "bridge": 2614,
      "depend": 2615,
      "features": 2616,
      "largely": 2617,
      "increased": 2618,
      "miles": 2619,
      "culture": 2620,
      "Frank": 2621,
      "County": 2622,
      "suggested": 2623,
      "figure": 2624,
      "possible": 2625,
      "southern": 2626,
      "aerodrom": 2627,
      "education": 2628,
      "fifth": 2629,
      "Mexico": 2630,
      "70": 2631,
      "Are": 2632,
      "Like": 2633,
      "Other": 2634,
      "Po": 2635,
      "Rich": 2636,
      "Tre": 2637,
      "Urania": 2638,
      "aust": 2639,
      "bird": 2640,
      "cave": 2641,
      "dess": 2642,
      "happ": 2643,
      "might": 2644,
      "mass": 2645,
      "male": 2646,
      "nearly": 2647,
      "prec": 2648,
      "ters": 2649,
      "theast": 2650,
      "ston": 2651,
      "olithic": 2652,
      "abbar": 2653,
      "riage": 2654,
      "twenty": 2655,
      "upper": 2656,
      "black": 2657,
      "scri": 2658,
      "vey": 2659,
      "Thak": 2660,
      "worked": 2661,
      "redu": 2662,
      "cient": 2663,
      "added": 2664,
      "featured": 2665,
      "archaeologist": 2666,
      "appearance": 2667,
      "increase": 2668,
      "mission": 2669,
      "allowed": 2670,
      "greater": 2671,
      "nature": 2672,
      "ique": 2673,
      "William": 2674,
      "Finals": 2675,
      "nyi": 2676,
      "comedy": 2677,
      "George": 2678,
      "England": 2679,
      "Dar": 2680,
      "Def": 2681,
      "Gold": 2682,
      "Many": 2683,
      "Post": 2684,
      "Sen": 2685,
      "bill": 2686,
      "hig": 2687,
      "mic": 2688,
      "mir": 2689,
      "ner": 2690,
      "rare": 2691,
      "sin": 2692,
      "vice": 2693,
      "vement": 2694,
      "ze": 2695,
      "threat": 2696,
      "inct": 2697,
      "imin": 2698,
      "iday": 2699,
      "etric": 2700,
      "trade": 2701,
      "prop": 2702,
      "perform": 2703,
      "ocaust": 2704,
      "achiev": 2705,
      "rank": 2706,
      "keep": 2707,
      "newsp": 2708,
      "monuments": 2709,
      "specim": 2710,
      "icks": 2711,
      "submar": 2712,
      "tons": 2713,
      "cert": 2714,
      "study": 2715,
      "marriage": 2716,
      "Colle": 2717,
      "course": 2718,
      "represented": 2719,
      "cultural": 2720,
      "risk": 2721,
      "battles": 2722,
      "claimed": 2723,
      "European": 2724,
      "growth": 2725,
      "clear": 2726,
      "Charles": 2727,
      "worship": 2728,
      "estimated": 2729,
      "Battle": 2730,
      "concern": 2731,
      "available": 2732,
      "announced": 2733,
      "Area": 2734,
      "highest": 2735,
      "29": 2736,
      "31": 2737,
      "Ab": 2738,
      "Act": 2739,
      "Award": 2740,
      "Bu": 2741,
      "But": 2742,
      "FA": 2743,
      "Hockey": 2744,
      "NL": 2745,
      "Rul": 2746,
      "Russ": 2747,
      "RAA": 2748,
      "Uy": 2749,
      "ey": 2750,
      "fung": 2751,
      "lab": 2752,
      "mot": 2753,
      "nine": 2754,
      "ores": 2755,
      "paren": 2756,
      "vict": 2757,
      "rem": 2758,
      "reen": 2759,
      "rect": 2760,
      "arily": 2761,
      "ication": 2762,
      "access": 2763,
      "ements": 2764,
      "termin": 2765,
      "ott": 2766,
      "aval": 2767,
      "comes": 2768,
      "exe": 2769,
      "exam": 2770,
      "example": 2771,
      "portun": 2772,
      "elled": 2773,
      "offer": 2774,
      "creation": 2775,
      "archite": 2776,
      "Ant": 2777,
      "Record": 2778,
      "recording": 2779,
      "struction": 2780,
      "Germany": 2781,
      "metres": 2782,
      "inner": 2783,
      "depict": 2784,
      "critical": 2785,
      "helped": 2786,
      "arms": 2787,
      "Engl": 2788,
      "memor": 2789,
      "complete": 2790,
      "supported": 2791,
      "larger": 2792,
      "court": 2793,
      "sites": 2794,
      "Holocaust": 2795,
      "caused": 2796,
      "individuals": 2797,
      "Africa": 2798,
      "hygrom": 2799,
      "Billboard": 2800,
      "language": 2801,
      "RAAF": 2802,
      "English": 2803,
      "Domin": 2804,
      "Lad": 2805,
      "Ve": 2806,
      "Val": 2807,
      "aign": 2808,
      "fan": 2809,
      "mical": 2810,
      "mult": 2811,
      "pp": 2812,
      "pow": 2813,
      "wid": 2814,
      "zy": 2815,
      "inches": 2816,
      "ana": 2817,
      "ream": 2818,
      "ati": 2819,
      "almost": 2820,
      "asion": 2821,
      "elph": 2822,
      "aces": 2823,
      "iment": 2824,
      "impro": 2825,
      "conf": 2826,
      "agogue": 2827,
      "isters": 2828,
      "abs": 2829,
      "trav": 2830,
      "pected": 2831,
      "protest": 2832,
      "ruins": 2833,
      "private": 2834,
      "indu": 2835,
      "whose": 2836,
      "meas": 2837,
      "elements": 2838,
      "remaining": 2839,
      "students": 2840,
      "studio": 2841,
      "divided": 2842,
      "books": 2843,
      "personal": 2844,
      "provided": 2845,
      "increasing": 2846,
      "tower": 2847,
      "allowing": 2848,
      "Canadian": 2849,
      "Book": 2850,
      "greatest": 2851,
      "agreed": 2852,
      "figures": 2853,
      "Despite": 2854,
      "friend": 2855,
      "History": 2856,
      "International": 2857,
      "wanted": 2858,
      "Devin": 2859,
      "earned": 2860,
      "FIT": 2861,
      "Loose": 2862,
      "hygrometric": 2863,
      "Bro": 2864,
      "Cal": 2865,
      "Cour": 2866,
      "Er": 2867,
      "Fle": 2868,
      "From": 2869,
      "Government": 2870,
      "Girls": 2871,
      "Gabbar": 2872,
      "Hur": 2873,
      "Hung": 2874,
      "Pat": 2875,
      "Qu": 2876,
      "Ra": 2877,
      "Sing": 2878,
      "Sim": 2879,
      "Slayer": 2880,
      "bol": 2881,
      "basketball": 2882,
      "han": 2883,
      "hit": 2884,
      "mph": 2885,
      "nation": 2886,
      "sat": 2887,
      "sulf": 2888,
      "saves": 2889,
      "size": 2890,
      "vill": 2891,
      "vati": 2892,
      "instr": 2893,
      "stop": 2894,
      "heavy": 2895,
      "adop": 2896,
      "adelph": 2897,
      "deity": 2898,
      "defin": 2899,
      "detail": 2900,
      "conse": 2901,
      "istics": 2902,
      "utes": 2903,
      "opportun": 2904,
      "ples": 2905,
      "proposed": 2906,
      "ghur": 2907,
      "award": 2908,
      "offered": 2909,
      "overall": 2910,
      "reek": 2911,
      "ansfield": 2912,
      "working": 2913,
      "goddess": 2914,
      "1998": 2915,
      "related": 2916,
      "myth": 2917,
      "myel": 2918,
      "numbers": 2919,
      "secondary": 2920,
      "Department": 2921,
      "below": 2922,
      "count": 2923,
      "tained": 2924,
      "broken": 2925,
      "particip": 2926,
      "groups": 2927,
      "reviews": 2928,
      "sembl": 2929,
      "additional": 2930,
      "Strapping": 2931,
      "historic": 2932,
      "prior": 2933,
      "troops": 2934,
      "Blackie": 2935,
      "praised": 2936,
      "Director": 2937,
      "battleship": 2938,
      "Uyghur": 2939,
      "hygrometricus": 2940,
      "adelphia": 2941,
      "Cam": 2942,
      "Care": 2943,
      "Dr": 2944,
      "Div": 2945,
      "Llosa": 2946,
      "Mor": 2947,
      "OT": 2948,
      "SNL": 2949,
      "Varg": 2950,
      "bone": 2951,
      "net": 2952,
      "ring": 2953,
      "rif": 2954,
      "rated": 2955,
      "saying": 2956,
      "yn": 2957,
      "thus": 2958,
      "erry": 2959,
      "reag": 2960,
      "orary": 2961,
      "ency": 2962,
      "stones": 2963,
      "arter": 2964,
      "anded": 2965,
      "itte": 2966,
      "itors": 2967,
      "told": 2968,
      "towards": 2969,
      "roph": 2970,
      "ential": 2971,
      "separ": 2972,
      "irst": 2973,
      "cting": 2974,
      "umn": 2975,
      "usion": 2976,
      "aps": 2977,
      "aint": 2978,
      "pecial": 2979,
      "proper": 2980,
      "acting": 2981,
      "iple": 2982,
      "owned": 2983,
      "assass": 2984,
      "Stud": 2985,
      "scene": 2986,
      "necess": 2987,
      "space": 2988,
      "method": 2989,
      "ological": 2990,
      "selves": 2991,
      "object": 2992,
      "minutes": 2993,
      "producer": 2994,
      "azine": 2995,
      "critics": 2996,
      "contribut": 2997,
      "ready": 2998,
      "laun": 2999,
      "issued": 3000,
      "Madison": 3001,
      "controlled": 3002,
      "eventually": 3003,
      "turned": 3004,
      "months": 3005,
      "Parvati": 3006,
      "Smith": 3007,
      "Angel": 3008,
      "architect": 3009,
      "consecutive": 3010,
      "Vargas": 3011,
      "Bruins": 3012,
      "El": 3013,
      "First": 3014,
      "Hall": 3015,
      "Kr": 3016,
      "Later": 3017,
      "Ox": 3018,
      "Old": 3019,
      "RA": 3020,
      "Tor": 3021,
      "Tran": 3022,
      "Tower": 3023,
      "VP": 3024,
      "WAS": 3025,
      "doc": 3026,
      "eter": 3027,
      "far": 3028,
      "fest": 3029,
      "fict": 3030,
      "hor": 3031,
      "kind": 3032,
      "lin": 3033,
      "lower": 3034,
      "must": 3035,
      "py": 3036,
      "pet": 3037,
      "says": 3038,
      "tt": 3039,
      "tell": 3040,
      "viron": 3041,
      "theat": 3042,
      "onse": 3043,
      "ilis": 3044,
      "ille": 3045,
      "secur": 3046,
      "amoun": 3047,
      "acre": 3048,
      "units": 3049,
      "conver": 3050,
      "areas": 3051,
      "super": 3052,
      "prohib": 3053,
      "artists": 3054,
      "ateg": 3055,
      "ishment": 3056,
      "antic": 3057,
      "ribut": 3058,
      "acted": 3059,
      "quest": 3060,
      "fired": 3061,
      "grass": 3062,
      "Ital": 3063,
      "phys": 3064,
      "international": 3065,
      "mostly": 3066,
      "themselves": 3067,
      "1994": 3068,
      "higher": 3069,
      "location": 3070,
      "belief": 3071,
      "service": 3072,
      "society": 3073,
      "famil": 3074,
      "Egyptians": 3075,
      "fields": 3076,
      "breeding": 3077,
      "opening": 3078,
      "emphas": 3079,
      "campaign": 3080,
      "types": 3081,
      "teaching": 3082,
      "selected": 3083,
      "industry": 3084,
      "beginning": 3085,
      "moral": 3086,
      "Review": 3087,
      "Palestine": 3088,
      "double": 3089,
      "Carolina": 3090,
      "chamber": 3091,
      "subsequently": 3092,
      "Arkans": 3093,
      "Fleet": 3094,
      "WASP": 3095,
      "49": 3096,
      "76": 3097,
      "Dí": 3098,
      "Dem": 3099,
      "Dist": 3100,
      "Foot": 3101,
      "Har": 3102,
      "Mid": 3103,
      "MVP": 3104,
      "Naz": 3105,
      "Sever": 3106,
      "bir": 3107,
      "burn": 3108,
      "cited": 3109,
      "give": 3110,
      "hard": 3111,
      "ires": 3112,
      "liter": 3113,
      "ms": 3114,
      "mut": 3115,
      "ply": 3116,
      "sun": 3117,
      "sister": 3118,
      "vic": 3119,
      "invest": 3120,
      "eru": 3121,
      "erous": 3122,
      "revol": 3123,
      "replaced": 3124,
      "aspect": 3125,
      "anda": 3126,
      "usually": 3127,
      "ett": 3128,
      "alled": 3129,
      "true": 3130,
      "shoot": 3131,
      "exhib": 3132,
      "lock": 3133,
      "arts": 3134,
      "soon": 3135,
      "aked": 3136,
      "quick": 3137,
      "prison": 3138,
      "assist": 3139,
      "That": 3140,
      "attention": 3141,
      "spital": 3142,
      "prepar": 3143,
      "workers": 3144,
      "interpre": 3145,
      "center": 3146,
      "1995": 3147,
      "1996": 3148,
      "genet": 3149,
      "retired": 3150,
      "Ontar": 3151,
      "draft": 3152,
      "carried": 3153,
      "services": 3154,
      "capital": 3155,
      "Conference": 3156,
      "married": 3157,
      "promin": 3158,
      "feature": 3159,
      "covery": 3160,
      "constructed": 3161,
      "respond": 3162,
      "response": 3163,
      "synagogue": 3164,
      "authorities": 3165,
      "terms": 3166,
      "Central": 3167,
      "killed": 3168,
      "Eastern": 3169,
      "Histor": 3170,
      "mixed": 3171,
      "summer": 3172,
      "source": 3173,
      "favor": 3174,
      "hurricane": 3175,
      "College": 3176,
      "vironment": 3177,
      "Arkansas": 3178,
      "Díaz": 3179,
      "Ontario": 3180,
      "Bel": 3181,
      "Cro": 3182,
      "Civil": 3183,
      "Ele": 3184,
      "Jes": 3185,
      "Jap": 3186,
      "Mint": 3187,
      "Play": 3188,
      "Penn": 3189,
      "Rad": 3190,
      "Work": 3191,
      "Wales": 3192,
      "Wander": 3193,
      "Zagre": 3194,
      "aur": 3195,
      "bell": 3196,
      "batter": 3197,
      "jud": 3198,
      "pick": 3199,
      "rate": 3200,
      "worth": 3201,
      "wolf": 3202,
      "things": 3203,
      "anal": 3204,
      "alone": 3205,
      "alleg": 3206,
      "always": 3207,
      "itself": 3208,
      "heav": 3209,
      "enter": 3210,
      "entran": 3211,
      "champion": 3212,
      "irl": 3213,
      "irt": 3214,
      "idents": 3215,
      "emer": 3216,
      "istan": 3217,
      "ceed": 3218,
      "apt": 3219,
      "plant": 3220,
      "tries": 3221,
      "proble": 3222,
      "program": 3223,
      "poor": 3224,
      "coast": 3225,
      "pring": 3226,
      "Stan": 3227,
      "awarded": 3228,
      "Thai": 3229,
      "prevent": 3230,
      "finally": 3231,
      "aily": 3232,
      "teams": 3233,
      "fully": 3234,
      "Leon": 3235,
      "carbon": 3236,
      "cerem": 3237,
      "engine": 3238,
      "continue": 3239,
      "Germans": 3240,
      "appearances": 3241,
      "stitution": 3242,
      "giving": 3243,
      "required": 3244,
      "rights": 3245,
      "1939": 3246,
      "Franc": 3247,
      "Week": 3248,
      "previously": 3249,
      "diag": 3250,
      "emples": 3251,
      "Mont": 3252,
      "Robert": 3253,
      "Neolithic": 3254,
      "Council": 3255,
      "football": 3256,
      "People": 3257,
      "piece": 3258,
      "silver": 3259,
      "introduced": 3260,
      "Thomas": 3261,
      "Records": 3262,
      "Dominican": 3263,
      "Japan": 3264,
      "38": 3265,
      "Bost": 3266,
      "Follow": 3267,
      "Grou": 3268,
      "Latin": 3269,
      "Night": 3270,
      "Oper": 3271,
      "Ram": 3272,
      "Tri": 3273,
      "eth": 3274,
      "ges": 3275,
      "govern": 3276,
      "hood": 3277,
      "ker": 3278,
      "lic": 3279,
      "leng": 3280,
      "makes": 3281,
      "money": 3282,
      "saf": 3283,
      "tion": 3284,
      "tur": 3285,
      "targ": 3286,
      "wa": 3287,
      "onto": 3288,
      "reli": 3289,
      "refer": 3290,
      "ald": 3291,
      "armed": 3292,
      "ingu": 3293,
      "health": 3294,
      "entered": 3295,
      "sey": 3296,
      "bet": 3297,
      "lyric": 3298,
      "aging": 3299,
      "1920": 3300,
      "peace": 3301,
      "active": 3302,
      "cost": 3303,
      "Stansfield": 3304,
      "ously": 3305,
      "whole": 3306,
      "spect": 3307,
      "compan": 3308,
      "compounds": 3309,
      "seasons": 3310,
      "1991": 3311,
      "genus": 3312,
      "subject": 3313,
      "elect": 3314,
      "highly": 3315,
      "Club": 3316,
      "1988": 3317,
      "Adam": 3318,
      "asked": 3319,
      "smaller": 3320,
      "dollars": 3321,
      "Twins": 3322,
      "attempted": 3323,
      "Center": 3324,
      "average": 3325,
      "title": 3326,
      "aught": 3327,
      "Archaeology": 3328,
      "discuss": 3329,
      "Peters": 3330,
      "federal": 3331,
      "Philadelphia": 3332,
      "collabor": 3333,
      "revealed": 3334,
      "holiday": 3335,
      "conclud": 3336,
      "probably": 3337,
      "habit": 3338,
      "Atlanta": 3339,
      "FITs": 3340,
      "ittee": 3341,
      "Oxford": 3342,
      "District": 3343,
      "Several": 3344,
      "Wanderers": 3345,
      "Zagreb": 3346,
      "Francis": 3347,
      "Following": 3348,
      "39": 3349,
      "88": 3350,
      "Bob": 3351,
      "CAA": 3352,
      "Dan": 3353,
      "Four": 3354,
      "Jul": 3355,
      "Kur": 3356,
      "Met": 3357,
      "Sal": 3358,
      "Sch": 3359,
      "Times": 3360,
      "Vict": 3361,
      "cit": 3362,
      "dict": 3363,
      "fa": 3364,
      "hill": 3365,
      "hockey": 3366,
      "iated": 3367,
      "journal": 3368,
      "lif": 3369,
      "link": 3370,
      "labor": 3371,
      "via": 3372,
      "woman": 3373,
      "ław": 3374,
      "theme": 3375,
      "replac": 3376,
      "refle": 3377,
      "alty": 3378,
      "stant": 3379,
      "especial": 3380,
      "section": 3381,
      "beat": 3382,
      "becoming": 3383,
      "imp": 3384,
      "aganda": 3385,
      "territ": 3386,
      "opin": 3387,
      "plans": 3388,
      "ordered": 3389,
      "quare": 3390,
      "mention": 3391,
      "notes": 3392,
      "assigned": 3393,
      "Stre": 3394,
      "office": 3395,
      "scen": 3396,
      "preser": 3397,
      "compared": 3398,
      "means": 3399,
      "flict": 3400,
      "records": 3401,
      "1990": 3402,
      "1999": 3403,
      "finan": 3404,
      "annual": 3405,
      "cancer": 3406,
      "highway": 3407,
      "Indust": 3408,
      "pedo": 3409,
      "officially": 3410,
      "decision": 3411,
      "distinct": 3412,
      "transferred": 3413,
      "resulted": 3414,
      "tracks": 3415,
      "grew": 3416,
      "behav": 3417,
      "storyline": 3418,
      "Commandments": 3419,
      "promoted": 3420,
      "hours": 3421,
      "typically": 3422,
      "Archaeological": 3423,
      "flood": 3424,
      "feder": 3425,
      "pilot": 3426,
      "pilots": 3427,
      "consisted": 3428,
      "attribut": 3429,
      "planned": 3430,
      "radio": 3431,
      "scholar": 3432,
      "symbol": 3433,
      "manager": 3434,
      "settle": 3435,
      "torpedo": 3436,
      "suffered": 3437,
      "President": 3438,
      "conducted": 3439,
      "newspaper": 3440,
      "Ruler": 3441,
      "fungus": 3442,
      "Veeru": 3443,
      "document": 3444,
      "Italian": 3445,
      "birth": 3446,
      "Victor": 3447,
      "especially": 3448,
      "42": 3449,
      "95": 3450,
      "Bol": 3451,
      "Dream": 3452,
      "MS": 3453,
      "Max": 3454,
      "Zr": 3455,
      "ff": 3456,
      "ga": 3457,
      "girl": 3458,
      "hous": 3459,
      "living": 3460,
      "mun": 3461,
      "mus": 3462,
      "na": 3463,
      "nest": 3464,
      "native": 3465,
      "nuc": 3466,
      "naval": 3467,
      "obl": 3468,
      "purch": 3469,
      "ray": 3470,
      "sport": 3471,
      "ties": 3472,
      "tex": 3473,
      "temples": 3474,
      "whe": 3475,
      "thr": 3476,
      "thick": 3477,
      "inem": 3478,
      "referred": 3479,
      "stic": 3480,
      "aring": 3481,
      "ases": 3482,
      "isc": 3483,
      "chall": 3484,
      "sea": 3485,
      "secret": 3486,
      "adult": 3487,
      "amed": 3488,
      "ows": 3489,
      "usband": 3490,
      "vert": 3491,
      "1930": 3492,
      "shore": 3493,
      "actor": 3494,
      "Chap": 3495,
      "scop": 3496,
      "Heaven": 3497,
      "serious": 3498,
      "feel": 3499,
      "rather": 3500,
      "raised": 3501,
      "newly": 3502,
      "sail": 3503,
      "1997": 3504,
      "includes": 3505,
      "Secret": 3506,
      "poly": 3507,
      "ilyn": 3508,
      "door": 3509,
      "1943": 3510,
      "1986": 3511,
      "Confeder": 3512,
      "Because": 3513,
      "request": 3514,
      "Marilyn": 3515,
      "semble": 3516,
      "excavations": 3517,
      "corpor": 3518,
      "Road": 3519,
      "Commander": 3520,
      "influence": 3521,
      "Off": 3522,
      "winds": 3523,
      "destroyed": 3524,
      "accepted": 3525,
      "coup": 3526,
      "likely": 3527,
      "cruiser": 3528,
      "responsible": 3529,
      "thesis": 3530,
      "shrine": 3531,
      "dependent": 3532,
      "parents": 3533,
      "families": 3534,
      "Football": 3535,
      "analys": 3536,
      "entrance": 3537,
      "Boston": 3538,
      "lyrics": 3539,
      "nucle": 3540,
      "texts": 3541,
      "32": 3542,
      "47": 3543,
      "Blo": 3544,
      "Cap": 3545,
      "Gl": 3546,
      "Gulf": 3547,
      "Jim": 3548,
      "Kar": 3549,
      "Lew": 3550,
      "Mil": 3551,
      "Mac": 3552,
      "Prom": 3553,
      "Pri": 3554,
      "Publ": 3555,
      "Que": 3556,
      "Sp": 3557,
      "Sou": 3558,
      "bing": 3559,
      "cat": 3560,
      "cam": 3561,
      "da": 3562,
      "ee": 3563,
      "fut": 3564,
      "frequ": 3565,
      "gar": 3566,
      "ius": 3567,
      "iants": 3568,
      "ka": 3569,
      "mur": 3570,
      "path": 3571,
      "ram": 3572,
      "rays": 3573,
      "tied": 3574,
      "winter": 3575,
      "ínyi": 3576,
      "insp": 3577,
      "information": 3578,
      "err": 3579,
      "ert": 3580,
      "removed": 3581,
      "repair": 3582,
      "environment": 3583,
      "andon": 3584,
      "escap": 3585,
      "cher": 3586,
      "academ": 3587,
      "uri": 3588,
      "depart": 3589,
      "immedi": 3590,
      "iths": 3591,
      "conv": 3592,
      "ids": 3593,
      "ultim": 3594,
      "cele": 3595,
      "aviation": 3596,
      "1918": 3597,
      "1950": 3598,
      "plain": 3599,
      "exit": 3600,
      "exper": 3601,
      "except": 3602,
      "sole": 3603,
      "print": 3604,
      "2000": 3605,
      "indic": 3606,
      "posing": 3607,
      "positive": 3608,
      "speed": 3609,
      "Its": 3610,
      "meant": 3611,
      "conditions": 3612,
      "Short": 3613,
      "Another": 3614,
      "carved": 3615,
      "calling": 3616,
      "counter": 3617,
      "identified": 3618,
      "officer": 3619,
      "variety": 3620,
      "chemother": 3621,
      "reports": 3622,
      "sixth": 3623,
      "slight": 3624,
      "commander": 3625,
      "guit": 3626,
      "Israeli": 3627,
      "missed": 3628,
      "Austro": 3629,
      "barrow": 3630,
      "activity": 3631,
      "basis": 3632,
      "influenced": 3633,
      "religion": 3634,
      "friends": 3635,
      "Norman": 3636,
      "individual": 3637,
      "directly": 3638,
      "Medway": 3639,
      "invited": 3640,
      "soldiers": 3641,
      "vocals": 3642,
      "associated": 3643,
      "ography": 3644,
      "planning": 3645,
      "competition": 3646,
      "traditional": 3647,
      "CAT": 3648,
      "gradu": 3649,
      "playoffs": 3650,
      "copies": 3651,
      "depicts": 3652,
      "demonstr": 3653,
      "situation": 3654,
      "surrounding": 3655,
      "aerodromes": 3656,
      "Build": 3657,
      "Court": 3658,
      "Hungarian": 3659,
      "length": 3660,
      "target": 3661,
      "Street": 3662,
      "Zrínyi": 3663,
      "300": 3664,
      "600": 3665,
      "Gall": 3666,
      "Greek": 3667,
      "Hen": 3668,
      "Hou": 3669,
      "Jer": 3670,
      "Jai": 3671,
      "Not": 3672,
      "Pak": 3673,
      "Person": 3674,
      "Pope": 3675,
      "Sun": 3676,
      "Spe": 3677,
      "Way": 3678,
      "Wars": 3679,
      "brown": 3680,
      "bomb": 3681,
      "cup": 3682,
      "categ": 3683,
      "fill": 3684,
      "ger": 3685,
      "gam": 3686,
      "gust": 3687,
      "hu": 3688,
      "hired": 3689,
      "ias": 3690,
      "joy": 3691,
      "latter": 3692,
      "mint": 3693,
      "nut": 3694,
      "oil": 3695,
      "pun": 3696,
      "park": 3697,
      "race": 3698,
      "smo": 3699,
      "tem": 3700,
      "uan": 3701,
      "vo": 3702,
      "wides": 3703,
      "yond": 3704,
      "ining": 3705,
      "rend": 3706,
      "orus": 3707,
      "already": 3708,
      "enough": 3709,
      "arrest": 3710,
      "roscop": 3711,
      "eless": 3712,
      "ems": 3713,
      "excl": 3714,
      "expected": 3715,
      "ordin": 3716,
      "Station": 3717,
      "intended": 3718,
      "180": 3719,
      "presents": 3720,
      "discovered": 3721,
      "pregn": 3722,
      "osis": 3723,
      "Arsen": 3724,
      "mainly": 3725,
      "step": 3726,
      "themes": 3727,
      "selling": 3728,
      "media": 3729,
      "azz": 3730,
      "longer": 3731,
      "1940": 3732,
      "1984": 3733,
      "1985": 3734,
      "studies": 3735,
      "continent": 3736,
      "directed": 3737,
      "distribut": 3738,
      "distingu": 3739,
      "Add": 3740,
      "Admir": 3741,
      "provide": 3742,
      "issues": 3743,
      "passed": 3744,
      "vessel": 3745,
      "purpose": 3746,
      "occupied": 3747,
      "Flower": 3748,
      "ograph": 3749,
      "words": 3750,
      "ximately": 3751,
      "Team": 3752,
      "failed": 3753,
      "occurred": 3754,
      "photograph": 3755,
      "launched": 3756,
      "revolution": 3757,
      "Croat": 3758,
      "Group": 3759,
      "better": 3760,
      "Lewis": 3761,
      "inspired": 3762,
      "chemotherapy": 3763,
      "Pakistan": 3764,
      "Arsenal": 3765,
      "75": 3766,
      "Ap": 3767,
      "Ale": 3768,
      "Avi": 3769,
      "Ba": 3770,
      "Bet": 3771,
      "Boy": 3772,
      "Jef": 3773,
      "More": 3774,
      "Over": 3775,
      "Sw": 3776,
      "Sam": 3777,
      "Tom": 3778,
      "Zap": 3779,
      "bri": 3780,
      "bank": 3781,
      "din": 3782,
      "done": 3783,
      "dance": 3784,
      "daugh": 3785,
      "franch": 3786,
      "hen": 3787,
      "husband": 3788,
      "job": 3789,
      "mach": 3790,
      "patter": 3791,
      "pitch": 3792,
      "takes": 3793,
      "uous": 3794,
      "wins": 3795,
      "ya": 3796,
      "zog": 3797,
      "ino": 3798,
      "onom": 3799,
      "atively": 3800,
      "atives": 3801,
      "stating": 3802,
      "isl": 3803,
      "esh": 3804,
      "rop": 3805,
      "charg": 3806,
      "olk": 3807,
      "forts": 3808,
      "demo": 3809,
      "deep": 3810,
      "images": 3811,
      "emed": 3812,
      "1914": 3813,
      "ploy": 3814,
      "movement": 3815,
      "eway": 3816,
      "manent": 3817,
      "ips": 3818,
      "route": 3819,
      "owner": 3820,
      "core": 3821,
      "Stones": 3822,
      "idea": 3823,
      "attend": 3824,
      "attended": 3825,
      "izations": 3826,
      "poses": 3827,
      "pread": 3828,
      "1992": 3829,
      "minist": 3830,
      "write": 3831,
      "carry": 3832,
      "White": 3833,
      "engaged": 3834,
      "Andrew": 3835,
      "humans": 3836,
      "itting": 3837,
      "armor": 3838,
      "featuring": 3839,
      "archaeologists": 3840,
      "Johnson": 3841,
      "complex": 3842,
      "contrast": 3843,
      "buildings": 3844,
      "Force": 3845,
      "hands": 3846,
      "nearby": 3847,
      "solo": 3848,
      "Board": 3849,
      "factory": 3850,
      "Exeter": 3851,
      "seventh": 3852,
      "performances": 3853,
      "Northern": 3854,
      "spores": 3855,
      "Longacre": 3856,
      "Portug": 3857,
      "vocal": 3858,
      "streak": 3859,
      "African": 3860,
      "refused": 3861,
      "respectively": 3862,
      "changes": 3863,
      "baby": 3864,
      "cruisers": 3865,
      "economic": 3866,
      "expressed": 3867,
      "commissioned": 3868,
      "birds": 3869,
      "battleships": 3870,
      "Carey": 3871,
      "fictional": 3872,
      "aspects": 3873,
      "quickly": 3874,
      "prominent": 3875,
      "Jesus": 3876,
      "Industry": 3877,
      "murder": 3878,
      "Building": 3879,
      "Houston": 3880,
      "Admiral": 3881,
      "33": 3882,
      "72": 3883,
      "Age": 3884,
      "Back": 3885,
      "Bank": 3886,
      "Broad": 3887,
      "Crit": 3888,
      "Corn": 3889,
      "Each": 3890,
      "Fer": 3891,
      "Gamb": 3892,
      "Hot": 3893,
      "Home": 3894,
      "Lake": 3895,
      "Mary": 3896,
      "Out": 3897,
      "Press": 3898,
      "Sum": 3899,
      "Sund": 3900,
      "Since": 3901,
      "ault": 3902,
      "bour": 3903,
      "cross": 3904,
      "dut": 3905,
      "dating": 3906,
      "drew": 3907,
      "lvan": 3908,
      "mask": 3909,
      "nin": 3910,
      "narr": 3911,
      "pay": 3912,
      "push": 3913,
      "paper": 3914,
      "tend": 3915,
      "uth": 3916,
      "vation": 3917,
      "watch": 3918,
      "zher": 3919,
      "iny": 3920,
      "stars": 3921,
      "asure": 3922,
      "itable": 3923,
      "icle": 3924,
      "oud": 3925,
      "roles": 3926,
      "advan": 3927,
      "acute": 3928,
      "forward": 3929,
      "iring": 3930,
      "lywood": 3931,
      "defeat": 3932,
      "concent": 3933,
      "emb": 3934,
      "emot": 3935,
      "umb": 3936,
      "ume": 3937,
      "aped": 3938,
      "loan": 3939,
      "load": 3940,
      "rial": 3941,
      "percent": 3942,
      "qual": 3943,
      "quart": 3944,
      "China": 3945,
      "creator": 3946,
      "spent": 3947,
      "1993": 3948,
      "sell": 3949,
      "orning": 3950,
      "sylvan": 3951,
      "eenth": 3952,
      "visited": 3953,
      "bring": 3954,
      "countries": 3955,
      "leader": 3956,
      "serves": 3957,
      "1944": 3958,
      "Maya": 3959,
      "chemical": 3960,
      "slow": 3961,
      "standards": 3962,
      "NBC": 3963,
      "Amun": 3964,
      "France": 3965,
      "approximately": 3966,
      "collection": 3967,
      "majority": 3968,
      "plement": 3969,
      "initial": 3970,
      "Offic": 3971,
      "baseball": 3972,
      "floor": 3973,
      "missing": 3974,
      "Palestin": 3975,
      "changed": 3976,
      "cases": 3977,
      "hospital": 3978,
      "drop": 3979,
      "captured": 3980,
      "Goat": 3981,
      "Timbal": 3982,
      "temple": 3983,
      "fragilis": 3984,
      "Fairies": 3985,
      "meaning": 3986,
      "galiths": 3987,
      "script": 3988,
      "label": 3989,
      "victory": 3990,
      "Erzher": 3991,
      "Division": 3992,
      "reagents": 3993,
      "security": 3994,
      "physical": 3995,
      "literature": 3996,
      "Pennsylvan": 3997,
      "scenes": 3998,
      "whether": 3999,
      "analysis": 4000,
      "widespread": 4001,
      "franchise": 4002,
      "pattern": 4003,
      "Timbaland": 4004,
      "Erzherzog": 4005,
      "400": 4006,
      "Bow": 4007,
      "CO": 4008,
      "Cab": 4009,
      "Camp": 4010,
      "DS": 4011,
      "Dw": 4012,
      "Ev": 4013,
      "ERA": 4014,
      "Han": 4015,
      "Hum": 4016,
      "Journal": 4017,
      "Khan": 4018,
      "Lu": 4019,
      "Low": 4020,
      "Part": 4021,
      "TOT": 4022,
      "bass": 4023,
      "cel": 4024,
      "ease": 4025,
      "fal": 4026,
      "hair": 4027,
      "lan": 4028,
      "lives": 4029,
      "mouth": 4030,
      "nic": 4031,
      "rat": 4032,
      "sus": 4033,
      "square": 4034,
      "tax": 4035,
      "wear": 4036,
      "thers": 4037,
      "institut": 4038,
      "ont": 4039,
      "rets": 4040,
      "enem": 4041,
      "stay": 4042,
      "stage": 4043,
      "ands": 4044,
      "learn": 4045,
      "leaving": 4046,
      "elimin": 4047,
      "deb": 4048,
      "igence": 4049,
      "ership": 4050,
      "ider": 4051,
      "ulate": 4052,
      "eman": 4053,
      "umed": 4054,
      "shire": 4055,
      "aker": 4056,
      "rie": 4057,
      "quarter": 4058,
      "scient": 4059,
      "pressure": 4060,
      "libr": 4061,
      "older": 4062,
      "grant": 4063,
      "discovery": 4064,
      "phen": 4065,
      "effort": 4066,
      "regional": 4067,
      "nostic": 4068,
      "Sha": 4069,
      "strugg": 4070,
      "anger": 4071,
      "something": 4072,
      "element": 4073,
      "doing": 4074,
      "Comp": 4075,
      "belong": 4076,
      "charge": 4077,
      "publication": 4078,
      "maxim": 4079,
      "serving": 4080,
      "column": 4081,
      "1941": 4082,
      "legal": 4083,
      "legisl": 4084,
      "matches": 4085,
      "alongside": 4086,
      "Airport": 4087,
      "defense": 4088,
      "generation": 4089,
      "value": 4090,
      "Monument": 4091,
      "sense": 4092,
      "pursu": 4093,
      "primarily": 4094,
      "leukemic": 4095,
      "equip": 4096,
      "middle": 4097,
      "occupation": 4098,
      "Major": 4099,
      "sources": 4100,
      "treatment": 4101,
      "sculpture": 4102,
      "sculptures": 4103,
      "injury": 4104,
      "audience": 4105,
      "magazine": 4106,
      "Survey": 4107,
      "focus": 4108,
      "commented": 4109,
      "arsenal": 4110,
      "Thakur": 4111,
      "ranked": 4112,
      "depicting": 4113,
      "memorial": 4114,
      "Patrick": 4115,
      "Singh": 4116,
      "opportunities": 4117,
      "Uyghurs": 4118,
      "assassination": 4119,
      "investig": 4120,
      "shooting": 4121,
      "Historic": 4122,
      "Eleph": 4123,
      "diagn": 4124,
      "concluded": 4125,
      "future": 4126,
      "academic": 4127,
      "celebr": 4128,
      "Zapata": 4129,
      "quarters": 4130,
      "37": 4131,
      "79": 4132,
      "86": 4133,
      "Ao": 4134,
      "Ash": 4135,
      "BN": 4136,
      "Ben": 4137,
      "Che": 4138,
      "Cong": 4139,
      "Dor": 4140,
      "Day": 4141,
      "Form": 4142,
      "Green": 4143,
      "Hill": 4144,
      "Kim": 4145,
      "Pre": 4146,
      "SMS": 4147,
      "Tod": 4148,
      "Tele": 4149,
      "Tenn": 4150,
      "Wash": 4151,
      "aak": 4152,
      "bul": 4153,
      "cities": 4154,
      "domin": 4155,
      "eh": 4156,
      "fare": 4157,
      "fair": 4158,
      "fix": 4159,
      "farm": 4160,
      "iate": 4161,
      "mel": 4162,
      "nar": 4163,
      "nes": 4164,
      "nel": 4165,
      "ses": 4166,
      "text": 4167,
      "yet": 4168,
      "thur": 4169,
      "inus": 4170,
      "inich": 4171,
      "erted": 4172,
      "ergy": 4173,
      "ancy": 4174,
      "recon": 4175,
      "stable": 4176,
      "stalk": 4177,
      "aria": 4178,
      "army": 4179,
      "ites": 4180,
      "itation": 4181,
      "oul": 4182,
      "lets": 4183,
      "cha": 4184,
      "chap": 4185,
      "chief": 4186,
      "seek": 4187,
      "adv": 4188,
      "ades": 4189,
      "else": 4190,
      "deploy": 4191,
      "ctors": 4192,
      "aggress": 4193,
      "otes": 4194,
      "utch": 4195,
      "19th": 4196,
      "1900": 4197,
      "1911": 4198,
      "opp": 4199,
      "opol": 4200,
      "train": 4201,
      "share": 4202,
      "progress": 4203,
      "ateur": 4204,
      "astic": 4205,
      "astrum": 4206,
      "quality": 4207,
      "ustom": 4208,
      "ideas": 4209,
      "ellow": 4210,
      "awa": 4211,
      "aware": 4212,
      "neigh": 4213,
      "plays": 4214,
      "serve": 4215,
      "Through": 4216,
      "lie": 4217,
      "shel": 4218,
      "shell": 4219,
      "contains": 4220,
      "lands": 4221,
      "Arthur": 4222,
      "flow": 4223,
      "news": 4224,
      "regarded": 4225,
      "inside": 4226,
      "tenure": 4227,
      "weap": 4228,
      "ailand": 4229,
      "angers": 4230,
      "produce": 4231,
      "ledge": 4232,
      "writers": 4233,
      "eleg": 4234,
      "ska": 4235,
      "presented": 4236,
      "color": 4237,
      "1942": 4238,
      "rapid": 4239,
      "parish": 4240,
      "Geastrum": 4241,
      "cyto": 4242,
      "designated": 4243,
      "uese": 4244,
      "starting": 4245,
      "organized": 4246,
      "guard": 4247,
      "arrived": 4248,
      "facilities": 4249,
      "semi": 4250,
      "projects": 4251,
      "historian": 4252,
      "historical": 4253,
      "purposes": 4254,
      "holds": 4255,
      "Peter": 4256,
      "Grand": 4257,
      "function": 4258,
      "incident": 4259,
      "Scott": 4260,
      "spore": 4261,
      "ylide": 4262,
      "trees": 4263,
      "recognized": 4264,
      "practices": 4265,
      "experience": 4266,
      "Classic": 4267,
      "dedicated": 4268,
      "reduced": 4269,
      "execut": 4270,
      "widely": 4271,
      "Huron": 4272,
      "Middle": 4273,
      "Nazi": 4274,
      "heavily": 4275,
      "Leonard": 4276,
      "ceremony": 4277,
      "Montreal": 4278,
      "opinion": 4279,
      "financial": 4280,
      "immediately": 4281,
      "guitar": 4282,
      "Henry": 4283,
      "brief": 4284,
      "Portuguese": 4285,
      "Gambia": 4286,
      "AoT": 4287,
      "46": 4288,
      "56": 4289,
      "Ak": 4290,
      "Bal": 4291,
      "Come": 4292,
      "Dis": 4293,
      "Fre": 4294,
      "Greg": 4295,
      "Giants": 4296,
      "Ham": 4297,
      "ID": 4298,
      "IS": 4299,
      "Iron": 4300,
      "Los": 4301,
      "Mal": 4302,
      "Mart": 4303,
      "Sup": 4304,
      "Sound": 4305,
      "Ty": 4306,
      "Time": 4307,
      "Ver": 4308,
      "Vir": 4309,
      "bot": 4310,
      "cure": 4311,
      "dru": 4312,
      "fans": 4313,
      "gs": 4314,
      "ging": 4315,
      "gment": 4316,
      "kins": 4317,
      "lor": 4318,
      "mes": 4319,
      "sched": 4320,
      "sisters": 4321,
      "virt": 4322,
      "yard": 4323,
      "za": 4324,
      "rein": 4325,
      "reign": 4326,
      "recomm": 4327,
      "represents": 4328,
      "asy": 4329,
      "andid": 4330,
      "ises": 4331,
      "isation": 4332,
      "rovers": 4333,
      "imate": 4334,
      "impress": 4335,
      "ivity": 4336,
      "owski": 4337,
      "unit": 4338,
      "unity": 4339,
      "univers": 4340,
      "unique": 4341,
      "istry": 4342,
      "1913": 4343,
      "plot": 4344,
      "ester": 4345,
      "abandon": 4346,
      "shared": 4347,
      "loy": 4348,
      "artist": 4349,
      "berg": 4350,
      "permitted": 4351,
      "illa": 4352,
      "illust": 4353,
      "actually": 4354,
      "Child": 4355,
      "notable": 4356,
      "herself": 4357,
      "20th": 4358,
      "Three": 4359,
      "Thailand": 4360,
      "create": 4361,
      "irement": 4362,
      "spread": 4363,
      "controvers": 4364,
      "disease": 4365,
      "condition": 4366,
      "enses": 4367,
      "numerous": 4368,
      "foreign": 4369,
      "jected": 4370,
      "background": 4371,
      "Enter": 4372,
      "places": 4373,
      "glass": 4374,
      "apparen": 4375,
      "results": 4376,
      "representing": 4377,
      "Project": 4378,
      "faced": 4379,
      "denied": 4380,
      "1926": 4381,
      "valid": 4382,
      "grown": 4383,
      "explained": 4384,
      "shortly": 4385,
      "portr": 4386,
      "1954": 4387,
      "relationships": 4388,
      "promotion": 4389,
      "ambton": 4390,
      "worst": 4391,
      "penalty": 4392,
      "Imper": 4393,
      "violence": 4394,
      "losses": 4395,
      "combined": 4396,
      "Magic": 4397,
      "management": 4398,
      "fellow": 4399,
      "benef": 4400,
      "applied": 4401,
      "depicted": 4402,
      "economy": 4403,
      "policy": 4404,
      "Richard": 4405,
      "propaganda": 4406,
      "specimen": 4407,
      "submarine": 4408,
      "eye": 4409,
      "Valley": 4410,
      "travel": 4411,
      "Brook": 4412,
      "village": 4413,
      "instrument": 4414,
      "adopted": 4415,
      "necessary": 4416,
      "objects": 4417,
      "question": 4418,
      "ceeded": 4419,
      "carbonaria": 4420,
      "Francisco": 4421,
      "citiz": 4422,
      "faith": 4423,
      "mentioned": 4424,
      "Office": 4425,
      "Blood": 4426,
      "Public": 4427,
      "slightly": 4428,
      "Warsaw": 4429,
      "Aviation": 4430,
      "Tennant": 4431,
      "Washington": 4432,
      "apparent": 4433,
      "48": 4434,
      "89": 4435,
      "AD": 4436,
      "Bur": 4437,
      "Bus": 4438,
      "CN": 4439,
      "Dun": 4440,
      "Even": 4441,
      "Govern": 4442,
      "Here": 4443,
      "Horus": 4444,
      "If": 4445,
      "Lambton": 4446,
      "Mike": 4447,
      "Ob": 4448,
      "Os": 4449,
      "Pop": 4450,
      "Rh": 4451,
      "Rel": 4452,
      "Sip": 4453,
      "Saint": 4454,
      "Ter": 4455,
      "Tur": 4456,
      "Temp": 4457,
      "Van": 4458,
      "bow": 4459,
      "brick": 4460,
      "candid": 4461,
      "dated": 4462,
      "dial": 4463,
      "dry": 4464,
      "fly": 4465,
      "food": 4466,
      "fox": 4467,
      "gather": 4468,
      "hi": 4469,
      "ks": 4470,
      "lav": 4471,
      "mates": 4472,
      "morning": 4473,
      "nick": 4474,
      "oh": 4475,
      "paid": 4476,
      "ries": 4477,
      "rating": 4478,
      "sales": 4479,
      "spring": 4480,
      "uel": 4481,
      "vere": 4482,
      "ński": 4483,
      "ancient": 4484,
      "thetic": 4485,
      "onium": 4486,
      "edge": 4487,
      "reme": 4488,
      "encour": 4489,
      "enque": 4490,
      "enjoy": 4491,
      "stained": 4492,
      "arrang": 4493,
      "asury": 4494,
      "assembl": 4495,
      "itor": 4496,
      "ouis": 4497,
      "administ": 4498,
      "becomes": 4499,
      "university": 4500,
      "idation": 4501,
      "ula": 4502,
      "oty": 4503,
      "usz": 4504,
      "usual": 4505,
      "residents": 4506,
      "opposed": 4507,
      "odes": 4508,
      "losing": 4509,
      "permanent": 4510,
      "iller": 4511,
      "arding": 4512,
      "Chris": 4513,
      "rituals": 4514,
      "twice": 4515,
      "prising": 4516,
      "intell": 4517,
      "inds": 4518,
      "2016": 4519,
      "kept": 4520,
      "boat": 4521,
      "neg": 4522,
      "recre": 4523,
      "presence": 4524,
      "lied": 4525,
      "ultural": 4526,
      "fected": 4527,
      "grand": 4528,
      "Italy": 4529,
      "landing": 4530,
      "Allied": 4531,
      "maintain": 4532,
      "steam": 4533,
      "Poles": 4534,
      "singer": 4535,
      "seconds": 4536,
      "sons": 4537,
      "highlight": 4538,
      "strate": 4539,
      "tainment": 4540,
      "ctoral": 4541,
      "founded": 4542,
      "Andy": 4543,
      "marrow": 4544,
      "armored": 4545,
      "roll": 4546,
      "Aden": 4547,
      "brother": 4548,
      "consider": 4549,
      "standard": 4550,
      "organizations": 4551,
      "laid": 4552,
      "representative": 4553,
      "characteristics": 4554,
      "defend": 4555,
      "missions": 4556,
      "willing": 4557,
      "Palenque": 4558,
      "joint": 4559,
      "model": 4560,
      "establishment": 4561,
      "1929": 4562,
      "college": 4563,
      "1961": 4564,
      "1861": 4565,
      "influences": 4566,
      "authority": 4567,
      "panel": 4568,
      "Gram": 4569,
      "successfully": 4570,
      "Steve": 4571,
      "freeway": 4572,
      "Barrow": 4573,
      "caliber": 4574,
      "funding": 4575,
      "museums": 4576,
      "paint": 4577,
      "patron": 4578,
      "treaty": 4579,
      "symp": 4580,
      "Minister": 4581,
      "strike": 4582,
      "accused": 4583,
      "sacred": 4584,
      "structure": 4585,
      "Darwin": 4586,
      "rarely": 4587,
      "threatened": 4588,
      "performing": 4589,
      "specimens": 4590,
      "submarines": 4591,
      "improved": 4592,
      "increasingly": 4593,
      "details": 4594,
      "participated": 4595,
      "Cambridge": 4596,
      "turrets": 4597,
      "relief": 4598,
      "Daniel": 4599,
      "replacement": 4600,
      "flooding": 4601,
      "settlement": 4602,
      "Secretary": 4603,
      "nuclear": 4604,
      "Alex": 4605,
      "dinand": 4606,
      "daughter": 4607,
      "Background": 4608,
      "Ferdinand": 4609,
      "Palestinian": 4610,
      "Dwight": 4611,
      "institutions": 4612,
      "Sippy": 4613,
      "41": 4614,
      "64": 4615,
      "69": 4616,
      "7th": 4617,
      "800": 4618,
      "91": 4619,
      "Bi": 4620,
      "Du": 4621,
      "Gar": 4622,
      "Hun": 4623,
      "Jose": 4624,
      "Ko": 4625,
      "Louis": 4626,
      "Mut": 4627,
      "Mort": 4628,
      "Mass": 4629,
      "Mumb": 4630,
      "Nash": 4631,
      "Oro": 4632,
      "Patt": 4633,
      "Sil": 4634,
      "Sir": 4635,
      "Tess": 4636,
      "Troph": 4637,
      "Wy": 4638,
      "Wil": 4639,
      "Wiz": 4640,
      "Wood": 4641,
      "Walk": 4642,
      "aj": 4643,
      "ais": 4644,
      "bit": 4645,
      "bad": 4646,
      "big": 4647,
      "bud": 4648,
      "bann": 4649,
      "border": 4650,
      "cular": 4651,
      "cinem": 4652,
      "fres": 4653,
      "hot": 4654,
      "harm": 4655,
      "hier": 4656,
      "ii": 4657,
      "iar": 4658,
      "iant": 4659,
      "ios": 4660,
      "jun": 4661,
      "kings": 4662,
      "lit": 4663,
      "mn": 4664,
      "mom": 4665,
      "ned": 4666,
      "pire": 4667,
      "rich": 4668,
      "rival": 4669,
      "squadron": 4670,
      "tender": 4671,
      "uter": 4672,
      "ufact": 4673,
      "wat": 4674,
      "xis": 4675,
      "zco": 4676,
      "incorpor": 4677,
      "repe": 4678,
      "atus": 4679,
      "alle": 4680,
      "sted": 4681,
      "stores": 4682,
      "isf": 4683,
      "esc": 4684,
      "itage": 4685,
      "leave": 4686,
      "chance": 4687,
      "amateur": 4688,
      "acid": 4689,
      "accompl": 4690,
      "account": 4691,
      "beach": 4692,
      "irty": 4693,
      "determin": 4694,
      "destruction": 4695,
      "immig": 4696,
      "unable": 4697,
      "confir": 4698,
      "concept": 4699,
      "conflict": 4700,
      "iders": 4701,
      "ctive": 4702,
      "agric": 4703,
      "tery": 4704,
      "verse": 4705,
      "resc": 4706,
      "abled": 4707,
      "abnormal": 4708,
      "composed": 4709,
      "tran": 4710,
      "sho": 4711,
      "shape": 4712,
      "shaped": 4713,
      "iff": 4714,
      "therapy": 4715,
      "managed": 4716,
      "manufact": 4717,
      "illery": 4718,
      "actress": 4719,
      "ameter": 4720,
      "note": 4721,
      "noting": 4722,
      "cock": 4723,
      "princ": 4724,
      "ocr": 4725,
      "bling": 4726,
      "scar": 4727,
      "Head": 4728,
      "party": 4729,
      "neck": 4730,
      "recent": 4731,
      "airman": 4732,
      "auth": 4733,
      "spot": 4734,
      "izes": 4735,
      "grade": 4736,
      "Arab": 4737,
      "noise": 4738,
      "filmed": 4739,
      "finish": 4740,
      "annel": 4741,
      "web": 4742,
      "observed": 4743,
      "retirement": 4744,
      "Sea": 4745,
      "Isis": 4746,
      "medical": 4747,
      "skin": 4748,
      "drama": 4749,
      "aza": 4750,
      "therefore": 4751,
      "publications": 4752,
      "extensive": 4753,
      "metall": 4754,
      "maat": 4755,
      "district": 4756,
      "gives": 4757,
      "requires": 4758,
      "organization": 4759,
      "Marsh": 4760,
      "1937": 4761,
      "passing": 4762,
      "diameter": 4763,
      "importance": 4764,
      "claims": 4765,
      "priest": 4766,
      "basic": 4767,
      "involving": 4768,
      "Guard": 4769,
      "attempts": 4770,
      "levels": 4771,
      "drawn": 4772,
      "Jackson": 4773,
      "criticism": 4774,
      "teachers": 4775,
      "invasion": 4776,
      "declined": 4777,
      "attacks": 4778,
      "association": 4779,
      "spirit": 4780,
      "northern": 4781,
      "debuted": 4782,
      "Service": 4783,
      "scholars": 4784,
      "injured": 4785,
      "flights": 4786,
      "practice": 4787,
      "tombs": 4788,
      "Upon": 4789,
      "potential": 4790,
      "experienced": 4791,
      "honor": 4792,
      "Lightning": 4793,
      "credited": 4794,
      "currently": 4795,
      "Thaksin": 4796,
      "concerned": 4797,
      "Russia": 4798,
      "Russian": 4799,
      "Antiqu": 4800,
      "powered": 4801,
      "Morris": 4802,
      "property": 4803,
      "Studies": 4804,
      "amount": 4805,
      "converted": 4806,
      "prepared": 4807,
      "Works": 4808,
      "championship": 4809,
      "Stanley": 4810,
      "dictator": 4811,
      "musical": 4812,
      "challeng": 4813,
      "Captain": 4814,
      "ultimately": 4815,
      "temper": 4816,
      "roscopic": 4817,
      "Pennsylvania": 4818,
      "Company": 4819,
      "equipment": 4820,
      "Elephanta": 4821,
      "Congress": 4822,
      "ISBN": 4823,
      "Imperial": 4824,
      "Governor": 4825,
      "Mumbai": 4826,
      "Orozco": 4827,
      "Trophy": 4828,
      "Wizards": 4829,
      "54": 4830,
      "8th": 4831,
      "94": 4832,
      "Ari": 4833,
      "Astra": 4834,
      "Bas": 4835,
      "Cast": 4836,
      "Croy": 4837,
      "Del": 4838,
      "Fort": 4839,
      "Fred": 4840,
      "Glo": 4841,
      "Ha": 4842,
      "Ho": 4843,
      "Hon": 4844,
      "Kn": 4845,
      "Land": 4846,
      "Lord": 4847,
      "Mem": 4848,
      "Mus": 4849,
      "Mah": 4850,
      "Master": 4851,
      "Nat": 4852,
      "Now": 4853,
      "Pil": 4854,
      "Sri": 4855,
      "Tot": 4856,
      "UN": 4857,
      "bond": 4858,
      "cation": 4859,
      "chel": 4860,
      "citing": 4861,
      "dney": 4862,
      "eus": 4863,
      "egg": 4864,
      "fat": 4865,
      "folk": 4866,
      "gin": 4867,
      "gro": 4868,
      "here": 4869,
      "haps": 4870,
      "knew": 4871,
      "mile": 4872,
      "nance": 4873,
      "oon": 4874,
      "pit": 4875,
      "pound": 4876,
      "pah": 4877,
      "rong": 4878,
      "rical": 4879,
      "sul": 4880,
      "sort": 4881,
      "sides": 4882,
      "tall": 4883,
      "talk": 4884,
      "taught": 4885,
      "wound": 4886,
      "walk": 4887,
      "theless": 4888,
      "oration": 4889,
      "orient": 4890,
      "ening": 4891,
      "stin": 4892,
      "arth": 4893,
      "toward": 4894,
      "icz": 4895,
      "sector": 4896,
      "amid": 4897,
      "iris": 4898,
      "agree": 4899,
      "ota": 4900,
      "oting": 4901,
      "isted": 4902,
      "cean": 4903,
      "apers": 4904,
      "apted": 4905,
      "apsed": 4906,
      "utz": 4907,
      "1915": 4908,
      "oph": 4909,
      "ody": 4910,
      "odor": 4911,
      "trou": 4912,
      "trip": 4913,
      "trials": 4914,
      "proved": 4915,
      "mob": 4916,
      "Chief": 4917,
      "iang": 4918,
      "portion": 4919,
      "portico": 4920,
      "prin": 4921,
      "assault": 4922,
      "offs": 4923,
      "scope": 4924,
      "indicated": 4925,
      "box": 4926,
      "airports": 4927,
      "airspace": 4928,
      "arked": 4929,
      "dub": 4930,
      "lando": 4931,
      "disci": 4932,
      "fert": 4933,
      "osaur": 4934,
      "Arts": 4935,
      "Polit": 4936,
      "ween": 4937,
      "reng": 4938,
      "argued": 4939,
      "obtained": 4940,
      "Seas": 4941,
      "consists": 4942,
      "anything": 4943,
      "icture": 4944,
      "writings": 4945,
      "elections": 4946,
      "visit": 4947,
      "surface": 4948,
      "views": 4949,
      "hydro": 4950,
      "extended": 4951,
      "extreme": 4952,
      "clock": 4953,
      "continues": 4954,
      "officials": 4955,
      "transfer": 4956,
      "covering": 4957,
      "developing": 4958,
      "aska": 4959,
      "cycl": 4960,
      "broke": 4961,
      "restrict": 4962,
      "market": 4963,
      "Mean": 4964,
      "Produ": 4965,
      "facing": 4966,
      "denomin": 4967,
      "solid": 4968,
      "Orlando": 4969,
      "factors": 4970,
      "females": 4971,
      "goaltender": 4972,
      "believe": 4973,
      "suggests": 4974,
      "holding": 4975,
      "Descri": 4976,
      "titled": 4977,
      "southeast": 4978,
      "Bridge": 4979,
      "Coast": 4980,
      "declared": 4981,
      "expanded": 4982,
      "street": 4983,
      "industrial": 4984,
      "circum": 4985,
      "freed": 4986,
      "hosted": 4987,
      "existing": 4988,
      "existence": 4989,
      "employed": 4990,
      "Magn": 4991,
      "pieces": 4992,
      "structures": 4993,
      "salary": 4994,
      "stationed": 4995,
      "straight": 4996,
      "reasons": 4997,
      "rossing": 4998,
      "broadcast": 4999,
      "Treasury": 5000,
      "happy": 5001,
      "billion": 5002,
      "achieved": 5003,
      "absence": 5004,
      "Books": 5005,
      "sulfide": 5006,
      "separate": 5007,
      "Angeles": 5008,
      "Toronto": 5009,
      "problems": 5010,
      "Julian": 5011,
      "Kurstin": 5012,
      "Victoria": 5013,
      "purchased": 5014,
      "Southern": 5015,
      "camera": 5016,
      "Shortly": 5017,
      "distinguished": 5018,
      "Addition": 5019,
      "vessels": 5020,
      "Between": 5021,
      "husbandman": 5022,
      "Cabral": 5023,
      "Lowe": 5024,
      "elegans": 5025,
      "cytogenet": 5026,
      "bottom": 5027,
      "Rhode": 5028,
      "Grammy": 5029,
      "Patterson": 5030,
      "Tessa": 5031,
      "Astraeus": 5032,
      "Croydon": 5033,
      "51": 5034,
      "57": 5035,
      "AL": 5036,
      "Bang": 5037,
      "CH": 5038,
      "Cre": 5039,
      "Dou": 5040,
      "Det": 5041,
      "Dah": 5042,
      "Daily": 5043,
      "ES": 5044,
      "Edu": 5045,
      "Fur": 5046,
      "Flet": 5047,
      "Hu": 5048,
      "Hind": 5049,
      "Horn": 5050,
      "Hindu": 5051,
      "Jon": 5052,
      "Lib": 5053,
      "Men": 5054,
      "Matt": 5055,
      "Mood": 5056,
      "Nam": 5057,
      "Pac": 5058,
      "Pig": 5059,
      "Player": 5060,
      "Rod": 5061,
      "Son": 5062,
      "Sav": 5063,
      "Song": 5064,
      "Span": 5065,
      "Tree": 5066,
      "Tade": 5067,
      "Vol": 5068,
      "Ye": 5069,
      "bones": 5070,
      "dress": 5071,
      "dread": 5072,
      "data": 5073,
      "daily": 5074,
      "fit": 5075,
      "fast": 5076,
      "gift": 5077,
      "hund": 5078,
      "horn": 5079,
      "iet": 5080,
      "iour": 5081,
      "jew": 5082,
      "ki": 5083,
      "ky": 5084,
      "kes": 5085,
      "lane": 5086,
      "mast": 5087,
      "oen": 5088,
      "pal": 5089,
      "pic": 5090,
      "rd": 5091,
      "rac": 5092,
      "rise": 5093,
      "river": 5094,
      "sic": 5095,
      "spl": 5096,
      "sought": 5097,
      "ta": 5098,
      "tale": 5099,
      "von": 5100,
      "wrec": 5101,
      "your": 5102,
      "ów": 5103,
      "throw": 5104,
      "inity": 5105,
      "infr": 5106,
      "inspir": 5107,
      "independent": 5108,
      "erg": 5109,
      "onents": 5110,
      "onald": 5111,
      "really": 5112,
      "resembl": 5113,
      "orated": 5114,
      "stib": 5115,
      "stances": 5116,
      "streng": 5117,
      "asc": 5118,
      "ita": 5119,
      "itude": 5120,
      "touring": 5121,
      "icide": 5122,
      "ications": 5123,
      "icted": 5124,
      "iled": 5125,
      "ilarly": 5126,
      "olia": 5127,
      "advert": 5128,
      "acres": 5129,
      "accoun": 5130,
      "forth": 5131,
      "urb": 5132,
      "urg": 5133,
      "uries": 5134,
      "defe": 5135,
      "deemed": 5136,
      "imm": 5137,
      "imer": 5138,
      "imal": 5139,
      "imet": 5140,
      "improv": 5141,
      "Their": 5142,
      "unch": 5143,
      "convent": 5144,
      "idden": 5145,
      "terr": 5146,
      "1910": 5147,
      "resign": 5148,
      "tried": 5149,
      "peaked": 5150,
      "ifest": 5151,
      "moving": 5152,
      "posure": 5153,
      "clin": 5154,
      "rian": 5155,
      "ession": 5156,
      "ipal": 5157,
      "Chart": 5158,
      "rule": 5159,
      "rupt": 5160,
      "pton": 5161,
      "uda": 5162,
      "coal": 5163,
      "cool": 5164,
      "ights": 5165,
      "ocy": 5166,
      "Stone": 5167,
      "ached": 5168,
      "ogen": 5169,
      "awards": 5170,
      "ignity": 5171,
      "blue": 5172,
      "forming": 5173,
      "1849": 5174,
      "boats": 5175,
      "neath": 5176,
      "recently": 5177,
      "airfields": 5178,
      "committee": 5179,
      "oked": 5180,
      "content": 5181,
      "contemp": 5182,
      "containing": 5183,
      "mechan": 5184,
      "flank": 5185,
      "maintained": 5186,
      "efforts": 5187,
      "mond": 5188,
      "centre": 5189,
      "relatively": 5190,
      "Police": 5191,
      "inking": 5192,
      "oba": 5193,
      "fourteen": 5194,
      "Once": 5195,
      "tonnes": 5196,
      "Feast": 5197,
      "skill": 5198,
      "leads": 5199,
      "describes": 5200,
      "address": 5201,
      "150": 5202,
      "Blues": 5203,
      "1987": 5204,
      "student": 5205,
      "divor": 5206,
      "famous": 5207,
      "Beyond": 5208,
      "Commission": 5209,
      "matter": 5210,
      "antimon": 5211,
      "didn": 5212,
      "positions": 5213,
      "Aircraft": 5214,
      "Maria": 5215,
      "Megaliths": 5216,
      "1975": 5217,
      "1970s": 5218,
      "passeng": 5219,
      "lasted": 5220,
      "Phoen": 5221,
      "collected": 5222,
      "greatly": 5223,
      "politics": 5224,
      "traded": 5225,
      "ussion": 5226,
      "poration": 5227,
      "Charlot": 5228,
      "Jews": 5229,
      "getting": 5230,
      "Columb": 5231,
      "Australian": 5232,
      "begins": 5233,
      "significantly": 5234,
      "ASA": 5235,
      "Revol": 5236,
      "northeast": 5237,
      "demand": 5238,
      "Georg": 5239,
      "effects": 5240,
      "survived": 5241,
      "Syn": 5242,
      "connected": 5243,
      "instance": 5244,
      "Corporation": 5245,
      "homes": 5246,
      "animal": 5247,
      "meeting": 5248,
      "executive": 5249,
      "examples": 5250,
      "multiple": 5251,
      "ppg": 5252,
      "instruments": 5253,
      "Kras": 5254,
      "festival": 5255,
      "assistant": 5256,
      "interpret": 5257,
      "favorite": 5258,
      "battery": 5259,
      "emerged": 5260,
      "licens": 5261,
      "1920s": 5262,
      "impact": 5263,
      "documentary": 5264,
      "Confederate": 5265,
      "Military": 5266,
      "environmental": 5267,
      "arrested": 5268,
      "distribution": 5269,
      "Croatia": 5270,
      "Broadway": 5271,
      "maskray": 5272,
      "narrative": 5273,
      "advanced": 5274,
      "debate": 5275,
      "narrow": 5276,
      "advance": 5277,
      "Temple": 5278,
      "budget": 5279,
      "website": 5280,
      "utzpah": 5281,
      "Magnolia": 5282,
      "Further": 5283,
      "Moody": 5284,
      "Spanish": 5285,
      "Tadeusz": 5286,
      "hundred": 5287,
      "Phoenix": 5288,
      "Charlotte": 5289,
      "59": 5290,
      "71": 5291,
      "78": 5292,
      "AR": 5293,
      "Core": 5294,
      "Dutch": 5295,
      "EASA": 5296,
      "Got": 5297,
      "Gard": 5298,
      "Hal": 5299,
      "Ire": 5300,
      "Kent": 5301,
      "Mes": 5302,
      "Miss": 5303,
      "Minn": 5304,
      "Pot": 5305,
      "Power": 5306,
      "Peng": 5307,
      "Rap": 5308,
      "Rud": 5309,
      "Rangers": 5310,
      "Sevent": 5311,
      "Tu": 5312,
      "Tig": 5313,
      "Treat": 5314,
      "Vas": 5315,
      "Vice": 5316,
      "Writ": 5317,
      "Water": 5318,
      "bra": 5319,
      "bury": 5320,
      "crow": 5321,
      "custom": 5322,
      "dy": 5323,
      "dates": 5324,
      "ec": 5325,
      "ean": 5326,
      "eigh": 5327,
      "fear": 5328,
      "gle": 5329,
      "gone": 5330,
      "hall": 5331,
      "hang": 5332,
      "ja": 5333,
      "jum": 5334,
      "knot": 5335,
      "kov": 5336,
      "lived": 5337,
      "mal": 5338,
      "oo": 5339,
      "pul": 5340,
      "rig": 5341,
      "rural": 5342,
      "san": 5343,
      "sand": 5344,
      "tto": 5345,
      "tig": 5346,
      "tort": 5347,
      "tree": 5348,
      "voted": 5349,
      "ville": 5350,
      "wild": 5351,
      "wick": 5352,
      "wants": 5353,
      "winner": 5354,
      "wrong": 5355,
      "µm": 5356,
      "thi": 5357,
      "thirty": 5358,
      "ini": 5359,
      "institution": 5360,
      "eration": 5361,
      "anch": 5362,
      "ange": 5363,
      "edition": 5364,
      "repl": 5365,
      "reception": 5366,
      "remarked": 5367,
      "remission": 5368,
      "rejected": 5369,
      "orer": 5370,
      "enge": 5371,
      "sta": 5372,
      "stim": 5373,
      "isol": 5374,
      "isions": 5375,
      "icon": 5376,
      "ionally": 5377,
      "rose": 5378,
      "chicks": 5379,
      "adapted": 5380,
      "elly": 5381,
      "omer": 5382,
      "lyph": 5383,
      "dete": 5384,
      "owa": 5385,
      "owing": 5386,
      "conserv": 5387,
      "ida": 5388,
      "ager": 5389,
      "agues": 5390,
      "ulations": 5391,
      "apse": 5392,
      "apart": 5393,
      "1919": 5394,
      "1925": 5395,
      "oppos": 5396,
      "traf": 5397,
      "log": 5398,
      "article": 5399,
      "sore": 5400,
      "earch": 5401,
      "actors": 5402,
      "Chutzpah": 5403,
      "assists": 5404,
      "assumed": 5405,
      "ideos": 5406,
      "oguan": 5407,
      "elling": 5408,
      "awn": 5409,
      "screen": 5410,
      "Health": 5411,
      "airport": 5412,
      "vie": 5413,
      "Though": 5414,
      "creating": 5415,
      "ulture": 5416,
      "izing": 5417,
      "phy": 5418,
      "premi": 5419,
      "Arm": 5420,
      "ologist": 5421,
      "crime": 5422,
      "steps": 5423,
      "Anup": 5424,
      "Anton": 5425,
      "publish": 5426,
      "gency": 5427,
      "singles": 5428,
      "Ass": 5429,
      "Asian": 5430,
      "produces": 5431,
      "cannot": 5432,
      "onym": 5433,
      "osex": 5434,
      "elected": 5435,
      "whereas": 5436,
      "vised": 5437,
      "visitors": 5438,
      "ifications": 5439,
      "sket": 5440,
      "skull": 5441,
      "surve": 5442,
      "drum": 5443,
      "braska": 5444,
      "cargo": 5445,
      "signs": 5446,
      "suppl": 5447,
      "supply": 5448,
      "operated": 5449,
      "Joe": 5450,
      "description": 5451,
      "appears": 5452,
      "depth": 5453,
      "remainder": 5454,
      "prompt": 5455,
      "direction": 5456,
      "distance": 5457,
      "memory": 5458,
      "classes": 5459,
      "classic": 5460,
      "musicians": 5461,
      "appearing": 5462,
      "check": 5463,
      "Committee": 5464,
      "considers": 5465,
      "differences": 5466,
      "resulting": 5467,
      "anka": 5468,
      "Meh": 5469,
      "Palin": 5470,
      "joining": 5471,
      "urti": 5472,
      "posted": 5473,
      "establish": 5474,
      "approved": 5475,
      "appropri": 5476,
      "Organ": 5477,
      "Origin": 5478,
      "occas": 5479,
      "occasion": 5480,
      "correspond": 5481,
      "km2": 5482,
      "simply": 5483,
      "ivalent": 5484,
      "Nebraska": 5485,
      "letter": 5486,
      "turns": 5487,
      "1952": 5488,
      "pleasure": 5489,
      "styles": 5490,
      "1862": 5491,
      "statute": 5492,
      "circle": 5493,
      "Catholics": 5494,
      "soul": 5495,
      "criticised": 5496,
      "trop": 5497,
      "Media": 5498,
      "decline": 5499,
      "walls": 5500,
      "attracted": 5501,
      "earliest": 5502,
      "Emmy": 5503,
      "Empire": 5504,
      "protected": 5505,
      "gott": 5506,
      "Ministry": 5507,
      "Underground": 5508,
      "Underneath": 5509,
      "responsibility": 5510,
      "mediate": 5511,
      "Mysore": 5512,
      "looking": 5513,
      "Research": 5514,
      "fighting": 5515,
      "acquired": 5516,
      "earthstar": 5517,
      "nominated": 5518,
      "nominations": 5519,
      "aerodrome": 5520,
      "Golden": 5521,
      "certified": 5522,
      "Anti": 5523,
      "powers": 5524,
      "induction": 5525,
      "satisf": 5526,
      "myeloid": 5527,
      "beliefs": 5528,
      "victim": 5529,
      "interpreted": 5530,
      "batteries": 5531,
      "alleged": 5532,
      "ethnic": 5533,
      "companies": 5534,
      "behaviour": 5535,
      "attributed": 5536,
      "adults": 5537,
      "Prior": 5538,
      "1950s": 5539,
      "Jerzy": 5540,
      "Personal": 5541,
      "carrying": 5542,
      "Summer": 5543,
      "ninth": 5544,
      "Officer": 5545,
      "Human": 5546,
      "false": 5547,
      "Shaoguan": 5548,
      "Today": 5549,
      "shells": 5550,
      "rapidly": 5551,
      "Type": 5552,
      "Virgin": 5553,
      "schedul": 5554,
      "citizens": 5555,
      "Dunn": 5556,
      "Joseph": 5557,
      "Mortimer": 5558,
      "Freder": 5559,
      "Fletcher": 5560,
      "Piggott": 5561,
      "dreadn": 5562,
      "contemporary": 5563,
      "Revolution": 5564,
      "Ireland": 5565,
      "Pengu": 5566,
      "traffic": 5567,
      "34": 5568,
      "43": 5569,
      "52": 5570,
      "53": 5571,
      "5th": 5572,
      "82": 5573,
      "84": 5574,
      "87": 5575,
      "Bul": 5576,
      "Bach": 5577,
      "Bra": 5578,
      "Bah": 5579,
      "CL": 5580,
      "Ca": 5581,
      "Cr": 5582,
      "Cens": 5583,
      "Far": 5584,
      "Fil": 5585,
      "Fest": 5586,
      "Fame": 5587,
      "Fox": 5588,
      "HL": 5589,
      "Hay": 5590,
      "Ken": 5591,
      "Kit": 5592,
      "Kra": 5593,
      "Kree": 5594,
      "Mu": 5595,
      "Mat": 5596,
      "Por": 5597,
      "Pen": 5598,
      "Pam": 5599,
      "Rav": 5600,
      "Sab": 5601,
      "Uk": 5602,
      "VD": 5603,
      "Vat": 5604,
      "Wal": 5605,
      "aurus": 5606,
      "bb": 5607,
      "bs": 5608,
      "branch": 5609,
      "ding": 5610,
      "dies": 5611,
      "dignity": 5612,
      "ecess": 5613,
      "fers": 5614,
      "fold": 5615,
      "gas": 5616,
      "gree": 5617,
      "greg": 5618,
      "iod": 5619,
      "jazz": 5620,
      "kg": 5621,
      "lake": 5622,
      "mort": 5623,
      "mound": 5624,
      "mund": 5625,
      "page": 5626,
      "sle": 5627,
      "squad": 5628,
      "sports": 5629,
      "score": 5630,
      "table": 5631,
      "uto": 5632,
      "ule": 5633,
      "videos": 5634,
      "wit": 5635,
      "warn": 5636,
      "xide": 5637,
      "yan": 5638,
      "yellow": 5639,
      "zone": 5640,
      "infl": 5641,
      "insey": 5642,
      "anth": 5643,
      "theater": 5644,
      "rev": 5645,
      "rez": 5646,
      "reven": 5647,
      "render": 5648,
      "atro": 5649,
      "altar": 5650,
      "store": 5651,
      "andal": 5652,
      "isn": 5653,
      "esota": 5654,
      "ingal": 5655,
      "itated": 5656,
      "itled": 5657,
      "heart": 5658,
      "height": 5659,
      "roit": 5660,
      "entry": 5661,
      "ils": 5662,
      "seat": 5663,
      "sevent": 5664,
      "severe": 5665,
      "ols": 5666,
      "ada": 5667,
      "aded": 5668,
      "ading": 5669,
      "ellect": 5670,
      "omal": 5671,
      "aced": 5672,
      "acle": 5673,
      "beings": 5674,
      "decre": 5675,
      "deck": 5676,
      "degree": 5677,
      "implement": 5678,
      "iven": 5679,
      "ayed": 5680,
      "aykov": 5681,
      "union": 5682,
      "unknown": 5683,
      "unusual": 5684,
      "constitut": 5685,
      "concert": 5686,
      "agen": 5687,
      "agent": 5688,
      "avoid": 5689,
      "uten": 5690,
      "opy": 5691,
      "alling": 5692,
      "exposure": 5693,
      "prog": 5694,
      "ifying": 5695,
      "Instead": 5696,
      "orders": 5697,
      "ighter": 5698,
      "clad": 5699,
      "manifest": 5700,
      "affected": 5701,
      "illance": 5702,
      "essential": 5703,
      "Chaykov": 5704,
      "outs": 5705,
      "ruption": 5706,
      "ours": 5707,
      "owners": 5708,
      "twin": 5709,
      "hero": 5710,
      "bled": 5711,
      "offensive": 5712,
      "scale": 5713,
      "science": 5714,
      "formal": 5715,
      "intens": 5716,
      "intellect": 5717,
      "partly": 5718,
      "partial": 5719,
      "recalled": 5720,
      "audev": 5721,
      "Third": 5722,
      "speak": 5723,
      "duo": 5724,
      "display": 5725,
      "phara": 5726,
      "Along": 5727,
      "flint": 5728,
      "crash": 5729,
      "crimin": 5730,
      "themed": 5731,
      "Ancient": 5732,
      "Recording": 5733,
      "finishing": 5734,
      "annah": 5735,
      "weight": 5736,
      "substant": 5737,
      "someone": 5738,
      "somewhat": 5739,
      "producing": 5740,
      "DePaul": 5741,
      "election": 5742,
      "Comed": 5743,
      "News": 5744,
      "surg": 5745,
      "county": 5746,
      "leaders": 5747,
      "Who": 5748,
      "operates": 5749,
      "Clair": 5750,
      "capable": 5751,
      "captain": 5752,
      "foundation": 5753,
      "decades": 5754,
      "cutting": 5755,
      "classification": 5756,
      "musician": 5757,
      "chestra": 5758,
      "versions": 5759,
      "brothers": 5760,
      "Community": 5761,
      "successor": 5762,
      "returning": 5763,
      "starts": 5764,
      "marks": 5765,
      "require": 5766,
      "guid": 5767,
      "guest": 5768,
      "powerful": 5769,
      "1931": 5770,
      "Amend": 5771,
      "moder": 5772,
      "derived": 5773,
      "runs": 5774,
      "iverse": 5775,
      "1923": 5776,
      "Carter": 5777,
      "correct": 5778,
      "starred": 5779,
      "growing": 5780,
      "suggesting": 5781,
      "statues": 5782,
      "criticized": 5783,
      "equivalent": 5784,
      "Cole": 5785,
      "systems": 5786,
      "windows": 5787,
      "strongly": 5788,
      "deliver": 5789,
      "graphy": 5790,
      "Stephen": 5791,
      "soundtrack": 5792,
      "stream": 5793,
      "ironclad": 5794,
      "consisting": 5795,
      "Moore": 5796,
      "recognition": 5797,
      "demol": 5798,
      "burial": 5799,
      "buried": 5800,
      "reveal": 5801,
      "capture": 5802,
      "seeing": 5803,
      "sexuality": 5804,
      "ucks": 5805,
      "shrines": 5806,
      "predecess": 5807,
      "Highway": 5808,
      "credit": 5809,
      "Corps": 5810,
      "technical": 5811,
      "observations": 5812,
      "observatory": 5813,
      "Actress": 5814,
      "protests": 5815,
      "opportunity": 5816,
      "goddesses": 5817,
      "architectural": 5818,
      "Trans": 5819,
      "Transport": 5820,
      "emphasis": 5821,
      "beaten": 5822,
      "territory": 5823,
      "preserved": 5824,
      "behavior": 5825,
      "Bollywood": 5826,
      "houses": 5827,
      "iscuous": 5828,
      "Chapat": 5829,
      "Karl": 5830,
      "Queen": 5831,
      "frequently": 5832,
      "punishment": 5833,
      "exclus": 5834,
      "pregnancy": 5835,
      "Jeff": 5836,
      "onomy": 5837,
      "charges": 5838,
      "Cornwall": 5839,
      "Party": 5840,
      "maximum": 5841,
      "columns": 5842,
      "diagnosis": 5843,
      "fixed": 5844,
      "executed": 5845,
      "recommended": 5846,
      "abandoned": 5847,
      "benefit": 5848,
      "Osiris": 5849,
      "intelligence": 5850,
      "symptom": 5851,
      "Alexander": 5852,
      "Mutinus": 5853,
      "fresh": 5854,
      "moment": 5855,
      "repeated": 5856,
      "Guardian": 5857,
      "Morrison": 5858,
      "Meanwhile": 5859,
      "circumstances": 5860,
      "Additionally": 5861,
      "Detroit": 5862,
      "Education": 5863,
      "Libr": 5864,
      "Nameless": 5865,
      "Pacific": 5866,
      "Savannah": 5867,
      "defeated": 5868,
      "Corey": 5869,
      "Minnesota": 5870,
      "Seventeenth": 5871,
      "knots": 5872,
      "scheduled": 5873,
      "Frederick": 5874,
      "Penguins": 5875,
      "Bachchan": 5876,
      "Kreeft": 5877,
      "Ukrain": 5878,
      "Vatican": 5879,
      "Chaykovsky": 5880,
      "1st": 5881,
      "2S": 5882,
      "62": 5883,
      "63": 5884,
      "66": 5885,
      "77": 5886,
      "92": 5887,
      "900": 5888,
      "Aten": 5889,
      "Agust": 5890,
      "Brist": 5891,
      "Brown": 5892,
      "Cu": 5893,
      "Cy": 5894,
      "Coll": 5895,
      "Den": 5896,
      "Due": 5897,
      "Dharm": 5898,
      "Fall": 5899,
      "Front": 5900,
      "Flying": 5901,
      "Fingal": 5902,
      "Good": 5903,
      "Gama": 5904,
      "Hit": 5905,
      "Hart": 5906,
      "Hard": 5907,
      "IV": 5908,
      "Ill": 5909,
      "Jr": 5910,
      "Jar": 5911,
      "Jam": 5912,
      "Just": 5913,
      "Ke": 5914,
      "Kon": 5915,
      "Kay": 5916,
      "Kings": 5917,
      "Kaz": 5918,
      "Ly": 5919,
      "Liv": 5920,
      "Live": 5921,
      "Loc": 5922,
      "Mel": 5923,
      "Mir": 5924,
      "Mach": 5925,
      "Mason": 5926,
      "Mix": 5927,
      "NA": 5928,
      "Oly": 5929,
      "Oak": 5930,
      "PL": 5931,
      "Ret": 5932,
      "Race": 5933,
      "Rick": 5934,
      "Sat": 5935,
      "Sar": 5936,
      "Scre": 5937,
      "Sub": 5938,
      "Sche": 5939,
      "Spring": 5940,
      "Ten": 5941,
      "Top": 5942,
      "Test": 5943,
      "Ul": 5944,
      "VI": 5945,
      "Vai": 5946,
      "Winds": 5947,
      "bah": 5948,
      "bought": 5949,
      "cers": 5950,
      "cens": 5951,
      "cards": 5952,
      "cussion": 5953,
      "dan": 5954,
      "ech": 5955,
      "eper": 5956,
      "fo": 5957,
      "fü": 5958,
      "fought": 5959,
      "gain": 5960,
      "gets": 5961,
      "gained": 5962,
      "ithe": 5963,
      "mind": 5964,
      "males": 5965,
      "nu": 5966,
      "overs": 5967,
      "pack": 5968,
      "pup": 5969,
      "picture": 5970,
      "rid": 5971,
      "riding": 5972,
      "say": 5973,
      "sop": 5974,
      "ske": 5975,
      "swe": 5976,
      "tact": 5977,
      "vated": 5978,
      "wise": 5979,
      "yer": 5980,
      "youth": 5981,
      "inations": 5982,
      "inced": 5983,
      "income": 5984,
      "inhib": 5985,
      "eria": 5986,
      "thed": 5987,
      "onel": 5988,
      "rey": 5989,
      "reactor": 5990,
      "orial": 5991,
      "orida": 5992,
      "ensemble": 5993,
      "stood": 5994,
      "ari": 5995,
      "arry": 5996,
      "andatory": 5997,
      "ismo": 5998,
      "items": 5999,
      "today": 6000,
      "toler": 6001,
      "icop": 6002,
      "heard": 6003,
      "lease": 6004,
      "entially": 6005,
      "entering": 6006,
      "channel": 6007,
      "seated": 6008,
      "sets": 6009,
      "adapt": 6010,
      "oma": 6011,
      "aco": 6012,
      "acles": 6013,
      "forb": 6014,
      "urban": 6015,
      "wash": 6016,
      "wasn": 6017,
      "beaut": 6018,
      "iga": 6019,
      "aya": 6020,
      "withdraw": 6021,
      "cona": 6022,
      "constant": 6023,
      "agan": 6024,
      "agement": 6025,
      "agiar": 6026,
      "ully": 6027,
      "otic": 6028,
      "otion": 6029,
      "umes": 6030,
      "1917": 6031,
      "reser": 6032,
      "resigned": 6033,
      "option": 6034,
      "romantic": 6035,
      "abo": 6036,
      "trio": 6037,
      "suitable": 6038,
      "expect": 6039,
      "exposed": 6040,
      "extra": 6041,
      "los": 6042,
      "propos": 6043,
      "proceeded": 6044,
      "iful": 6045,
      "ifically": 6046,
      "movie": 6047,
      "orted": 6048,
      "ortion": 6049,
      "permission": 6050,
      "percussion": 6051,
      "asts": 6052,
      "ardo": 6053,
      "ardment": 6054,
      "outing": 6055,
      "outbreak": 6056,
      "iano": 6057,
      "coined": 6058,
      "evol": 6059,
      "offers": 6060,
      "sche": 6061,
      "scrap": 6062,
      "formally": 6063,
      "intention": 6064,
      "partially": 6065,
      "neut": 6066,
      "negot": 6067,
      "aired": 6068,
      "pressing": 6069,
      "serial": 6070,
      "vez": 6071,
      "auto": 6072,
      "commonly": 6073,
      "spons": 6074,
      "raid": 6075,
      "grav": 6076,
      "speaking": 6077,
      "contain": 6078,
      "contact": 6079,
      "disabled": 6080,
      "Also": 6081,
      "flag": 6082,
      "ibly": 6083,
      "ologies": 6084,
      "interaction": 6085,
      "regul": 6086,
      "regulation": 6087,
      "mons": 6088,
      "centuries": 6089,
      "insur": 6090,
      "Ancona": 6091,
      "relative": 6092,
      "weigh": 6093,
      "wealth": 6094,
      "renamed": 6095,
      "buck": 6096,
      "releases": 6097,
      "oselect": 6098,
      "Leg": 6099,
      "Leban": 6100,
      "median": 6101,
      "choice": 6102,
      "brig": 6103,
      "brut": 6104,
      "carving": 6105,
      "pedition": 6106,
      "longest": 6107,
      "operate": 6108,
      "beds": 6109,
      "closer": 6110,
      "warm": 6111,
      "1989": 6112,
      "deprec": 6113,
      "setting": 6114,
      "division": 6115,
      "helicop": 6116,
      "decorated": 6117,
      "variation": 6118,
      "transl": 6119,
      "receiving": 6120,
      "ashion": 6121,
      "heads": 6122,
      "imeter": 6123,
      "complet": 6124,
      "supporting": 6125,
      "persons": 6126,
      "mature": 6127,
      "realized": 6128,
      "organised": 6129,
      "1936": 6130,
      "1938": 6131,
      "defensive": 6132,
      "Among": 6133,
      "1973": 6134,
      "1976": 6135,
      "passes": 6136,
      "rumors": 6137,
      "ficient": 6138,
      "claiming": 6139,
      "communication": 6140,
      "explains": 6141,
      "NHA": 6142,
      "involvement": 6143,
      "storylines": 6144,
      "sequence": 6145,
      "synthesis": 6146,
      "reaching": 6147,
      "statistics": 6148,
      "Private": 6149,
      "promote": 6150,
      "possibility": 6151,
      "averaged": 6152,
      "averaging": 6153,
      "killing": 6154,
      "titles": 6155,
      "aerial": 6156,
      "significance": 6157,
      "window": 6158,
      "Scot": 6159,
      "episodes": 6160,
      "expans": 6161,
      "Edward": 6162,
      "select": 6163,
      "violent": 6164,
      "attacked": 6165,
      "everything": 6166,
      "closely": 6167,
      "Soviets": 6168,
      "eze": 6169,
      "destroyers": 6170,
      "membered": 6171,
      "educational": 6172,
      "circular": 6173,
      "Florida": 6174,
      "normally": 6175,
      "painted": 6176,
      "treated": 6177,
      "recognised": 6178,
      "amental": 6179,
      "teenth": 6180,
      "protection": 6181,
      "doesn": 6182,
      "favour": 6183,
      "liked": 6184,
      "surviv": 6185,
      "casem": 6186,
      "needed": 6187,
      "Magazine": 6188,
      "Sydney": 6189,
      "gradually": 6190,
      "Sanford": 6191,
      "rainfall": 6192,
      "Update": 6193,
      "suffering": 6194,
      "hoped": 6195,
      "demons": 6196,
      "predomin": 6197,
      "mount": 6198,
      "difficulty": 6199,
      "fragments": 6200,
      "blockade": 6201,
      "knowledge": 6202,
      "arsenic": 6203,
      "Senators": 6204,
      "microl": 6205,
      "achieve": 6206,
      "absor": 6207,
      "measure": 6208,
      "network": 6209,
      "contributed": 6210,
      "Krak": 6211,
      "amounts": 6212,
      "prohibited": 6213,
      "problem": 6214,
      "governor": 6215,
      "safety": 6216,
      "habitats": 6217,
      "territories": 6218,
      "scholarship": 6219,
      "wintering": 6220,
      "escape": 6221,
      "convinced": 6222,
      "demonstrated": 6223,
      "smooth": 6224,
      "pregnant": 6225,
      "continental": 6226,
      "Appe": 6227,
      "Boys": 6228,
      "Sunday": 6229,
      "duty": 6230,
      "concentration": 6231,
      "Evans": 6232,
      "enemy": 6233,
      "library": 6234,
      "granted": 6235,
      "pursue": 6236,
      "Chemical": 6237,
      "weapons": 6238,
      "Martin": 6239,
      "universities": 6240,
      "Children": 6241,
      "Entertainment": 6242,
      "Territ": 6243,
      "candidate": 6244,
      "arranged": 6245,
      "assembled": 6246,
      "recreational": 6247,
      "paintings": 6248,
      "banned": 6249,
      "determined": 6250,
      "confirmed": 6251,
      "metallic": 6252,
      "UNES": 6253,
      "wounded": 6254,
      "oriented": 6255,
      "discipl": 6256,
      "denomination": 6257,
      "accounts": 6258,
      "imeters": 6259,
      "Columbia": 6260,
      "Krasnyi": 6261,
      "Vasco": 6262,
      "gleba": 6263,
      "conservation": 6264,
      "opposite": 6265,
      "appropriate": 6266,
      "tropical": 6267,
      "Virginia": 6268,
      "utenant": 6269,
      "surgery": 6270,
      "symptoms": 6271,
      "Library": 6272,
      "Bristol": 6273,
      "Olym": 6274,
      "Scheer": 6275,
      "UNESCO": 6276,
      "3rd": 6277,
      "700": 6278,
      "Aer": 6279,
      "Amy": 6280,
      "Ber": 6281,
      "Band": 6282,
      "Bern": 6283,
      "Bron": 6284,
      "Both": 6285,
      "BBC": 6286,
      "BDS": 6287,
      "Cer": 6288,
      "Cub": 6289,
      "Cape": 6290,
      "Do": 6291,
      "Dig": 6292,
      "Denn": 6293,
      "DVD": 6294,
      "Es": 6295,
      "Eight": 6296,
      "Earth": 6297,
      "Field": 6298,
      "Father": 6299,
      "Get": 6300,
      "HO": 6301,
      "Hy": 6302,
      "Hann": 6303,
      "IT": 6304,
      "Jac": 6305,
      "Jazz": 6306,
      "Kh": 6307,
      "Kö": 6308,
      "Kal": 6309,
      "Kum": 6310,
      "Lic": 6311,
      "List": 6312,
      "Lab": 6313,
      "Liber": 6314,
      "Mer": 6315,
      "Mit": 6316,
      "Mane": 6317,
      "Na": 6318,
      "Oil": 6319,
      "Pur": 6320,
      "Pers": 6321,
      "Rac": 6322,
      "Rem": 6323,
      "Rif": 6324,
      "Roll": 6325,
      "Set": 6326,
      "Sak": 6327,
      "Schol": 6328,
      "Sully": 6329,
      "TA": 6330,
      "Tour": 6331,
      "Tell": 6332,
      "Ut": 6333,
      "UCL": 6334,
      "Vi": 6335,
      "Ven": 6336,
      "Villa": 6337,
      "Wel": 6338,
      "Zion": 6339,
      "Zil": 6340,
      "bull": 6341,
      "cement": 6342,
      "cats": 6343,
      "crown": 6344,
      "caught": 6345,
      "dark": 6346,
      "die": 6347,
      "eas": 6348,
      "eag": 6349,
      "epo": 6350,
      "fate": 6351,
      "fashion": 6352,
      "hant": 6353,
      "hind": 6354,
      "hire": 6355,
      "ien": 6356,
      "ifor": 6357,
      "ji": 6358,
      "ju": 6359,
      "ko": 6360,
      "kin": 6361,
      "kan": 6362,
      "kil": 6363,
      "kok": 6364,
      "lord": 6365,
      "lone": 6366,
      "loud": 6367,
      "ming": 6368,
      "mit": 6369,
      "mine": 6370,
      "ners": 6371,
      "pist": 6372,
      "phas": 6373,
      "pson": 6374,
      "rout": 6375,
      "sq": 6376,
      "tent": 6377,
      "tun": 6378,
      "tum": 6379,
      "tone": 6380,
      "tip": 6381,
      "tts": 6382,
      "tub": 6383,
      "uing": 6384,
      "uable": 6385,
      "vac": 6386,
      "wich": 6387,
      "ye": 6388,
      "yle": 6389,
      "zew": 6390,
      "thy": 6391,
      "thous": 6392,
      "intr": 6393,
      "instru": 6394,
      "invent": 6395,
      "theistic": 6396,
      "renew": 6397,
      "revers": 6398,
      "resemble": 6399,
      "atures": 6400,
      "orship": 6401,
      "enanti": 6402,
      "enlisted": 6403,
      "strict": 6404,
      "arity": 6405,
      "oft": 6406,
      "isław": 6407,
      "itab": 6408,
      "toid": 6409,
      "iced": 6410,
      "icians": 6411,
      "rob": 6412,
      "rog": 6413,
      "rot": 6414,
      "chant": 6415,
      "chast": 6416,
      "chose": 6417,
      "iles": 6418,
      "ilized": 6419,
      "seems": 6420,
      "olph": 6421,
      "admitted": 6422,
      "eline": 6423,
      "aments": 6424,
      "ammun": 6425,
      "oming": 6426,
      "acity": 6427,
      "accompany": 6428,
      "forty": 6429,
      "bee": 6430,
      "beam": 6431,
      "irregular": 6432,
      "lyn": 6433,
      "depos": 6434,
      "imurti": 6435,
      "unrest": 6436,
      "unless": 6437,
      "confront": 6438,
      "conspir": 6439,
      "agency": 6440,
      "istance": 6441,
      "erected": 6442,
      "ette": 6443,
      "approv": 6444,
      "verte": 6445,
      "opher": 6446,
      "opposing": 6447,
      "alls": 6448,
      "alloy": 6449,
      "odd": 6450,
      "oded": 6451,
      "odore": 6452,
      "trained": 6453,
      "tribut": 6454,
      "shar": 6455,
      "shots": 6456,
      "sustained": 6457,
      "progn": 6458,
      "artillery": 6459,
      "ordnance": 6460,
      "soil": 6461,
      "antiqu": 6462,
      "endra": 6463,
      "perfect": 6464,
      "affir": 6465,
      "ipp": 6466,
      "Champion": 6467,
      "Chairman": 6468,
      "rub": 6469,
      "iance": 6470,
      "udes": 6471,
      "covers": 6472,
      "prised": 6473,
      "prise": 6474,
      "asserted": 6475,
      "evil": 6476,
      "acks": 6477,
      "achan": 6478,
      "achuse": 6479,
      "ogie": 6480,
      "oglyph": 6481,
      "bles": 6482,
      "scatter": 6483,
      "scorer": 6484,
      "ureau": 6485,
      "parties": 6486,
      "neither": 6487,
      "recru": 6488,
      "Thames": 6489,
      "spher": 6490,
      "feed": 6491,
      "raham": 6492,
      "gray": 6493,
      "grave": 6494,
      "grace": 6495,
      "context": 6496,
      "contained": 6497,
      "compar": 6498,
      "phil": 6499,
      "phant": 6500,
      "osaurus": 6501,
      "megal": 6502,
      "flat": 6503,
      "flame": 6504,
      "flesh": 6505,
      "regist": 6506,
      "regions": 6507,
      "understanding": 6508,
      "monitors": 6509,
      "ualties": 6510,
      "rowed": 6511,
      "Reign": 6512,
      "ronom": 6513,
      "1990s": 6514,
      "genre": 6515,
      "annex": 6516,
      "annular": 6517,
      "subtypes": 6518,
      "subcontinent": 6519,
      "Asia": 6520,
      "producers": 6521,
      "Only": 6522,
      "polis": 6523,
      "elephant": 6524,
      "visual": 6525,
      "strained": 6526,
      "gameplay": 6527,
      "belt": 6528,
      "council": 6529,
      "follows": 6530,
      "describe": 6531,
      "severely": 6532,
      "1949": 6533,
      "1982": 6534,
      "1980s": 6535,
      "identity": 6536,
      "diver": 6537,
      "volume": 6538,
      "armament": 6539,
      "decides": 6540,
      "decisions": 6541,
      "grounds": 6542,
      "vara": 6543,
      "Beg": 6544,
      "Beach": 6545,
      "Geopy": 6546,
      "classical": 6547,
      "downtown": 6548,
      "headed": 6549,
      "headquarters": 6550,
      "difference": 6551,
      "glas": 6552,
      "gliders": 6553,
      "topped": 6554,
      "easter": 6555,
      "ocked": 6556,
      "pression": 6557,
      "defended": 6558,
      "worldwide": 6559,
      "1972": 6560,
      "oxide": 6561,
      "facility": 6562,
      "bands": 6563,
      "grey": 6564,
      "running": 6565,
      "periods": 6566,
      "1924": 6567,
      "limit": 6568,
      "collections": 6569,
      "Strand": 6570,
      "Strachan": 6571,
      "royal": 6572,
      "1964": 6573,
      "Boogie": 6574,
      "historians": 6575,
      "communities": 6576,
      "iques": 6577,
      "SbF": 6578,
      "basement": 6579,
      "agreement": 6580,
      "1957": 6581,
      "1959": 6582,
      "senior": 6583,
      "deaths": 6584,
      "status": 6585,
      "statue": 6586,
      "Prince": 6587,
      "Prime": 6588,
      "promotional": 6589,
      "wooden": 6590,
      "searching": 6591,
      "charts": 6592,
      "affair": 6593,
      "camps": 6594,
      "causing": 6595,
      "materials": 6596,
      "penet": 6597,
      "planet": 6598,
      "Heritage": 6599,
      "Stefan": 6600,
      "Edmund": 6601,
      "McKay": 6602,
      "1905": 6603,
      "violation": 6604,
      "circulation": 6605,
      "couple": 6606,
      "interests": 6607,
      "Trinsey": 6608,
      "Trimurti": 6609,
      "Period": 6610,
      "protect": 6611,
      "crews": 6612,
      "ovil": 6613,
      "alyst": 6614,
      "Regiment": 6615,
      "employment": 6616,
      "Places": 6617,
      "connection": 6618,
      "sacr": 6619,
      "FIFA": 6620,
      "Upper": 6621,
      "biography": 6622,
      "persu": 6623,
      "traits": 6624,
      "application": 6625,
      "occurs": 6626,
      "1889": 6627,
      "mounts": 6628,
      "mounted": 6629,
      "ruler": 6630,
      "temporary": 6631,
      "altern": 6632,
      "entirely": 6633,
      "Super": 6634,
      "techniques": 6635,
      "Atlantic": 6636,
      "nomination": 6637,
      "surrounded": 6638,
      "Richmond": 6639,
      "massive": 6640,
      "rectory": 6641,
      "fantry": 6642,
      "improve": 6643,
      "measuring": 6644,
      "measures": 6645,
      "Hurricane": 6646,
      "myths": 6647,
      "Draft": 6648,
      "reagent": 6649,
      "methods": 6650,
      "architecture": 6651,
      "Democr": 6652,
      "Nazis": 6653,
      "burned": 6654,
      "prisoners": 6655,
      "responded": 6656,
      "Belle": 6657,
      "picked": 6658,
      "coastal": 6659,
      "Japanese": 6660,
      "Nights": 6661,
      "Operation": 6662,
      "Operations": 6663,
      "collaboration": 6664,
      "collaborated": 6665,
      "journalists": 6666,
      "laboratory": 6667,
      "1930s": 6668,
      "Promiscuous": 6669,
      "frequent": 6670,
      "repaired": 6671,
      "departure": 6672,
      "experiment": 6673,
      "printed": 6674,
      "graduated": 6675,
      "Spector": 6676,
      "bombardment": 6677,
      "gambling": 6678,
      "voice": 6679,
      "ordinary": 6680,
      "Baby": 6681,
      "Critical": 6682,
      "duties": 6683,
      "pushing": 6684,
      "watching": 6685,
      "embarked": 6686,
      "emotional": 6687,
      "eliminate": 6688,
      "eliminated": 6689,
      "legislation": 6690,
      "reconcil": 6691,
      "chaos": 6692,
      "chapel": 6693,
      "aggressive": 6694,
      "opponents": 6695,
      "Throughout": 6696,
      "Support": 6697,
      "apparently": 6698,
      "Business": 6699,
      "CNS": 6700,
      "negative": 6701,
      "Massachuse": 6702,
      "hieroglyph": 6703,
      "waters": 6704,
      "abnormalities": 6705,
      "authors": 6706,
      "spiritual": 6707,
      "dubious": 6708,
      "cytogenetics": 6709,
      "Bangkok": 6710,
      "Douglas": 6711,
      "Sonthi": 6712,
      "Yeovil": 6713,
      "skills": 6714,
      "Georgia": 6715,
      "Tigers": 6716,
      "dynam": 6717,
      "sanct": 6718,
      "isolated": 6719,
      "osexual": 6720,
      "occasionally": 6721,
      "Festival": 6722,
      "Ravana": 6723,
      "prognostic": 6724,
      "audeville": 6725,
      "pharaoh": 6726,
      "Cornwallis": 6727,
      "Dharmendra": 6728,
      "Subsequ": 6729,
      "baht": 6730,
      "für": 6731,
      "constantly": 6732,
      "agiarism": 6733,
      "completely": 6734,
      "expansion": 6735,
      "Kumar": 6736,
      "Maneater": 6737,
      "Ziltoid": 6738,
      "ammunition": 6739,
      "megalithic": 6740,
      "Geopyxis": 6741,
      "Massachusetts": 6742,
      "110": 6743,
      "130": 6744,
      "93": 6745,
      "Au": 6746,
      "Around": 6747,
      "Bon": 6748,
      "Ball": 6749,
      "Bud": 6750,
      "Bann": 6751,
      "Benn": 6752,
      "Bened": 6753,
      "Basketball": 6754,
      "CD": 6755,
      "Card": 6756,
      "Cru": 6757,
      "Creek": 6758,
      "Coul": 6759,
      "Coty": 6760,
      "Down": 6761,
      "Donald": 6762,
      "Eric": 6763,
      "Every": 6764,
      "Fam": 6765,
      "Fab": 6766,
      "Found": 6767,
      "Fore": 6768,
      "Gil": 6769,
      "Gill": 6770,
      "Gros": 6771,
      "Hel": 6772,
      "Hud": 6773,
      "Hitch": 6774,
      "IA": 6775,
      "Jun": 6776,
      "Jason": 6777,
      "Jones": 6778,
      "Jacqu": 6779,
      "Kav": 6780,
      "Kate": 6781,
      "Kail": 6782,
      "La": 6783,
      "Lt": 6784,
      "Lan": 6785,
      "Lem": 6786,
      "Lev": 6787,
      "Mol": 6788,
      "Mur": 6789,
      "Mall": 6790,
      "Mod": 6791,
      "M18": 6792,
      "Mos": 6793,
      "Much": 6794,
      "Nach": 6795,
      "Nations": 6796,
      "Ott": 6797,
      "Ocean": 6798,
      "Pra": 6799,
      "Phy": 6800,
      "Pier": 6801,
      "Run": 6802,
      "Rail": 6803,
      "RCA": 6804,
      "Sex": 6805,
      "Such": 6806,
      "Spain": 6807,
      "Sisters": 6808,
      "Tan": 6809,
      "Tel": 6810,
      "Tax": 6811,
      "Vish": 6812,
      "Wall": 6813,
      "Women": 6814,
      "brit": 6815,
      "bran": 6816,
      "bbel": 6817,
      "cul": 6818,
      "cies": 6819,
      "card": 6820,
      "curing": 6821,
      "cite": 6822,
      "dog": 6823,
      "dwell": 6824,
      "fen": 6825,
      "fusion": 6826,
      "fuel": 6827,
      "gest": 6828,
      "gross": 6829,
      "hat": 6830,
      "hay": 6831,
      "iy": 6832,
      "iest": 6833,
      "iations": 6834,
      "jour": 6835,
      "kaz": 6836,
      "mist": 6837,
      "nig": 6838,
      "nia": 6839,
      "nave": 6840,
      "oing": 6841,
      "och": 6842,
      "pure": 6843,
      "rant": 6844,
      "rase": 6845,
      "rants": 6846,
      "sam": 6847,
      "sid": 6848,
      "sess": 6849,
      "sung": 6850,
      "sitting": 6851,
      "task": 6852,
      "tape": 6853,
      "ux": 6854,
      "uit": 6855,
      "uff": 6856,
      "vint": 6857,
      "vote": 6858,
      "zer": 6859,
      "zes": 6860,
      "ál": 6861,
      "ín": 6862,
      "inet": 6863,
      "inspe": 6864,
      "eras": 6865,
      "erated": 6866,
      "anes": 6867,
      "onent": 6868,
      "rear": 6869,
      "reno": 6870,
      "relocated": 6871,
      "reput": 6872,
      "reference": 6873,
      "reactions": 6874,
      "atom": 6875,
      "ora": 6876,
      "orb": 6877,
      "orarily": 6878,
      "ala": 6879,
      "alin": 6880,
      "alde": 6881,
      "ensure": 6882,
      "energy": 6883,
      "aside": 6884,
      "ingly": 6885,
      "itr": 6886,
      "itas": 6887,
      "icate": 6888,
      "ician": 6889,
      "outer": 6890,
      "hetto": 6891,
      "roof": 6892,
      "roots": 6893,
      "ropolis": 6894,
      "cht": 6895,
      "chrom": 6896,
      "chos": 6897,
      "ady": 6898,
      "advis": 6899,
      "elder": 6900,
      "acclaim": 6901,
      "begun": 6902,
      "beyond": 6903,
      "department": 6904,
      "imag": 6905,
      "imier": 6906,
      "ivals": 6907,
      "igation": 6908,
      "unsuccessful": 6909,
      "condem": 6910,
      "cture": 6911,
      "agu": 6912,
      "aground": 6913,
      "emit": 6914,
      "terior": 6915,
      "istant": 6916,
      "umber": 6917,
      "ceased": 6918,
      "utter": 6919,
      "1912": 6920,
      "1916": 6921,
      "opined": 6922,
      "plane": 6923,
      "platin": 6924,
      "absol": 6925,
      "abroad": 6926,
      "abilities": 6927,
      "comic": 6928,
      "shop": 6929,
      "shif": 6930,
      "exchange": 6931,
      "lose": 6932,
      "mov": 6933,
      "arten": 6934,
      "ishes": 6935,
      "icherry": 6936,
      "ears": 6937,
      "rier": 6938,
      "perhaps": 6939,
      "asting": 6940,
      "affect": 6941,
      "notably": 6942,
      "ogues": 6943,
      "ella": 6944,
      "ignment": 6945,
      "blown": 6946,
      "scr": 6947,
      "format": 6948,
      "boy": 6949,
      "booba": 6950,
      "veget": 6951,
      "Things": 6952,
      "lix": 6953,
      "ulty": 6954,
      "ultane": 6955,
      "spend": 6956,
      "feud": 6957,
      "raise": 6958,
      "okie": 6959,
      "desc": 6960,
      "athlet": 6961,
      "disorder": 6962,
      "phrase": 6963,
      "Alan": 6964,
      "Album": 6965,
      "osomal": 6966,
      "archy": 6967,
      "interim": 6968,
      "internal": 6969,
      "regarding": 6970,
      "underwent": 6971,
      "goes": 6972,
      "roughly": 6973,
      "specifically": 6974,
      "filmm": 6975,
      "Report": 6976,
      "saurus": 6977,
      "anning": 6978,
      "annually": 6979,
      "weak": 6980,
      "rent": 6981,
      "argues": 6982,
      "buy": 6983,
      "substrate": 6984,
      "angular": 6985,
      "forest": 6986,
      "useful": 6987,
      "Deput": 6988,
      "eleven": 6989,
      "Lee": 6990,
      "medium": 6991,
      "surrender": 6992,
      "drinking": 6993,
      "viewed": 6994,
      "viewers": 6995,
      "hypo": 6996,
      "Christians": 6997,
      "Christopher": 6998,
      "signal": 6999,
      "signing": 7000,
      "numbered": 7001,
      "extrem": 7002,
      "calls": 7003,
      "What": 7004,
      "epithe": 7005,
      "cured": 7006,
      "maj": 7007,
      "adding": 7008,
      "appeal": 7009,
      "capacity": 7010,
      "engines": 7011,
      "1945": 7012,
      "1946": 7013,
      "1947": 7014,
      "1948": 7015,
      "Conflict": 7016,
      "divin": 7017,
      "paralle": 7018,
      "Adri": 7019,
      "classified": 7020,
      "receive": 7021,
      "brood": 7022,
      "Commodore": 7023,
      "completion": 7024,
      "millimeters": 7025,
      "comeback": 7026,
      "gliding": 7027,
      "glider": 7028,
      "listing": 7029,
      "pressed": 7030,
      "othy": 7031,
      "organic": 7032,
      "arring": 7033,
      "trying": 7034,
      "Prop": 7035,
      "Prov": 7036,
      "allows": 7037,
      "profit": 7038,
      "1970": 7039,
      "Palace": 7040,
      "Trust": 7041,
      "passage": 7042,
      "frig": 7043,
      "green": 7044,
      "dipl": 7045,
      "dioc": 7046,
      "1927": 7047,
      "1928": 7048,
      "colleagues": 7049,
      "1967": 7050,
      "Soon": 7051,
      "Monuments": 7052,
      "cruise": 7053,
      "clearly": 7054,
      "porter": 7055,
      "involves": 7056,
      "1863": 7057,
      "Commanding": 7058,
      "putting": 7059,
      "leukemias": 7060,
      "Holy": 7061,
      "Hollywood": 7062,
      "roads": 7063,
      "equal": 7064,
      "talent": 7065,
      "deliber": 7066,
      "Medical": 7067,
      "Immemorial": 7068,
      "1878": 7069,
      "1879": 7070,
      "1908": 7071,
      "industries": 7072,
      "frey": 7073,
      "acceptable": 7074,
      "couver": 7075,
      "tourist": 7076,
      "Artist": 7077,
      "interested": 7078,
      "funds": 7079,
      "existed": 7080,
      "effective": 7081,
      "Series": 7082,
      "collapsed": 7083,
      "surviving": 7084,
      "combination": 7085,
      "Register": 7086,
      "installed": 7087,
      "salv": 7088,
      "perspect": 7089,
      "ruled": 7090,
      "temporarily": 7091,
      "altered": 7092,
      "alternative": 7093,
      "chambers": 7094,
      "rooms": 7095,
      "subsequent": 7096,
      "transportation": 7097,
      "deadline": 7098,
      "fruitbodies": 7099,
      "boundaries": 7100,
      "animals": 7101,
      "conduct": 7102,
      "rails": 7103,
      "policies": 7104,
      "dependence": 7105,
      "Point": 7106,
      "Poeh": 7107,
      "happened": 7108,
      "preced": 7109,
      "Williams": 7110,
      "Senate": 7111,
      "keeping": 7112,
      "newspapers": 7113,
      "concerns": 7114,
      "offerings": 7115,
      "multi": 7116,
      "confused": 7117,
      "confisc": 7118,
      "Califor": 7119,
      "Singles": 7120,
      "stopped": 7121,
      "rifles": 7122,
      "ynastic": 7123,
      "assassins": 7124,
      "Angelo": 7125,
      "kinderg": 7126,
      "tells": 7127,
      "telling": 7128,
      "theaters": 7129,
      "theatrical": 7130,
      "mutual": 7131,
      "PlayStation": 7132,
      "poorly": 7133,
      "Stanisław": 7134,
      "ceremon": 7135,
      "Weekend": 7136,
      "safe": 7137,
      "electric": 7138,
      "Adams": 7139,
      "Metro": 7140,
      "Boliv": 7141,
      "purchase": 7142,
      "challenge": 7143,
      "seriously": 7144,
      "Confederacy": 7145,
      "requested": 7146,
      "MacArthur": 7147,
      "departed": 7148,
      "convoy": 7149,
      "solely": 7150,
      "barrows": 7151,
      "targeted": 7152,
      "categories": 7153,
      "rendered": 7154,
      "photographs": 7155,
      "Bowman": 7156,
      "Campbell": 7157,
      "lanes": 7158,
      "ratings": 7159,
      "wearing": 7160,
      "enemies": 7161,
      "learned": 7162,
      "Ashbee": 7163,
      "Dorothy": 7164,
      "Telecom": 7165,
      "melod": 7166,
      "seeking": 7167,
      "drugs": 7168,
      "loyal": 7169,
      "controversy": 7170,
      "controversial": 7171,
      "instrumental": 7172,
      "Hereford": 7173,
      "Turk": 7174,
      "Vancouver": 7175,
      "enjoyed": 7176,
      "incorporated": 7177,
      "agricultural": 7178,
      "Arabic": 7179,
      "priests": 7180,
      "Antiquaries": 7181,
      "Arihant": 7182,
      "Knicks": 7183,
      "Pilot": 7184,
      "eggs": 7185,
      "pitched": 7186,
      "sulfur": 7187,
      "Production": 7188,
      "Hindi": 7189,
      "jewel": 7190,
      "inspiration": 7191,
      "strength": 7192,
      "terror": 7193,
      "ocytic": 7194,
      "flanked": 7195,
      "divorce": 7196,
      "licensed": 7197,
      "eighth": 7198,
      "tigall": 7199,
      "torture": 7200,
      "Anupong": 7201,
      "sketch": 7202,
      "surveillance": 7203,
      "Mehbooba": 7204,
      "sleep": 7205,
      "witness": 7206,
      "substantial": 7207,
      "moderate": 7208,
      "Jarvis": 7209,
      "Livin": 7210,
      "oversaw": 7211,
      "adaptation": 7212,
      "aboard": 7213,
      "trioxide": 7214,
      "proposal": 7215,
      "Kraków": 7216,
      "Territory": 7217,
      "Mitchel": 7218,
      "Tellicherry": 7219,
      "Welsh": 7220,
      "epox": 7221,
      "tubes": 7222,
      "chastity": 7223,
      "accompanying": 7224,
      "prognosis": 7225,
      "registered": 7226,
      "annexed": 7227,
      "diverse": 7228,
      "Beginning": 7229,
      "Supporting": 7230,
      "Benedict": 7231,
      "Kavkaz": 7232,
      "Kailash": 7233,
      "Nachtigall": 7234,
      "Vishnu": 7235,
      "vintage": 7236,
      "reputation": 7237,
      "chosen": 7238,
      "imierz": 7239,
      "platinum": 7240,
      "Deputy": 7241,
      "Poehler": 7242,
      "California": 7243,
      "kindergarten": 7244,
      "120": 7245,
      "55": 7246,
      "74": 7247,
      "85": 7248,
      "97": 7249,
      "9th": 7250,
      "Aren": 7251,
      "Bh": 7252,
      "Bad": 7253,
      "Bac": 7254,
      "Bhad": 7255,
      "Bef": 7256,
      "Burn": 7257,
      "Branch": 7258,
      "Bureau": 7259,
      "Ci": 7260,
      "Cave": 7261,
      "Case": 7262,
      "Cross": 7263,
      "Clevel": 7264,
      "Cinem": 7265,
      "Diss": 7266,
      "DNA": 7267,
      "Flight": 7268,
      "Flow": 7269,
      "Gef": 7270,
      "Gál": 7271,
      "Had": 7272,
      "Hath": 7273,
      "Having": 7274,
      "IN": 7275,
      "Kev": 7276,
      "Kee": 7277,
      "Las": 7278,
      "Ling": 7279,
      "Lie": 7280,
      "Lanka": 7281,
      "Mic": 7282,
      "Mill": 7283,
      "Moun": 7284,
      "Morgan": 7285,
      "Net": 7286,
      "Near": 7287,
      "Nile": 7288,
      "Never": 7289,
      "OR": 7290,
      "Our": 7291,
      "Oma": 7292,
      "PM": 7293,
      "PS": 7294,
      "Pan": 7295,
      "Pit": 7296,
      "Pay": 7297,
      "Ré": 7298,
      "Ron": 7299,
      "Raf": 7300,
      "Right": 7301,
      "Roc": 7302,
      "Rob": 7303,
      "RID": 7304,
      "Ryan": 7305,
      "Sz": 7306,
      "Sto": 7307,
      "Say": 7308,
      "Sev": 7309,
      "Sci": 7310,
      "Sports": 7311,
      "Tun": 7312,
      "Tale": 7313,
      "Var": 7314,
      "Vers": 7315,
      "Wł": 7316,
      "Wing": 7317,
      "Want": 7318,
      "WHO": 7319,
      "Xinj": 7320,
      "Yog": 7321,
      "bom": 7322,
      "bly": 7323,
      "bath": 7324,
      "boring": 7325,
      "cot": 7326,
      "dig": 7327,
      "dun": 7328,
      "dust": 7329,
      "daco": 7330,
      "grossing": 7331,
      "junt": 7332,
      "kiss": 7333,
      "lers": 7334,
      "lies": 7335,
      "lists": 7336,
      "laugh": 7337,
      "mum": 7338,
      "mess": 7339,
      "mary": 7340,
      "math": 7341,
      "master": 7342,
      "nall": 7343,
      "nie": 7344,
      "oct": 7345,
      "oke": 7346,
      "osp": 7347,
      "pin": 7348,
      "pto": 7349,
      "pent": 7350,
      "pse": 7351,
      "pir": 7352,
      "pap": 7353,
      "pill": 7354,
      "poll": 7355,
      "pale": 7356,
      "pounds": 7357,
      "rh": 7358,
      "rus": 7359,
      "rates": 7360,
      "rhy": 7361,
      "sn": 7362,
      "sav": 7363,
      "sins": 7364,
      "snow": 7365,
      "sthetic": 7366,
      "tap": 7367,
      "tight": 7368,
      "tally": 7369,
      "uj": 7370,
      "wet": 7371,
      "worn": 7372,
      "yield": 7373,
      "Æsthetic": 7374,
      "árez": 7375,
      "ía": 7376,
      "ška": 7377,
      "thread": 7378,
      "inde": 7379,
      "informed": 7380,
      "inery": 7381,
      "erc": 7382,
      "erary": 7383,
      "theism": 7384,
      "rever": 7385,
      "rection": 7386,
      "remin": 7387,
      "remark": 7388,
      "reconstruction": 7389,
      "remix": 7390,
      "repet": 7391,
      "rebell": 7392,
      "ato": 7393,
      "orian": 7394,
      "alore": 7395,
      "enclosed": 7396,
      "stan": 7397,
      "stab": 7398,
      "stations": 7399,
      "stern": 7400,
      "stink": 7401,
      "starring": 7402,
      "arist": 7403,
      "asi": 7404,
      "itia": 7405,
      "itals": 7406,
      "itively": 7407,
      "itimate": 7408,
      "touch": 7409,
      "tooth": 7410,
      "outr": 7411,
      "leton": 7412,
      "rosaurus": 7413,
      "entitled": 7414,
      "chron": 7415,
      "chlor": 7416,
      "ilst": 7417,
      "iling": 7418,
      "illy": 7419,
      "secut": 7420,
      "segment": 7421,
      "ola": 7422,
      "adic": 7423,
      "elve": 7424,
      "elite": 7425,
      "amph": 7426,
      "omor": 7427,
      "acu": 7428,
      "accompan": 7429,
      "urer": 7430,
      "urday": 7431,
      "bear": 7432,
      "ira": 7433,
      "deleg": 7434,
      "impl": 7435,
      "iments": 7436,
      "imens": 7437,
      "why": 7438,
      "whate": 7439,
      "uni": 7440,
      "unlike": 7441,
      "uncertain": 7442,
      "withdrew": 7443,
      "conce": 7444,
      "convey": 7445,
      "idium": 7446,
      "agara": 7447,
      "uls": 7448,
      "emia": 7449,
      "emble": 7450,
      "usal": 7451,
      "ussell": 7452,
      "avo": 7453,
      "etic": 7454,
      "rescent": 7455,
      "resistance": 7456,
      "opod": 7457,
      "pled": 7458,
      "plat": 7459,
      "plate": 7460,
      "plagiarism": 7461,
      "abol": 7462,
      "compo": 7463,
      "odus": 7464,
      "odge": 7465,
      "aret": 7466,
      "trak": 7467,
      "trial": 7468,
      "trick": 7469,
      "tradem": 7470,
      "triple": 7471,
      "supre": 7472,
      "extr": 7473,
      "exact": 7474,
      "excess": 7475,
      "loch": 7476,
      "prove": 7477,
      "moves": 7478,
      "artwork": 7479,
      "Independent": 7480,
      "Infantry": 7481,
      "akers": 7482,
      "pole": 7483,
      "pool": 7484,
      "manner": 7485,
      "aste": 7486,
      "Chi": 7487,
      "Charts": 7488,
      "ruined": 7489,
      "ritual": 7490,
      "udad": 7491,
      "herent": 7492,
      "assess": 7493,
      "evacu": 7494,
      "acknow": 7495,
      "2000s": 7496,
      "Story": 7497,
      "Stony": 7498,
      "scious": 7499,
      "scape": 7500,
      "indis": 7501,
      "1890": 7502,
      "keeper": 7503,
      "Heavy": 7504,
      "boards": 7505,
      "veh": 7506,
      "aug": 7507,
      "Then": 7508,
      "Thus": 7509,
      "liqu": 7510,
      "otherwise": 7511,
      "commod": 7512,
      "spous": 7513,
      "spending": 7514,
      "shipping": 7515,
      "graver": 7516,
      "answ": 7517,
      "speech": 7518,
      "athers": 7519,
      "landscape": 7520,
      "osed": 7521,
      "ricted": 7522,
      "Unit": 7523,
      "Unlike": 7524,
      "ancest": 7525,
      "interior": 7526,
      "interchange": 7527,
      "crakes": 7528,
      "regard": 7529,
      "regurg": 7530,
      "mono": 7531,
      "nothing": 7532,
      "mercial": 7533,
      "merged": 7534,
      "Anne": 7535,
      "genes": 7536,
      "genres": 7537,
      "tenance": 7538,
      "annivers": 7539,
      "retained": 7540,
      "substitut": 7541,
      "submitted": 7542,
      "singing": 7543,
      "consol": 7544,
      "consult": 7545,
      "synd": 7546,
      "teammates": 7547,
      "arnab": 7548,
      "jeev": 7549,
      "doors": 7550,
      "doctoral": 7551,
      "Commercial": 7552,
      "visible": 7553,
      "ificial": 7554,
      "Leop": 7555,
      "locally": 7556,
      "pointed": 7557,
      "thereafter": 7558,
      "Yorkshire": 7559,
      "venue": 7560,
      "supposed": 7561,
      "Where": 7562,
      "operating": 7563,
      "metric": 7564,
      "Joan": 7565,
      "ubin": 7566,
      "colour": 7567,
      "descript": 7568,
      "describing": 7569,
      "innings": 7570,
      "engage": 7571,
      "1983": 7572,
      "depends": 7573,
      "Construction": 7574,
      "identify": 7575,
      "studied": 7576,
      "studying": 7577,
      "criteria": 7578,
      "helps": 7579,
      "disturb": 7580,
      "Adult": 7581,
      "cuts": 7582,
      "transplant": 7583,
      "download": 7584,
      "chest": 7585,
      "supporters": 7586,
      "personnel": 7587,
      "returns": 7588,
      "breaking": 7589,
      "Allen": 7590,
      "designs": 7591,
      "province": 7592,
      "couraged": 7593,
      "courses": 7594,
      "reality": 7595,
      "showed": 7596,
      "showing": 7597,
      "aimed": 7598,
      "atherine": 7599,
      "marking": 7600,
      "layers": 7601,
      "commands": 7602,
      "guil": 7603,
      "arrival": 7604,
      "arrison": 7605,
      "1933": 7606,
      "1934": 7607,
      "Howson": 7608,
      "evening": 7609,
      "Amitab": 7610,
      "join": 7611,
      "rising": 7612,
      "faculty": 7613,
      "runk": 7614,
      "thorough": 7615,
      "differentiation": 7616,
      "vention": 7617,
      "1921": 7618,
      "USS": 7619,
      "destination": 7620,
      "1968": 7621,
      "1960s": 7622,
      "corruption": 7623,
      "Market": 7624,
      "Expl": 7625,
      "Exodus": 7626,
      "explo": 7627,
      "explos": 7628,
      "believes": 7629,
      "believing": 7630,
      "northwest": 7631,
      "churches": 7632,
      "synthes": 7633,
      "synonym": 7634,
      "Guild": 7635,
      "Guang": 7636,
      "tests": 7637,
      "attempting": 7638,
      "Prof": 7639,
      "authorized": 7640,
      "Holiday": 7641,
      "Within": 7642,
      "footage": 7643,
      "Design": 7644,
      "shoulder": 7645,
      "affil": 7646,
      "campus": 7647,
      "functions": 7648,
      "Coach": 7649,
      "corner": 7650,
      "devil": 7651,
      "teaches": 7652,
      "clubs": 7653,
      "commercials": 7654,
      "Image": 7655,
      "expensive": 7656,
      "1870": 7657,
      "discern": 7658,
      "Petrie": 7659,
      "younger": 7660,
      "ylides": 7661,
      "1907": 7662,
      "everyone": 7663,
      "consistent": 7664,
      "refers": 7665,
      "Barra": 7666,
      "hostile": 7667,
      "fundamental": 7668,
      "Emily": 7669,
      "burgh": 7670,
      "estimates": 7671,
      "combinations": 7672,
      "needs": 7673,
      "Plan": 7674,
      "connects": 7675,
      "finds": 7676,
      "failing": 7677,
      "failure": 7678,
      "swallowing": 7679,
      "accus": 7680,
      "Manager": 7681,
      "sacrif": 7682,
      "Republican": 7683,
      "settled": 7684,
      "copy": 7685,
      "civilians": 7686,
      "battlecruisers": 7687,
      "conclusion": 7688,
      "introduction": 7689,
      "BCE": 7690,
      "autla": 7691,
      "hurst": 7692,
      "mountain": 7693,
      "probability": 7694,
      "fighters": 7695,
      "situations": 7696,
      "Fairy": 7697,
      "Suicide": 7698,
      "focused": 7699,
      "acquire": 7700,
      "1853": 7701,
      "1854": 7702,
      "Thompson": 7703,
      "Franklin": 7704,
      "Defence": 7705,
      "Abraham": 7706,
      "FAB": 7707,
      "eyes": 7708,
      "motif": 7709,
      "rectangular": 7710,
      "wider": 7711,
      "Quest": 7712,
      "Similar": 7713,
      "Similarly": 7714,
      "definition": 7715,
      "arterial": 7716,
      "separated": 7717,
      "Studios": 7718,
      "launch": 7719,
      "horse": 7720,
      "theatre": 7721,
      "secured": 7722,
      "grassland": 7723,
      "moralitas": 7724,
      "Fleetwood": 7725,
      "exhibits": 7726,
      "genetic": 7727,
      "favorable": 7728,
      "worthiness": 7729,
      "discussed": 7730,
      "discussion": 7731,
      "Bobby": 7732,
      "Kurfür": 7733,
      "linked": 7734,
      "replacing": 7735,
      "housed": 7736,
      "thriller": 7737,
      "secretary": 7738,
      "vertical": 7739,
      "Chapter": 7740,
      "sailed": 7741,
      "Queens": 7742,
      "garage": 7743,
      "ultimate": 7744,
      "printing": 7745,
      "indicates": 7746,
      "Gallian": 7747,
      "filled": 7748,
      "mints": 7749,
      "nuts": 7750,
      "rendition": 7751,
      "revolutionary": 7752,
      "Croatian": 7753,
      "Jeffrey": 7754,
      "banks": 7755,
      "machismo": 7756,
      "pitcher": 7757,
      "Outstanding": 7758,
      "ninet": 7759,
      "qualified": 7760,
      "stayed": 7761,
      "scientific": 7762,
      "struggle": 7763,
      "elementary": 7764,
      "maximus": 7765,
      "diagnosed": 7766,
      "Television": 7767,
      "dominant": 7768,
      "neighbour": 7769,
      "weapon": 7770,
      "functional": 7771,
      "Freya": 7772,
      "Gregorian": 7773,
      "Malini": 7774,
      "drug": 7775,
      "reinfor": 7776,
      "impression": 7777,
      "illustrated": 7778,
      "dialogues": 7779,
      "administr": 7780,
      "Hunter": 7781,
      "cinema": 7782,
      "accomplished": 7783,
      "Basanti": 7784,
      "Castle": 7785,
      "Globe": 7786,
      "Hospital": 7787,
      "Muslim": 7788,
      "Totten": 7789,
      "princess": 7790,
      "restrictions": 7791,
      "freedom": 7792,
      "Hornets": 7793,
      "Rodman": 7794,
      "wreck": 7795,
      "clinical": 7796,
      "passengers": 7797,
      "Garden": 7798,
      "Treaty": 7799,
      "crowd": 7800,
      "replied": 7801,
      "Assistant": 7802,
      "occasions": 7803,
      "corresponding": 7804,
      "Dunnington": 7805,
      "Bulloch": 7806,
      "utout": 7807,
      "warned": 7808,
      "anthrop": 7809,
      "seventeen": 7810,
      "constitutional": 7811,
      "intellectual": 7812,
      "Comedy": 7813,
      "Amendment": 7814,
      "Transportation": 7815,
      "Atenism": 7816,
      "Cuautla": 7817,
      "Machine": 7818,
      "Saturday": 7819,
      "Screen": 7820,
      "skeleton": 7821,
      "forbidden": 7822,
      "neutral": 7823,
      "survivors": 7824,
      "predominant": 7825,
      "Dennis": 7826,
      "König": 7827,
      "Licence": 7828,
      "Labrosaurus": 7829,
      "Liberty": 7830,
      "kilomet": 7831,
      "phase": 7832,
      "approval": 7833,
      "vertebra": 7834,
      "Championship": 7835,
      "reconciliation": 7836,
      "dynamic": 7837,
      "Coulson": 7838,
      "Foundation": 7839,
      "Grosser": 7840,
      "Hudson": 7841,
      "Hitchcock": 7842,
      "Ottawa": 7843,
      "Praška": 7844,
      "branched": 7845,
      "aldehy": 7846,
      "chromosomal": 7847,
      "divinities": 7848,
      "Propaganda": 7849,
      "diplom": 7850,
      "confiscated": 7851,
      "Bhaduri": 7852,
      "Before": 7853,
      "Ciudad": 7854,
      "Cleveland": 7855,
      "Geffen": 7856,
      "Gálvez": 7857,
      "Hathor": 7858,
      "Linga": 7859,
      "Lieutenant": 7860,
      "Nevertheless": 7861,
      "Omaha": 7862,
      "Rafael": 7863,
      "Xinjiang": 7864,
      "junta": 7865,
      "reminis": 7866,
      "rebellion": 7867,
      "stinkhorn": 7868,
      "accompanied": 7869,
      "whatever": 7870,
      "composer": 7871,
      "trademark": 7872,
      "Amitabh": 7873,
      "sacrifice": 7874,
      "Kurfürst": 7875,
      "2nd": 7876,
      "250": 7877,
      "240": 7878,
      "260": 7879,
      "3D": 7880,
      "3Sb": 7881,
      "4th": 7882,
      "58": 7883,
      "61": 7884,
      "83": 7885,
      "96": 7886,
      "98": 7887,
      "Ath": 7888,
      "Aqu": 7889,
      "Actor": 7890,
      "Ban": 7891,
      "Bre": 7892,
      "Bell": 7893,
      "Base": 7894,
      "Born": 7895,
      "Bird": 7896,
      "CB": 7897,
      "CE": 7898,
      "Cas": 7899,
      "Cur": 7900,
      "Cop": 7901,
      "Coy": 7902,
      "Celt": 7903,
      "Chest": 7904,
      "Fé": 7905,
      "Fed": 7906,
      "Fit": 7907,
      "Fri": 7908,
      "Gord": 7909,
      "Gary": 7910,
      "Gang": 7911,
      "Ghost": 7912,
      "Haw": 7913,
      "Ig": 7914,
      "Ir": 7915,
      "IHL": 7916,
      "Jup": 7917,
      "Jenn": 7918,
      "Know": 7919,
      "Kais": 7920,
      "Lin": 7921,
      "Lim": 7922,
      "Let": 7923,
      "Late": 7924,
      "Line": 7925,
      "Liam": 7926,
      "Lomb": 7927,
      "Mr": 7928,
      "Main": 7929,
      "Mang": 7930,
      "Moth": 7931,
      "MTV": 7932,
      "Merry": 7933,
      "Malone": 7934,
      "Mandatory": 7935,
      "ND": 7936,
      "Ni": 7937,
      "Nic": 7938,
      "Nick": 7939,
      "Niel": 7940,
      "Nike": 7941,
      "Note": 7942,
      "Ol": 7943,
      "Pa": 7944,
      "Pist": 7945,
      "Pass": 7946,
      "Pred": 7947,
      "Pitt": 7948,
      "Rear": 7949,
      "Russell": 7950,
      "Rubin": 7951,
      "Seven": 7952,
      "TO": 7953,
      "Tar": 7954,
      "Tatt": 7955,
      "Tamp": 7956,
      "Well": 7957,
      "Wild": 7958,
      "ait": 7959,
      "ares": 7960,
      "ahead": 7961,
      "bold": 7962,
      "bounds": 7963,
      "cz": 7964,
      "cro": 7965,
      "cere": 7966,
      "cab": 7967,
      "carn": 7968,
      "cements": 7969,
      "crescent": 7970,
      "dol": 7971,
      "dri": 7972,
      "dong": 7973,
      "dang": 7974,
      "eor": 7975,
      "ees": 7976,
      "fant": 7977,
      "fitted": 7978,
      "fasc": 7979,
      "gall": 7980,
      "gate": 7981,
      "gated": 7982,
      "gau": 7983,
      "garn": 7984,
      "ghetto": 7985,
      "hunt": 7986,
      "hael": 7987,
      "iary": 7988,
      "jad": 7989,
      "jam": 7990,
      "jack": 7991,
      "kne": 7992,
      "lined": 7993,
      "lighter": 7994,
      "map": 7995,
      "mits": 7996,
      "matt": 7997,
      "marg": 7998,
      "maps": 7999,
      "ole": 8000,
      "oice": 8001,
      "puck": 8002,
      "sized": 8003,
      "tle": 8004,
      "tet": 8005,
      "tong": 8006,
      "tical": 8007,
      "tide": 8008,
      "tire": 8009,
      "torn": 8010,
      "tissue": 8011,
      "ua": 8012,
      "va": 8013,
      "vul": 8014,
      "vard": 8015,
      "vary": 8016,
      "vaudeville": 8017,
      "varnab": 8018,
      "wings": 8019,
      "yel": 8020,
      "án": 8021,
      "ón": 8022,
      "thm": 8023,
      "thum": 8024,
      "thyl": 8025,
      "intim": 8026,
      "instruct": 8027,
      "instruction": 8028,
      "inhabit": 8029,
      "inaug": 8030,
      "anime": 8031,
      "onic": 8032,
      "edding": 8033,
      "remo": 8034,
      "reform": 8035,
      "reath": 8036,
      "reforms": 8037,
      "remove": 8038,
      "recovery": 8039,
      "aten": 8040,
      "atmo": 8041,
      "atile": 8042,
      "orse": 8043,
      "orma": 8044,
      "alt": 8045,
      "ena": 8046,
      "stro": 8047,
      "stel": 8048,
      "stell": 8049,
      "stance": 8050,
      "stret": 8051,
      "stages": 8052,
      "iser": 8053,
      "esque": 8054,
      "ito": 8055,
      "itan": 8056,
      "tourn": 8057,
      "tools": 8058,
      "icit": 8059,
      "icipal": 8060,
      "leaf": 8061,
      "leaked": 8062,
      "lecular": 8063,
      "roster": 8064,
      "rott": 8065,
      "chow": 8066,
      "ilton": 8067,
      "ilised": 8068,
      "illegal": 8069,
      "sees": 8070,
      "sect": 8071,
      "seem": 8072,
      "secure": 8073,
      "securing": 8074,
      "oldest": 8075,
      "adul": 8076,
      "adjust": 8077,
      "advent": 8078,
      "advoc": 8079,
      "eli": 8080,
      "eling": 8081,
      "elop": 8082,
      "elabor": 8083,
      "elbow": 8084,
      "amal": 8085,
      "omn": 8086,
      "omsky": 8087,
      "urity": 8088,
      "urally": 8089,
      "beating": 8090,
      "betain": 8091,
      "beats": 8092,
      "irid": 8093,
      "lymph": 8094,
      "dez": 8095,
      "determ": 8096,
      "ivered": 8097,
      "igen": 8098,
      "igins": 8099,
      "conven": 8100,
      "conscious": 8101,
      "idan": 8102,
      "idal": 8103,
      "ctic": 8104,
      "agon": 8105,
      "agents": 8106,
      "ules": 8107,
      "termed": 8108,
      "ump": 8109,
      "umption": 8110,
      "ceived": 8111,
      "opo": 8112,
      "pla": 8113,
      "plates": 8114,
      "plants": 8115,
      "abund": 8116,
      "aints": 8117,
      "composition": 8118,
      "comprising": 8119,
      "tri": 8120,
      "trust": 8121,
      "truth": 8122,
      "shift": 8123,
      "shutout": 8124,
      "superi": 8125,
      "peaking": 8126,
      "exists": 8127,
      "exerc": 8128,
      "proof": 8129,
      "proto": 8130,
      "procured": 8131,
      "ifies": 8132,
      "moon": 8133,
      "moist": 8134,
      "arti": 8135,
      "artif": 8136,
      "artistic": 8137,
      "ework": 8138,
      "Init": 8139,
      "Intell": 8140,
      "theropod": 8141,
      "ishvara": 8142,
      "aka": 8143,
      "earthen": 8144,
      "cles": 8145,
      "clust": 8146,
      "enders": 8147,
      "riots": 8148,
      "performer": 8149,
      "perception": 8150,
      "asters": 8151,
      "astru": 8152,
      "astopol": 8153,
      "illes": 8154,
      "ongoing": 8155,
      "actual": 8156,
      "actively": 8157,
      "quot": 8158,
      "quant": 8159,
      "quoted": 8160,
      "mental": 8161,
      "Cham": 8162,
      "Chaak": 8163,
      "Chomsky": 8164,
      "outages": 8165,
      "outstanding": 8166,
      "ources": 8167,
      "cosmo": 8168,
      "priv": 8169,
      "pray": 8170,
      "Stu": 8171,
      "Stand": 8172,
      "eller": 8173,
      "upa": 8174,
      "awken": 8175,
      "firing": 8176,
      "offshore": 8177,
      "scre": 8178,
      "ranking": 8179,
      "ranean": 8180,
      "intent": 8181,
      "overt": 8182,
      "1850": 8183,
      "kefell": 8184,
      "bore": 8185,
      "recoun": 8186,
      "recalls": 8187,
      "veter": 8188,
      "liot": 8189,
      "attached": 8190,
      "commem": 8191,
      "span": 8192,
      "spel": 8193,
      "spur": 8194,
      "feels": 8195,
      "gry": 8196,
      "okes": 8197,
      "oking": 8198,
      "spects": 8199,
      "desire": 8200,
      "compat": 8201,
      "displayed": 8202,
      "dissol": 8203,
      "displaced": 8204,
      "dismissed": 8205,
      "disrupt": 8206,
      "ferring": 8207,
      "phosp": 8208,
      "Alf": 8209,
      "afterward": 8210,
      "Univers": 8211,
      "megaliths": 8212,
      "fled": 8213,
      "flot": 8214,
      "maintenance": 8215,
      "interned": 8216,
      "intermediate": 8217,
      "cry": 8218,
      "steals": 8219,
      "understand": 8220,
      "monit": 8221,
      "merge": 8222,
      "Shin": 8223,
      "Shop": 8224,
      "gang": 8225,
      "insisted": 8226,
      "Reed": 8227,
      "Reich": 8228,
      "Reception": 8229,
      "rons": 8230,
      "finity": 8231,
      "relations": 8232,
      "Pola": 8233,
      "weather": 8234,
      "arguments": 8235,
      "obtain": 8236,
      "retiring": 8237,
      "ailing": 8238,
      "subordin": 8239,
      "knocked": 8240,
      "electoral": 8241,
      "doz": 8242,
      "Common": 8243,
      "string": 8244,
      "Newsted": 8245,
      "survey": 8246,
      "surrendered": 8247,
      "locations": 8248,
      "azing": 8249,
      "azirid": 8250,
      "charter": 8251,
      "extent": 8252,
      "venues": 8253,
      "leadership": 8254,
      "metic": 8255,
      "106": 8256,
      "closing": 8257,
      "clothing": 8258,
      "closure": 8259,
      "clothes": 8260,
      "populations": 8261,
      "innoc": 8262,
      "depending": 8263,
      "Cont": 8264,
      "Concept": 8265,
      "ctorate": 8266,
      "humi": 8267,
      "humid": 8268,
      "originated": 8269,
      "helm": 8270,
      "promyel": 8271,
      "decade": 8272,
      "societ": 8273,
      "distant": 8274,
      "Entire": 8275,
      "Beau": 8276,
      "blew": 8277,
      "17th": 8278,
      "inese": 8279,
      "legs": 8280,
      "legend": 8281,
      "legitimate": 8282,
      "successive": 8283,
      "millimeter": 8284,
      "restaur": 8285,
      "restricted": 8286,
      "personality": 8287,
      "Warne": 8288,
      "Allies": 8289,
      "matic": 8290,
      "maturity": 8291,
      "listen": 8292,
      "stands": 8293,
      "childhood": 8294,
      "provides": 8295,
      "realm": 8296,
      "construct": 8297,
      "markers": 8298,
      "organisation": 8299,
      "rounds": 8300,
      "reading": 8301,
      "readily": 8302,
      "Forces": 8303,
      "Airports": 8304,
      "Marc": 8305,
      "Mario": 8306,
      "1932": 8307,
      "anks": 8308,
      "Program": 8309,
      "Amjad": 8310,
      "ysław": 8311,
      "1971": 8312,
      "1979": 8313,
      "Austria": 8314,
      "faces": 8315,
      "facade": 8316,
      "Weeh": 8317,
      "Webb": 8318,
      "Order": 8319,
      "1960": 8320,
      "1962": 8321,
      "Carson": 8322,
      "Soap": 8323,
      "Soorma": 8324,
      "simultane": 8325,
      "southwest": 8326,
      "utionary": 8327,
      "politan": 8328,
      "politicians": 8329,
      "values": 8330,
      "Expedition": 8331,
      "Rovers": 8332,
      "trading": 8333,
      "explicit": 8334,
      "Count": 8335,
      "Juárez": 8336,
      "clean": 8337,
      "1953": 8338,
      "Characters": 8339,
      "1860": 8340,
      "1869": 8341,
      "initiated": 8342,
      "sentence": 8343,
      "statement": 8344,
      "domest": 8345,
      "professor": 8346,
      "panic": 8347,
      "Gods": 8348,
      "possession": 8349,
      "possibly": 8350,
      "averages": 8351,
      "titude": 8352,
      "frieze": 8353,
      "funeral": 8354,
      "funerary": 8355,
      "typical": 8356,
      "aerop": 8357,
      "incidence": 8358,
      "devast": 8359,
      "devotion": 8360,
      "delight": 8361,
      "delivered": 8362,
      "1874": 8363,
      "McEntire": 8364,
      "Pettit": 8365,
      "youngest": 8366,
      "sounding": 8367,
      "selection": 8368,
      "1902": 8369,
      "1909": 8370,
      "closest": 8371,
      "associations": 8372,
      "circulated": 8373,
      "Maury": 8374,
      "acceptance": 8375,
      "Barry": 8376,
      "donation": 8377,
      "household": 8378,
      "begin": 8379,
      "Develop": 8380,
      "Track": 8381,
      "calc": 8382,
      "trend": 8383,
      "sufficient": 8384,
      "regularly": 8385,
      "coaching": 8386,
      "burg": 8387,
      "reveals": 8388,
      "sculpted": 8389,
      "likened": 8390,
      "iewicz": 8391,
      "Michaels": 8392,
      "44b": 8393,
      "drove": 8394,
      "harbor": 8395,
      "striking": 8396,
      "connecting": 8397,
      "swallowed": 8398,
      "install": 8399,
      "complicated": 8400,
      "praise": 8401,
      "Mexican": 8402,
      "hygroscopic": 8403,
      "benz": 8404,
      "persist": 8405,
      "Directors": 8406,
      "Years": 8407,
      "applications": 8408,
      "Timor": 8409,
      "thinks": 8410,
      "thinking": 8411,
      "borne": 8412,
      "borrowed": 8413,
      "rules": 8414,
      "ruling": 8415,
      "rulers": 8416,
      "blocks": 8417,
      "Suvarnab": 8418,
      "homosexual": 8419,
      "expression": 8420,
      "technique": 8421,
      "migration": 8422,
      "commissioning": 8423,
      "railroad": 8424,
      "meetings": 8425,
      "Richards": 8426,
      "preceding": 8427,
      "upperparts": 8428,
      "Defensive": 8429,
      "micro": 8430,
      "microscop": 8431,
      "keepers": 8432,
      "motiv": 8433,
      "victories": 8434,
      "accessible": 8435,
      "examined": 8436,
      "memorable": 8437,
      "sulfonium": 8438,
      "defined": 8439,
      "myelobl": 8440,
      "Career": 8441,
      "riff": 8442,
      "fiction": 8443,
      "liner": 8444,
      "mutations": 8445,
      "vicinity": 8446,
      "Belg": 8447,
      "Playing": 8448,
      "Radio": 8449,
      "worthy": 8450,
      "championships": 8451,
      "programs": 8452,
      "prevented": 8453,
      "Weekly": 8454,
      "wait": 8455,
      "references": 8456,
      "Bobcats": 8457,
      "Metal": 8458,
      "reflected": 8459,
      "reflecting": 8460,
      "Victorian": 8461,
      "DreamWorks": 8462,
      "sailors": 8463,
      "repairs": 8464,
      "escaped": 8465,
      "expert": 8466,
      "indicate": 8467,
      "Gallery": 8468,
      "categor": 8469,
      "category": 8470,
      "hua": 8471,
      "tempo": 8472,
      "distributed": 8473,
      "Pakistani": 8474,
      "Outside": 8475,
      "Sundance": 8476,
      "pushed": 8477,
      "concentrated": 8478,
      "percentage": 8479,
      "bringing": 8480,
      "slowly": 8481,
      "Official": 8482,
      "dropped": 8483,
      "Luis": 8484,
      "susp": 8485,
      "scientists": 8486,
      "libraries": 8487,
      "belonging": 8488,
      "farmland": 8489,
      "elsewhere": 8490,
      "briefly": 8491,
      "Hamas": 8492,
      "virtue": 8493,
      "Observ": 8494,
      "Turkey": 8495,
      "encouraged": 8496,
      "administration": 8497,
      "maintaining": 8498,
      "considerable": 8499,
      "defenders": 8500,
      "Garuda": 8501,
      "Silent": 8502,
      "Wilhelm": 8503,
      "badly": 8504,
      "accomplish": 8505,
      "immigration": 8506,
      "agriculture": 8507,
      "rescue": 8508,
      "principal": 8509,
      "challenges": 8510,
      "temperature": 8511,
      "Honorary": 8512,
      "Memorial": 8513,
      "Mahé": 8514,
      "trouble": 8515,
      "cyclone": 8516,
      "Description": 8517,
      "Crex": 8518,
      "Dahlone": 8519,
      "infrastru": 8520,
      "advertis": 8521,
      "resignation": 8522,
      "mechanism": 8523,
      "interpretation": 8524,
      "Raphael": 8525,
      "anchor": 8526,
      "logist": 8527,
      "premiere": 8528,
      "drums": 8529,
      "supplies": 8530,
      "prompted": 8531,
      "checked": 8532,
      "Organization": 8533,
      "Originally": 8534,
      "victims": 8535,
      "dreadnought": 8536,
      "Brah": 8537,
      "Census": 8538,
      "Porfir": 8539,
      "revenge": 8540,
      "atrox": 8541,
      "flintlock": 8542,
      "guidance": 8543,
      "predecessor": 8544,
      "exclusively": 8545,
      "Ukrainian": 8546,
      "Agustín": 8547,
      "Hartford": 8548,
      "Konkan": 8549,
      "Return": 8550,
      "Sarah": 8551,
      "dancing": 8552,
      "gravity": 8553,
      "regulatory": 8554,
      "weighed": 8555,
      "oselective": 8556,
      "Lebanon": 8557,
      "microlights": 8558,
      "discipline": 8559,
      "Digital": 8560,
      "Hanneman": 8561,
      "Jacob": 8562,
      "Rifle": 8563,
      "easily": 8564,
      "eagle": 8565,
      "thousands": 8566,
      "reversibility": 8567,
      "conspirators": 8568,
      "philos": 8569,
      "ronomical": 8570,
      "Princeton": 8571,
      "affairs": 8572,
      "Subsequently": 8573,
      "Budd": 8574,
      "Bennett": 8575,
      "Mallory": 8576,
      "hatred": 8577,
      "journey": 8578,
      "condemned": 8579,
      "vegetation": 8580,
      "Albums": 8581,
      "extremely": 8582,
      "epoxides": 8583,
      "Kevin": 8584,
      "Rockefell": 8585,
      "Sevastopol": 8586,
      "rhiz": 8587,
      "platform": 8588,
      "supreme": 8589,
      "acknowled": 8590,
      "anniversary": 8591,
      "substituted": 8592,
      "consolidation": 8593,
      "syndrom": 8594,
      "disturbance": 8595,
      "Guangdong": 8596,
      "Profess": 8597,
      "Queensland": 8598,
      "reinforcements": 8599,
      "reminiscent": 8600,
      "Baseball": 8601,
      "Félix": 8602,
      "Federal": 8603,
      "Kaiser": 8604,
      "Nielsen": 8605,
      "Pistons": 8606,
      "Tattnall": 8607,
      "Tampa": 8608,
      "crops": 8609,
      "tongue": 8610,
      "removal": 8611,
      "stroke": 8612,
      "betaine": 8613,
      "determine": 8614,
      "Intelligence": 8615,
      "Weehawken": 8616,
      "Development": 8617,
      "Suvarnabhumi": 8618,
      "Dahlonega": 8619,
      "infrastructure": 8620,
      "Rockefeller": 8621,
      "02": 8622,
      "09": 8623,
      "2O": 8624,
      "Az": 8625,
      "Ast": 8626,
      "Abo": 8627,
      "Action": 8628,
      "Away": 8629,
      "Axis": 8630,
      "APL": 8631,
      "Again": 8632,
      "BP": 8633,
      "Bor": 8634,
      "Bes": 8635,
      "Bish": 8636,
      "Bry": 8637,
      "Barn": 8638,
      "Bush": 8639,
      "Bhop": 8640,
      "Bomb": 8641,
      "Brian": 8642,
      "Ce": 8643,
      "Cir": 8644,
      "Coff": 8645,
      "Cra": 8646,
      "Carn": 8647,
      "Chel": 8648,
      "Cock": 8649,
      "Curt": 8650,
      "Caval": 8651,
      "Cert": 8652,
      "Cultural": 8653,
      "Culture": 8654,
      "Dave": 8655,
      "Drunk": 8656,
      "FC": 8657,
      "FM": 8658,
      "Fly": 8659,
      "Fem": 8660,
      "Fru": 8661,
      "Fried": 8662,
      "Fires": 8663,
      "Folk": 8664,
      "Gre": 8665,
      "Gur": 8666,
      "Ghar": 8667,
      "Hem": 8668,
      "Hans": 8669,
      "Hamp": 8670,
      "IR": 8671,
      "Ike": 8672,
      "Jut": 8673,
      "Jud": 8674,
      "Jean": 8675,
      "KG": 8676,
      "Ki": 8677,
      "Kan": 8678,
      "Kick": 8679,
      "Kenn": 8680,
      "Kelly": 8681,
      "Li": 8682,
      "Last": 8683,
      "Law": 8684,
      "Life": 8685,
      "Lane": 8686,
      "Lyn": 8687,
      "Lester": 8688,
      "Larry": 8689,
      "Lodge": 8690,
      "Mis": 8691,
      "Miller": 8692,
      "Nation": 8693,
      "Num": 8694,
      "Nob": 8695,
      "Nub": 8696,
      "Nelly": 8697,
      "OS": 8698,
      "Open": 8699,
      "Oscar": 8700,
      "Pi": 8701,
      "Pel": 8702,
      "Punch": 8703,
      "Please": 8704,
      "Ru": 8705,
      "Ref": 8706,
      "Rivers": 8707,
      "Sand": 8708,
      "Spr": 8709,
      "Scap": 8710,
      "Square": 8711,
      "Slav": 8712,
      "Tina": 8713,
      "Ur": 8714,
      "Vill": 8715,
      "Voc": 8716,
      "Voice": 8717,
      "Was": 8718,
      "Wilm": 8719,
      "Wick": 8720,
      "Worth": 8721,
      "Wadd": 8722,
      "Wright": 8723,
      "Walter": 8724,
      "Wald": 8725,
      "Xin": 8726,
      "XIII": 8727,
      "Yet": 8728,
      "Yug": 8729,
      "bt": 8730,
      "bron": 8731,
      "barr": 8732,
      "cous": 8733,
      "catch": 8734,
      "dish": 8735,
      "dens": 8736,
      "dwar": 8737,
      "dock": 8738,
      "dying": 8739,
      "eu": 8740,
      "eal": 8741,
      "fu": 8742,
      "fab": 8743,
      "fame": 8744,
      "fine": 8745,
      "fra": 8746,
      "fib": 8747,
      "filed": 8748,
      "gow": 8749,
      "gers": 8750,
      "glo": 8751,
      "gear": 8752,
      "gaining": 8753,
      "golf": 8754,
      "girls": 8755,
      "giant": 8756,
      "hes": 8757,
      "hull": 8758,
      "ients": 8759,
      "iences": 8760,
      "jet": 8761,
      "jug": 8762,
      "jimm": 8763,
      "kick": 8764,
      "kowski": 8765,
      "lat": 8766,
      "lion": 8767,
      "lad": 8768,
      "lust": 8769,
      "lific": 8770,
      "laim": 8771,
      "mac": 8772,
      "mation": 8773,
      "mers": 8774,
      "mate": 8775,
      "mowing": 8776,
      "ns": 8777,
      "nṯ": 8778,
      "nav": 8779,
      "nations": 8780,
      "navy": 8781,
      "oven": 8782,
      "oval": 8783,
      "ocean": 8784,
      "pa": 8785,
      "pg": 8786,
      "pine": 8787,
      "psy": 8788,
      "pped": 8789,
      "penter": 8790,
      "rations": 8791,
      "rush": 8792,
      "rarian": 8793,
      "rpg": 8794,
      "sad": 8795,
      "sens": 8796,
      "sars": 8797,
      "tions": 8798,
      "tended": 8799,
      "uz": 8800,
      "uly": 8801,
      "upr": 8802,
      "vin": 8803,
      "vir": 8804,
      "vass": 8805,
      "vices": 8806,
      "ware": 8807,
      "worm": 8808,
      "zo": 8809,
      "zan": 8810,
      "µg": 8811,
      "ñol": 8812,
      "ńska": 8813,
      "μm": 8814,
      "thin": 8815,
      "inas": 8816,
      "incess": 8817,
      "independence": 8818,
      "eries": 8819,
      "anay": 8820,
      "antour": 8821,
      "angry": 8822,
      "oned": 8823,
      "onset": 8824,
      "online": 8825,
      "editor": 8826,
      "reh": 8827,
      "rep": 8828,
      "replace": 8829,
      "recovered": 8830,
      "reverse": 8831,
      "rebounds": 8832,
      "orous": 8833,
      "origins": 8834,
      "ali": 8835,
      "alu": 8836,
      "alion": 8837,
      "encounter": 8838,
      "stom": 8839,
      "sters": 8840,
      "stain": 8841,
      "stick": 8842,
      "stuc": 8843,
      "stability": 8844,
      "aro": 8845,
      "aron": 8846,
      "arose": 8847,
      "asgow": 8848,
      "isations": 8849,
      "esis": 8850,
      "itish": 8851,
      "itely": 8852,
      "tox": 8853,
      "totally": 8854,
      "icial": 8855,
      "ioners": 8856,
      "heat": 8857,
      "hear": 8858,
      "hemat": 8859,
      "headdress": 8860,
      "leap": 8861,
      "leans": 8862,
      "leaves": 8863,
      "rope": 8864,
      "rochemical": 8865,
      "rookie": 8866,
      "chip": 8867,
      "chorus": 8868,
      "ilic": 8869,
      "ilation": 8870,
      "seed": 8871,
      "sections": 8872,
      "adsen": 8873,
      "advice": 8874,
      "elf": 8875,
      "elines": 8876,
      "accur": 8877,
      "accommod": 8878,
      "urra": 8879,
      "bears": 8880,
      "bearing": 8881,
      "irr": 8882,
      "decommissioned": 8883,
      "impossible": 8884,
      "imprison": 8885,
      "Theat": 8886,
      "whitish": 8887,
      "ayan": 8888,
      "united": 8889,
      "unnamed": 8890,
      "unjust": 8891,
      "unpopular": 8892,
      "universe": 8893,
      "unconstitutional": 8894,
      "conference": 8895,
      "congreg": 8896,
      "idency": 8897,
      "idges": 8898,
      "agrarian": 8899,
      "emin": 8900,
      "terrace": 8901,
      "apg": 8902,
      "apped": 8903,
      "apuri": 8904,
      "verty": 8905,
      "resur": 8906,
      "oped": 8907,
      "opra": 8908,
      "oples": 8909,
      "ophy": 8910,
      "options": 8911,
      "plus": 8912,
      "allot": 8913,
      "allosaur": 8914,
      "abortion": 8915,
      "aburra": 8916,
      "compos": 8917,
      "comfort": 8918,
      "arest": 8919,
      "arely": 8920,
      "trig": 8921,
      "trun": 8922,
      "trucks": 8923,
      "suit": 8924,
      "peak": 8925,
      "exile": 8926,
      "exception": 8927,
      "lore": 8928,
      "loose": 8929,
      "loving": 8930,
      "proced": 8931,
      "prolific": 8932,
      "molecular": 8933,
      "artef": 8934,
      "Insur": 8935,
      "Information": 8936,
      "Infinity": 8937,
      "therlands": 8938,
      "ichi": 8939,
      "akh": 8940,
      "aki": 8941,
      "poverty": 8942,
      "cler": 8943,
      "clar": 8944,
      "tegr": 8945,
      "rible": 8946,
      "mann": 8947,
      "illness": 8948,
      "qué": 8949,
      "quate": 8950,
      "quote": 8951,
      "Chil": 8952,
      "Chul": 8953,
      "Chinese": 8954,
      "Chopra": 8955,
      "rous": 8956,
      "uded": 8957,
      "cos": 8958,
      "cosm": 8959,
      "heritage": 8960,
      "ported": 8961,
      "portions": 8962,
      "ocity": 8963,
      "eve": 8964,
      "evident": 8965,
      "Still": 8966,
      "Stalin": 8967,
      "awl": 8968,
      "awat": 8969,
      "ignored": 8970,
      "intact": 8971,
      "intense": 8972,
      "inda": 8973,
      "18th": 8974,
      "1800": 8975,
      "1840": 8976,
      "1880": 8977,
      "1836": 8978,
      "keen": 8979,
      "boys": 8980,
      "airline": 8981,
      "omech": 8982,
      "server": 8983,
      "augment": 8984,
      "attending": 8985,
      "oughts": 8986,
      "spots": 8987,
      "sphere": 8988,
      "izer": 8989,
      "fection": 8990,
      "feeding": 8991,
      "grain": 8992,
      "okaburra": 8993,
      "contest": 8994,
      "desper": 8995,
      "landed": 8996,
      "comprom": 8997,
      "compreh": 8998,
      "disappoint": 8999,
      "dispers": 9000,
      "discouraged": 9001,
      "phic": 9002,
      "phone": 9003,
      "phae": 9004,
      "Alb": 9005,
      "Almin": 9006,
      "Albert": 9007,
      "aftermath": 9008,
      "prem": 9009,
      "preferred": 9010,
      "premis": 9011,
      "oss": 9012,
      "oslav": 9013,
      "ricts": 9014,
      "Universe": 9015,
      "methyl": 9016,
      "Arn": 9017,
      "Armed": 9018,
      "flown": 9019,
      "adequate": 9020,
      "cks": 9021,
      "ibilities": 9022,
      "worker": 9023,
      "seasonal": 9024,
      "mainstream": 9025,
      "intersection": 9026,
      "tying": 9027,
      "regulated": 9028,
      "steep": 9029,
      "understood": 9030,
      "centered": 9031,
      "merchant": 9032,
      "inson": 9033,
      "insula": 9034,
      "Anth": 9035,
      "publishing": 9036,
      "speculation": 9037,
      "speculated": 9038,
      "Represent": 9039,
      "Rector": 9040,
      "Reality": 9041,
      "Reuter": 9042,
      "genu": 9043,
      "relatives": 9044,
      "myself": 9045,
      "myster": 9046,
      "mycel": 9047,
      "tene": 9048,
      "tenham": 9049,
      "ornament": 9050,
      "ickens": 9051,
      "Sey": 9052,
      "Sealy": 9053,
      "minister": 9054,
      "ministers": 9055,
      "minimal": 9056,
      "aeus": 9057,
      "numism": 9058,
      "angel": 9059,
      "relev": 9060,
      "forever": 9061,
      "consent": 9062,
      "anyone": 9063,
      "product": 9064,
      "products": 9065,
      "ieth": 9066,
      "iege": 9067,
      "Novel": 9068,
      "jection": 9069,
      "Dean": 9070,
      "Deities": 9071,
      "Isles": 9072,
      "elevated": 9073,
      "strateg": 9074,
      "iously": 9075,
      "Leic": 9076,
      "medic": 9077,
      "surge": 9078,
      "dram": 9079,
      "draf": 9080,
      "presentation": 9081,
      "cartr": 9082,
      "hyphae": 9083,
      "extens": 9084,
      "extends": 9085,
      "veneration": 9086,
      "ballistic": 9087,
      "102": 9088,
      "popul": 9089,
      "Clay": 9090,
      "ugg": 9091,
      "Conserv": 9092,
      "continuous": 9093,
      "Andh": 9094,
      "humor": 9095,
      "marble": 9096,
      "Acute": 9097,
      "diving": 9098,
      "volumes": 9099,
      "promul": 9100,
      "Atum": 9101,
      "mayor": 9102,
      "rape": 9103,
      "Egypto": 9104,
      "couldn": 9105,
      "districts": 9106,
      "varied": 9107,
      "variants": 9108,
      "Advan": 9109,
      "Entry": 9110,
      "succeeded": 9111,
      "bleeding": 9112,
      "asks": 9113,
      "cheese": 9114,
      "chester": 9115,
      "fielder": 9116,
      "receives": 9117,
      "restored": 9118,
      "lesser": 9119,
      "ieval": 9120,
      "personally": 9121,
      "personified": 9122,
      "placing": 9123,
      "breast": 9124,
      "sixteen": 9125,
      "considering": 9126,
      "slip": 9127,
      "gling": 9128,
      "openly": 9129,
      "listening": 9130,
      "appa": 9131,
      "providing": 9132,
      "presses": 9133,
      "courty": 9134,
      "realise": 9135,
      "increases": 9136,
      "reader": 9137,
      "Former": 9138,
      "Forbes": 9139,
      "arrive": 9140,
      "Marian": 9141,
      "Method": 9142,
      "cults": 9143,
      "Protest": 9144,
      "characterised": 9145,
      "characterized": 9146,
      "defending": 9147,
      "MLB": 9148,
      "missile": 9149,
      "profile": 9150,
      "handed": 9151,
      "1977": 9152,
      "reviewer": 9153,
      "reviewed": 9154,
      "modified": 9155,
      "keyboards": 9156,
      "rises": 9157,
      "posters": 9158,
      "flex": 9159,
      "barrier": 9160,
      "banded": 9161,
      "fram": 9162,
      "frame": 9163,
      "rumours": 9164,
      "sembly": 9165,
      "establishing": 9166,
      "activists": 9167,
      "controlling": 9168,
      "solar": 9169,
      "solue": 9170,
      "Ord": 9171,
      "Orchestra": 9172,
      "Orleans": 9173,
      "excavate": 9174,
      "collect": 9175,
      "USA": 9176,
      "1969": 9177,
      "genera": 9178,
      "generated": 9179,
      "Carib": 9180,
      "simple": 9181,
      "similarly": 9182,
      "valuable": 9183,
      "Montene": 9184,
      "Romano": 9185,
      "femin": 9186,
      "prize": 9187,
      "starter": 9188,
      "basid": 9189,
      "cruel": 9190,
      "crucial": 9191,
      "bestselling": 9192,
      "traditions": 9193,
      "Netherlands": 9194,
      "turning": 9195,
      "1955": 9196,
      "1956": 9197,
      "Character": 9198,
      "formerly": 9199,
      "402": 9200,
      "403": 9201,
      "1865": 9202,
      "1867": 9203,
      "sequences": 9204,
      "syncret": 9205,
      "sentenced": 9206,
      "tested": 9207,
      "promoting": 9208,
      "profession": 9209,
      "professors": 9210,
      "professionally": 9211,
      "omena": 9212,
      "possess": 9213,
      "drawing": 9214,
      "timeslot": 9215,
      "Brand": 9216,
      "Brad": 9217,
      "midt": 9218,
      "midst": 9219,
      "ambient": 9220,
      "commerce": 9221,
      "causes": 9222,
      "Islands": 9223,
      "devout": 9224,
      "breakout": 9225,
      "delay": 9226,
      "mixing": 9227,
      "Mediter": 9228,
      "Scouting": 9229,
      "1877": 9230,
      "Finally": 9231,
      "fewest": 9232,
      "sounds": 9233,
      "streets": 9234,
      "1903": 9235,
      "violated": 9236,
      "dealt": 9237,
      "dealership": 9238,
      "circulate": 9239,
      "Maj": 9240,
      "Maidan": 9241,
      "Mosh": 9242,
      "Paris": 9243,
      "donated": 9244,
      "households": 9245,
      "aticus": 9246,
      "tourism": 9247,
      "ographer": 9248,
      "ArtWalk": 9249,
      "Artillery": 9250,
      "Devon": 9251,
      "funded": 9252,
      "lawyer": 9253,
      "morally": 9254,
      "morph": 9255,
      "competed": 9256,
      "recognize": 9257,
      "Performan": 9258,
      "Perhaps": 9259,
      "Revival": 9260,
      "fallen": 9261,
      "falling": 9262,
      "comedian": 9263,
      "earning": 9264,
      "changing": 9265,
      "fifty": 9266,
      "patrol": 9267,
      "scholarly": 9268,
      "survive": 9269,
      "survival": 9270,
      "iewski": 9271,
      "combat": 9272,
      "Regular": 9273,
      "employees": 9274,
      "System": 9275,
      "Symons": 9276,
      "strips": 9277,
      "Associated": 9278,
      "bonus": 9279,
      "finding": 9280,
      "complaint": 9281,
      "graphic": 9282,
      "Goe": 9283,
      "civilian": 9284,
      "salt": 9285,
      "Myres": 9286,
      "doubt": 9287,
      "potentially": 9288,
      "experiences": 9289,
      "availability": 9290,
      "1887": 9291,
      "Filmfare": 9292,
      "Small": 9293,
      "autumn": 9294,
      "lacks": 9295,
      "1895": 9296,
      "languages": 9297,
      "Anglo": 9298,
      "approached": 9299,
      "approaching": 9300,
      "1856": 9301,
      "dedication": 9302,
      "animated": 9303,
      "commenting": 9304,
      "Trey": 9305,
      "reduce": 9306,
      "Defender": 9307,
      "propeller": 9308,
      "worshipped": 9309,
      "fungi": 9310,
      "labelled": 9311,
      "motion": 9312,
      "remun": 9313,
      "zyński": 9314,
      "travelled": 9315,
      "protesters": 9316,
      "Brobbel": 9317,
      "Hungary": 9318,
      "Simon": 9319,
      "nationally": 9320,
      "stopping": 9321,
      "adopt": 9322,
      "detailed": 9323,
      "properties": 9324,
      "methodologies": 9325,
      "contribution": 9326,
      "horus": 9327,
      "ttes": 9328,
      "converting": 9329,
      "emphasised": 9330,
      "emphasized": 9331,
      "chambered": 9332,
      "sunk": 9333,
      "exhibited": 9334,
      "preparing": 9335,
      "preparation": 9336,
      "prominently": 9337,
      "Radha": 9338,
      "bells": 9339,
      "judge": 9340,
      "heavier": 9341,
      "entertainment": 9342,
      "emergency": 9343,
      "diagnostic": 9344,
      "Ramgar": 9345,
      "kerb": 9346,
      "waiting": 9347,
      "subjects": 9348,
      "electron": 9349,
      "discussions": 9350,
      "Fourteenth": 9351,
[...]
